{"!":0,"\"":1,"#":2,"$":3,"%":4,"&":5,"'":6,"(":7,")":8,"*":9,"+":10,",":11,"-":12,".":13,"/":14,"0":15,"1":16,"2":17,"3":18,"4":19,"5":20,"6":21,"7":22,"8":23,"9":24,":":25,";":26,"<":27,"=":28,">":29,"?":30,"@":31,"A":32,"B":33,"C":34,"D":35,"E":36,"F":37,"G":38,"H":39,"I":40,"J":41,"K":42,"L":43,"M":44,"N":45,"O":46,"P":47,"Q":48,"R":49,"S":50,"T":51,"U":52,"V":53,"W":54,"X":55,"Y":56,"Z":57,"[":58,"\\":59,"]":60,"^":61,"_":62,"`":63,"a":64,"b":65,"c":66,"d":67,"e":68,"f":69,"g":70,"h":71,"i":72,"j":73,"k":74,"l":75,"m":76,"n":77,"o":78,"p":79,"q":80,"r":81,"s":82,"t":83,"u":84,"v":85,"w":86,"x":87,"y":88,"z":89,"{":90,"|":91,"}":92,"~":93,"¡":94,"¢":95,"£":96,"¤":97,"¥":98,"¦":99,"§":100,"¨":101,"©":102,"ª":103,"«":104,"¬":105,"®":106,"¯":107,"°":108,"±":109,"²":110,"³":111,"´":112,"µ":113,"¶":114,"·":115,"¸":116,"¹":117,"º":118,"»":119,"¼":120,"½":121,"¾":122,"¿":123,"À":124,"Á":125,"Â":126,"Ã":127,"Ä":128,"Å":129,"Æ":130,"Ç":131,"È":132,"É":133,"Ê":134,"Ë":135,"Ì":136,"Í":137,"Î":138,"Ï":139,"Ð":140,"Ñ":141,"Ò":142,"Ó":143,"Ô":144,"Õ":145,"Ö":146,"×":147,"Ø":148,"Ù":149,"Ú":150,"Û":151,"Ü":152,"Ý":153,"Þ":154,"ß":155,"à":156,"á":157,"â":158,"ã":159,"ä":160,"å":161,"æ":162,"ç":163,"è":164,"é":165,"ê":166,"ë":167,"ì":168,"í":169,"î":170,"ï":171,"ð":172,"ñ":173,"ò":174,"ó":175,"ô":176,"õ":177,"ö":178,"÷":179,"ø":180,"ù":181,"ú":182,"û":183,"ü":184,"ý":185,"þ":186,"ÿ":187,"Ā":188,"ā":189,"Ă":190,"ă":191,"Ą":192,"ą":193,"Ć":194,"ć":195,"Ĉ":196,"ĉ":197,"Ċ":198,"ċ":199,"Č":200,"č":201,"Ď":202,"ď":203,"Đ":204,"đ":205,"Ē":206,"ē":207,"Ĕ":208,"ĕ":209,"Ė":210,"ė":211,"Ę":212,"ę":213,"Ě":214,"ě":215,"Ĝ":216,"ĝ":217,"Ğ":218,"ğ":219,"Ġ":220,"ġ":221,"Ģ":222,"ģ":223,"Ĥ":224,"ĥ":225,"Ħ":226,"ħ":227,"Ĩ":228,"ĩ":229,"Ī":230,"ī":231,"Ĭ":232,"ĭ":233,"Į":234,"į":235,"İ":236,"ı":237,"Ĳ":238,"ĳ":239,"Ĵ":240,"ĵ":241,"Ķ":242,"ķ":243,"ĸ":244,"Ĺ":245,"ĺ":246,"Ļ":247,"ļ":248,"Ľ":249,"ľ":250,"Ŀ":251,"ŀ":252,"Ł":253,"ł":254,"Ń":255,"Ġt":256,"Ġa":257,"he":258,"in":259,"re":260,"on":261,"Ġthe":262,"er":263,"Ġs":264,"at":265,"Ġw":266,"Ġo":267,"en":268,"Ġc":269,"it":270,"is":271,"an":272,"or":273,"es":274,"Ġb":275,"ed":276,"Ġf":277,"ing":278,"Ġp":279,"ou":280,"Ġan":281,"al":282,"ar":283,"Ġto":284,"Ġm":285,"Ġof":286,"Ġin":287,"Ġd":288,"Ġh":289,"Ġand":290,"ic":291,"as":292,"le":293,"Ġth":294,"ion":295,"om":296,"ll":297,"ent":298,"Ġn":299,"Ġl":300,"st":301,"Ġre":302,"ve":303,"Ġe":304,"ro":305,"ly":306,"Ġbe":307,"Ġg":308,"ĠT":309,"ct":310,"ĠS":311,"id":312,"ot":313,"ĠI":314,"ut":315,"et":316,"ĠA":317,"Ġis":318,"Ġon":319,"im":320,"am":321,"ow":322,"ay":323,"ad":324,"se":325,"Ġthat":326,"ĠC":327,"ig":328,"Ġfor":329,"ac":330,"Ġy":331,"ver":332,"ur":333,"Ġu":334,"ld":335,"Ġst":336,"ĠM":337,"'s":338,"Ġhe":339,"Ġit":340,"ation":341,"ith":342,"ir":343,"ce":344,"Ġyou":345,"il":346,"ĠB":347,"Ġwh":348,"ol":349,"ĠP":350,"Ġwith":351,"Ġ1":352,"ter":353,"ch":354,"Ġas":355,"Ġwe":356,"Ġ(":357,"nd":358,"ill":359,"ĠD":360,"if":361,"Ġ2":362,"ag":363,"ers":364,"ke":365,"Ġ\"":366,"ĠH":367,"em":368,"Ġcon":369,"ĠW":370,"ĠR":371,"her":372,"Ġwas":373,"Ġr":374,"od":375,"ĠF":376,"ul":377,"ate":378,"Ġat":379,"ri":380,"pp":381,"ore":382,"ĠThe":383,"Ġse":384,"us":385,"Ġpro":386,"Ġha":387,"um":388,"Ġare":389,"Ġde":390,"ain":391,"and":392,"Ġor":393,"igh":394,"est":395,"ist":396,"ab":397,"rom":398,"ĠN":399,"th":400,"Ġcom":401,"ĠG":402,"un":403,"op":404,"00":405,"ĠL":406,"Ġnot":407,"ess":408,"Ġex":409,"Ġv":410,"res":411,"ĠE":412,"ew":413,"ity":414,"ant":415,"Ġby":416,"el":417,"os":418,"ort":419,"oc":420,"qu":421,"Ġfrom":422,"Ġhave":423,"Ġsu":424,"ive":425,"ould":426,"Ġsh":427,"Ġthis":428,"nt":429,"ra":430,"pe":431,"ight":432,"art":433,"ment":434,"Ġal":435,"ust":436,"end":437,"--":438,"all":439,"ĠO":440,"ack":441,"Ġch":442,"Ġle":443,"ies":444,"red":445,"ard":446,"âĢ":447,"out":448,"ĠJ":449,"Ġab":450,"ear":451,"iv":452,"ally":453,"our":454,"ost":455,"gh":456,"pt":457,"Ġpl":458,"ast":459,"Ġcan":460,"ak":461,"ome":462,"ud":463,"The":464,"Ġhis":465,"Ġdo":466,"Ġgo":467,"Ġhas":468,"ge":469,"'t":470,"ĠU":471,"rou":472,"Ġsa":473,"Ġj":474,"Ġbut":475,"Ġwor":476,"Ġall":477,"ect":478,"Ġk":479,"ame":480,"Ġwill":481,"ok":482,"Ġwhe":483,"Ġthey":484,"ide":485,"01":486,"ff":487,"ich":488,"pl":489,"ther":490,"Ġtr":491,"..":492,"Ġint":493,"ie":494,"ure":495,"age":496,"Ġne":497,"ial":498,"ap":499,"ine":500,"ice":501,"Ġme":502,"Ġout":503,"ans":504,"one":505,"ong":506,"ions":507,"Ġwho":508,"ĠK":509,"Ġup":510,"Ġtheir":511,"Ġad":512,"Ġ3":513,"Ġus":514,"ated":515,"ous":516,"Ġmore":517,"ue":518,"og":519,"ĠSt":520,"ind":521,"ike":522,"Ġso":523,"ime":524,"per":525,".\"":526,"ber":527,"iz":528,"act":529,"Ġone":530,"Ġsaid":531,"Ġ-":532,"are":533,"Ġyour":534,"cc":535,"ĠTh":536,"Ġcl":537,"ep":538,"ake":539,"able":540,"ip":541,"Ġcont":542,"Ġwhich":543,"ia":544,"Ġim":545,"Ġabout":546,"Ġwere":547,"very":548,"ub":549,"Ġhad":550,"Ġen":551,"Ġcomp":552,",\"":553,"ĠIn":554,"Ġun":555,"Ġag":556,"ire":557,"ace":558,"au":559,"ary":560,"Ġwould":561,"ass":562,"ry":563,"ĠâĢ":564,"cl":565,"ook":566,"ere":567,"so":568,"ĠV":569,"ign":570,"ib":571,"Ġoff":572,"Ġte":573,"ven":574,"ĠY":575,"ile":576,"ose":577,"ite":578,"orm":579,"Ġ201":580,"Ġres":581,"Ġman":582,"Ġper":583,"Ġother":584,"ord":585,"ult":586,"Ġbeen":587,"Ġlike":588,"ase":589,"ance":590,"ks":591,"ays":592,"own":593,"ence":594,"Ġdis":595,"ction":596,"Ġany":597,"Ġapp":598,"Ġsp":599,"int":600,"ress":601,"ations":602,"ail":603,"Ġ4":604,"ical":605,"Ġthem":606,"Ġher":607,"ount":608,"ĠCh":609,"Ġar":610,"Ġif":611,"Ġthere":612,"Ġpe":613,"Ġyear":614,"av":615,"Ġmy":616,"Ġsome":617,"Ġwhen":618,"ough":619,"ach":620,"Ġthan":621,"ru":622,"ond":623,"ick":624,"Ġover":625,"vel":626,"Ġqu":627,"ĊĊ":628,"Ġsc":629,"reat":630,"ree":631,"ĠIt":632,"ound":633,"port":634,"Ġalso":635,"Ġpart":636,"fter":637,"Ġkn":638,"Ġbec":639,"Ġtime":640,"ens":641,"Ġ5":642,"ople":643,"Ġwhat":644,"Ġno":645,"du":646,"mer":647,"ang":648,"Ġnew":649,"----":650,"Ġget":651,"ory":652,"ition":653,"ings":654,"Ġjust":655,"Ġinto":656,"Ġ0":657,"ents":658,"ove":659,"te":660,"Ġpeople":661,"Ġpre":662,"Ġits":663,"Ġrec":664,"Ġtw":665,"ian":666,"irst":667,"ark":668,"ors":669,"Ġwork":670,"ade":671,"ob":672,"Ġshe":673,"Ġour":674,"wn":675,"ink":676,"lic":677,"Ġ19":678,"ĠHe":679,"ish":680,"nder":681,"ause":682,"Ġhim":683,"ons":684,"Ġ[":685,"Ġro":686,"form":687,"ild":688,"ates":689,"vers":690,"Ġonly":691,"oll":692,"Ġspe":693,"ck":694,"ell":695,"amp":696,"Ġacc":697,"Ġbl":698,"ious":699,"urn":700,"ft":701,"ood":702,"Ġhow":703,"hed":704,"Ġ'":705,"Ġafter":706,"aw":707,"Ġatt":708,"ov":709,"ne":710,"Ġplay":711,"erv":712,"ict":713,"Ġcould":714,"itt":715,"Ġam":716,"Ġfirst":717,"Ġ6":718,"Ġact":719,"Ġ$":720,"ec":721,"hing":722,"ual":723,"ull":724,"Ġcomm":725,"oy":726,"old":727,"ces":728,"ater":729,"Ġfe":730,"Ġbet":731,"we":732,"iff":733,"Ġtwo":734,"ock":735,"Ġback":736,").":737,"ident":738,"Ġunder":739,"rough":740,"sel":741,"xt":742,"Ġmay":743,"round":744,"Ġpo":745,"ph":746,"iss":747,"Ġdes":748,"Ġmost":749,"Ġdid":750,"Ġadd":751,"ject":752,"Ġinc":753,"fore":754,"Ġpol":755,"ont":756,"Ġagain":757,"clud":758,"tern":759,"Ġknow":760,"Ġneed":761,"Ġcons":762,"Ġco":763,"Ġ.":764,"Ġwant":765,"Ġsee":766,"Ġ7":767,"ning":768,"iew":769,"ĠThis":770,"ced":771,"Ġeven":772,"Ġind":773,"ty":774,"ĠWe":775,"ath":776,"Ġthese":777,"Ġpr":778,"Ġuse":779,"Ġbecause":780,"Ġfl":781,"ng":782,"Ġnow":783,"ĠâĢĵ":784,"com":785,"ise":786,"Ġmake":787,"Ġthen":788,"ower":789,"Ġevery":790,"ĠUn":791,"Ġsec":792,"oss":793,"uch":794,"Ġem":795,"Ġ=":796,"ĠRe":797,"ied":798,"rit":799,"Ġinv":800,"lect":801,"Ġsupp":802,"ating":803,"Ġlook":804,"man":805,"pect":806,"Ġ8":807,"row":808,"Ġbu":809,"Ġwhere":810,"ific":811,"Ġyears":812,"ily":813,"Ġdiff":814,"Ġshould":815,"Ġrem":816,"Th":817,"In":818,"Ġev":819,"day":820,"'re":821,"rib":822,"Ġrel":823,"ss":824,"Ġdef":825,"Ġright":826,"Ġsy":827,"),":828,"les":829,"000":830,"hen":831,"Ġthrough":832,"ĠTr":833,"__":834,"Ġway":835,"Ġdon":836,"Ġ,":837,"Ġ10":838,"ased":839,"Ġass":840,"ublic":841,"Ġreg":842,"ĠAnd":843,"ix":844,"Ġvery":845,"Ġinclud":846,"other":847,"Ġimp":848,"oth":849,"Ġsub":850,"ĠâĢĶ":851,"Ġbeing":852,"arg":853,"ĠWh":854,"==":855,"ible":856,"Ġdoes":857,"ange":858,"ram":859,"Ġ9":860,"ert":861,"ps":862,"ited":863,"ational":864,"Ġbr":865,"Ġdown":866,"Ġmany":867,"aking":868,"Ġcall":869,"uring":870,"ities":871,"Ġph":872,"ics":873,"als":874,"Ġdec":875,"ative":876,"ener":877,"Ġbefore":878,"ility":879,"Ġwell":880,"Ġmuch":881,"erson":882,"Ġthose":883,"Ġsuch":884,"Ġke":885,"Ġend":886,"ĠBut":887,"ason":888,"ting":889,"Ġlong":890,"ef":891,"Ġthink":892,"ys":893,"Ġbel":894,"Ġsm":895,"its":896,"ax":897,"Ġown":898,"Ġprov":899,"Ġset":900,"ife":901,"ments":902,"ble":903,"ward":904,"Ġshow":905,"Ġpres":906,"ms":907,"omet":908,"Ġob":909,"Ġsay":910,"ĠSh":911,"ts":912,"ful":913,"Ġeff":914,"Ġgu":915,"Ġinst":916,"und":917,"ren":918,"cess":919,"Ġent":920,"ĠYou":921,"Ġgood":922,"Ġstart":923,"ince":924,"Ġmade":925,"tt":926,"stem":927,"olog":928,"up":929,"Ġ|":930,"ump":931,"Ġhel":932,"vern":933,"ular":934,"ually":935,"Ġac":936,"Ġmon":937,"Ġlast":938,"Ġ200":939,"10":940,"Ġstud":941,"ures":942,"ĠAr":943,"self":944,"ars":945,"meric":946,"ues":947,"cy":948,"Ġmin":949,"ollow":950,"Ġcol":951,"io":952,"Ġmod":953,"Ġcount":954,"ĠCom":955,"hes":956,"Ġfin":957,"air":958,"ier":959,"âĢĶ":960,"read":961,"ank":962,"atch":963,"ever":964,"Ġstr":965,"Ġpoint":966,"ork":967,"ĠNew":968,"Ġsur":969,"ool":970,"alk":971,"ement":972,"Ġused":973,"ract":974,"ween":975,"Ġsame":976,"oun":977,"ĠAl":978,"ci":979,"Ġdiffere":980,"Ġwhile":981,"--------":982,"Ġgame":983,"cept":984,"Ġsim":985,"...":986,"Ġinter":987,"ek":988,"Ġreport":989,"Ġprodu":990,"Ġstill":991,"led":992,"ah":993,"Ġhere":994,"Ġworld":995,"Ġthough":996,"Ġnum":997,"arch":998,"imes":999,"ale":1000,"ĠSe":1001,"ĠIf":1002,"//":1003,"ĠLe":1004,"Ġret":1005,"Ġref":1006,"Ġtrans":1007,"ner":1008,"ution":1009,"ters":1010,"Ġtake":1011,"ĠCl":1012,"Ġconf":1013,"way":1014,"ave":1015,"Ġgoing":1016,"Ġsl":1017,"ug":1018,"ĠAmeric":1019,"Ġspec":1020,"Ġhand":1021,"Ġbetween":1022,"ists":1023,"ĠDe":1024,"oot":1025,"It":1026,"Ġear":1027,"Ġagainst":1028,"Ġhigh":1029,"gan":1030,"az":1031,"ather":1032,"Ġexp":1033,"Ġop":1034,"Ġins":1035,"Ġgr":1036,"Ġhelp":1037,"Ġrequ":1038,"ets":1039,"ins":1040,"ĠPro":1041,"ism":1042,"Ġfound":1043,"land":1044,"ata":1045,"uss":1046,"ames":1047,"Ġperson":1048,"Ġgreat":1049,"pr":1050,"Ġsign":1051,"ĠAn":1052,"'ve":1053,"Ġsomet":1054,"Ġser":1055,"hip":1056,"Ġrun":1057,"Ġ:":1058,"Ġter":1059,"irect":1060,"Ġfollow":1061,"Ġdet":1062,"ices":1063,"Ġfind":1064,"12":1065,"Ġmem":1066,"Ġcr":1067,"ered":1068,"ex":1069,"Ġext":1070,"uth":1071,"ense":1072,"co":1073,"Ġteam":1074,"ving":1075,"ouse":1076,"ash":1077,"att":1078,"ved":1079,"Ġsystem":1080,"ĠAs":1081,"der":1082,"ives":1083,"min":1084,"Ġlead":1085,"ĠBl":1086,"cent":1087,"Ġaround":1088,"Ġgovern":1089,"Ġcur":1090,"velop":1091,"any":1092,"Ġcour":1093,"alth":1094,"ages":1095,"ize":1096,"Ġcar":1097,"ode":1098,"Ġlaw":1099,"Ġread":1100,"'m":1101,"con":1102,"Ġreal":1103,"Ġsupport":1104,"Ġ12":1105,"....":1106,"Ġreally":1107,"ness":1108,"Ġfact":1109,"Ġday":1110,"Ġboth":1111,"ying":1112,"Ġserv":1113,"ĠFor":1114,"Ġthree":1115,"Ġwom":1116,"Ġmed":1117,"ody":1118,"ĠThey":1119,"50":1120,"Ġexper":1121,"ton":1122,"Ġeach":1123,"akes":1124,"Ġche":1125,"Ġcre":1126,"ines":1127,"Ġrep":1128,"19":1129,"gg":1130,"illion":1131,"Ġgrou":1132,"ute":1133,"ik":1134,"We":1135,"get":1136,"ER":1137,"Ġmet":1138,"Ġsays":1139,"ox":1140,"Ġduring":1141,"ern":1142,"ized":1143,"ared":1144,"Ġfam":1145,"ically":1146,"Ġhapp":1147,"ĠIs":1148,"Ġchar":1149,"med":1150,"vent":1151,"Ġgener":1152,"ient":1153,"ple":1154,"iet":1155,"rent":1156,"11":1157,"ves":1158,"ption":1159,"Ġ20":1160,"formation":1161,"Ġcor":1162,"Ġoffic":1163,"ield":1164,"Ġtoo":1165,"ision":1166,"Ġinf":1167,"ĠZ":1168,"the":1169,"oad":1170,"Ġpublic":1171,"Ġprog":1172,"ric":1173,"**":1174,"Ġwar":1175,"Ġpower":1176,"view":1177,"Ġfew":1178,"Ġloc":1179,"Ġdifferent":1180,"Ġstate":1181,"Ġhead":1182,"'ll":1183,"Ġposs":1184,"Ġstat":1185,"ret":1186,"ants":1187,"Ġval":1188,"Ġiss":1189,"Ġcle":1190,"ivers":1191,"anc":1192,"Ġexpl":1193,"Ġanother":1194,"ĠQ":1195,"Ġav":1196,"thing":1197,"nce":1198,"Wh":1199,"Ġchild":1200,"Ġsince":1201,"ired":1202,"less":1203,"Ġlife":1204,"Ġdevelop":1205,"ittle":1206,"Ġdep":1207,"Ġpass":1208,"ãĥ":1209,"Ġturn":1210,"orn":1211,"This":1212,"bers":1213,"ross":1214,"ĠAd":1215,"Ġfr":1216,"Ġresp":1217,"Ġsecond":1218,"oh":1219,"Ġ/":1220,"Ġdisc":1221,"Ġ&":1222,"Ġsomething":1223,"Ġcomple":1224,"Ġed":1225,"Ġfil":1226,"Ġmonth":1227,"aj":1228,"uc":1229,"Ġgovernment":1230,"Ġwithout":1231,"Ġleg":1232,"Ġdist":1233,"Ġput":1234,"Ġquest":1235,"ann":1236,"Ġprot":1237,"20":1238,"Ġnever":1239,"ience":1240,"Ġlevel":1241,"Ġart":1242,"Ġthings":1243,"Ġmight":1244,"Ġeffect":1245,"Ġcontro":1246,"Ġcent":1247,"Ġ18":1248,"Ġallow":1249,"Ġbelie":1250,"chool":1251,"ott":1252,"Ġincre":1253,"Ġfeel":1254,"Ġresult":1255,"Ġlot":1256,"Ġfun":1257,"ote":1258,"Ġty":1259,"erest":1260,"Ġcontin":1261,"Ġusing":1262,"Ġbig":1263,"201":1264,"Ġask":1265,"Ġbest":1266,"Ġ)":1267,"IN":1268,"Ġopp":1269,"30":1270,"Ġnumber":1271,"iness":1272,"St":1273,"lease":1274,"Ġca":1275,"Ġmust":1276,"Ġdirect":1277,"Ġgl":1278,"Ġ<":1279,"Ġopen":1280,"Ġpost":1281,"Ġcome":1282,"Ġseem":1283,"ording":1284,"Ġweek":1285,"ately":1286,"ital":1287,"Ġel":1288,"riend":1289,"Ġfar":1290,"Ġtra":1291,"inal":1292,"Ġpri":1293,"ĠUS":1294,"Ġplace":1295,"Ġform":1296,"Ġtold":1297,"\":":1298,"ains":1299,"ature":1300,"ĠTrump":1301,"Ġstand":1302,"Ġ#":1303,"ider":1304,"ĠFr":1305,"Ġnext":1306,"Ġsoc":1307,"Ġpur":1308,"Ġlet":1309,"Ġlittle":1310,"Ġhum":1311,"Ġi":1312,"ron":1313,"15":1314,"Ġ15":1315,"Ġcommun":1316,"Ġmark":1317,"ĠThere":1318,"Ġwr":1319,"ĠThat":1320,"Ġinformation":1321,"ways":1322,"Ġbus":1323,"app":1324,"Ġinvest":1325,"me":1326,"Ġhard":1327,"ained":1328,"ead":1329,"Ġimport":1330,"Ġappro":1331,"Ġtest":1332,"Ġtri":1333,"Ġrest":1334,"osed":1335,"Ġfull":1336,"Ġcare":1337,"ĠSp":1338,"Ġcase":1339,"ON":1340,"Ġsk":1341,"Ġless":1342,"Ġ+":1343,"Ġpartic":1344,"ĠPl":1345,"ably":1346,"uck":1347,"ished":1348,"chn":1349,"be":1350,"Ġlist":1351,"ator":1352,"Ġtop":1353,"Ġadv":1354,"ĠBe":1355,"ruct":1356,"Ġdem":1357,"ration":1358,"ling":1359,"gy":1360,"reen":1361,"ger":1362,"Ġhome":1363,"Ġleft":1364,"Ġbetter":1365,"Ġdata":1366,"Ġ11":1367,"Ġattack":1368,"Ġproble":1369,"line":1370,"ards":1371,"Ġbeh":1372,"ral":1373,"ĠHow":1374,"ĠShe":1375,"arge":1376,"Ġ--":1377,"://":1378,"Ġbro":1379,"ĠPh":1380,"ats":1381,"Ġbuild":1382,"ww":1383,"ided":1384,"aim":1385,"ases":1386,"ency":1387,"Ġmain":1388,"ined":1389,"Ġincluding":1390,"Ġ{":1391,"Ġgot":1392,"Ġinterest":1393,"Ġkeep":1394,"ĠX":1395,"Ġeas":1396,"aining":1397,"Ġclass":1398,"âĢ¦":1399,"ĠNo":1400,"Ġvar":1401,"Ġsmall":1402,"ample":1403,"AT":1404,"Ġide":1405,"ĠSo":1406,"Ġrece":1407,"Ġpolit":1408,"Ġmov":1409,"Ġplan":1410,"Ġpercent":1411,"iving":1412,"Ġcamp":1413,"Ġpay":1414,"14":1415,"sc":1416,"ised":1417,"Ġunt":1418,"oney":1419,"ploy":1420,"====":1421,"Ġdidn":1422,"ĠInd":1423,"els":1424,"ertain":1425,"Ġpos":1426,"____":1427,"iver":1428,"Ġprocess":1429,"Ġprogram":1430,"ified":1431,"ĠRep":1432,"16":1433,"uro":1434,"ology":1435,"atter":1436,"ina":1437,"Ġname":1438,"ĠAll":1439,"Ġfour":1440,"Ġreturn":1441,"vious":1442,"bs":1443,"Ġcalled":1444,"Ġmove":1445,"ĠSc":1446,"ird":1447,"Ġgroup":1448,"Ġbre":1449,"Ġmen":1450,"Ġcap":1451,"ten":1452,"ee":1453,"Ġdri":1454,"leg":1455,"here":1456,"uthor":1457,"Ġpat":1458,"Ġcurrent":1459,"ides":1460,"Ġpop":1461,"to":1462,"ention":1463,"Ġalways":1464,"Ġmil":1465,"Ġwomen":1466,"Ġ16":1467,"Ġold":1468,"iven":1469,"raph":1470,"ĠOr":1471,"ror":1472,"ently":1473,"Ġnear":1474,"ĠEx":1475,"ream":1476,"sh":1477,"Ġ14":1478,"Ġfree":1479,"ission":1480,"stand":1481,"ĠCon":1482,"ality":1483,"used":1484,"13":1485,"Ġdesign":1486,"Ġchange":1487,"Ġchang":1488,"Ġbo":1489,"Ġvis":1490,"ember":1491,"Ġbook":1492,"ready":1493,"Ġkill":1494,"25":1495,"pped":1496,"Ġaway":1497,"Ġable":1498,"Ġcountry":1499,"Ġconst":1500,"arn":1501,"Ġorder":1502,"AR":1503,"ior":1504,"ium":1505,"orth":1506,"18":1507,"ailable":1508,"Ġsw":1509,"Ġmillion":1510,"Ġ13":1511,"atic":1512,"ted":1513,"ĠGo":1514,"Ġoper":1515,"eng":1516,"Ġthing":1517,"ajor":1518,"conom":1519,"ĠComm":1520,"Ġwhy":1521,"ured":1522,"ural":1523,"Ġschool":1524,"by":1525,"ĠMar":1526,"Ġaff":1527,"Ġdays":1528,"Ġann":1529,"ush":1530,"ane":1531,"If":1532,"eg":1533,"Ġprof":1534,"Ġhealth":1535,"outh":1536,"But":1537,"ional":1538,".,":1539,"Ġsol":1540,"Ġalready":1541,"Ġ30":1542,"Ġcharact":1543,"He":1544,"Ġfriend":1545,"ES":1546,"ians":1547,"icle":1548,"'d":1549,"ĠOn":1550,"Ġleast":1551,"Ġprom":1552,"Ġdr":1553,"Ġhist":1554,"ither":1555,"Ġest":1556,"iqu":1557,"17":1558,"son":1559,"Ġtell":1560,"Ġtalk":1561,"ohn":1562,"oint":1563,"lection":1564,"AN":1565,"Ġuntil":1566,"augh":1567,"Ġlater":1568,"Ġve":1569,"Ġview":1570,"ending":1571,"ived":1572,"Ġword":1573,"ware":1574,"Ġcost":1575,"Ġenough":1576,"Ġgive":1577,"ĠUnited":1578,"Ġtechn":1579,"arent":1580,"OR":1581,"Ġpar":1582,"ĠDr":1583,"Ġ2016":1584,"rist":1585,"ering":1586,"ĠÂ":1587,"Ġlarge":1588,"side":1589,"acy":1590,"ccess":1591,"Ġwin":1592,"Ġimportant":1593,"Ġ199":1594,"Ġdoesn":1595,"Ġ17":1596,"Ġbusiness":1597,"Ġclear":1598,"Ġrese":1599,"\",":1600,"ury":1601,"Ġequ":1602,"aster":1603,"alf":1604,"ĠAmerican":1605,"nect":1606,"Ġexpect":1607,"iversity":1608,"Ġocc":1609,"ĠFl":1610,"Ġkind":1611,"Ġmean":1612,"Ġpast":1613,"Ġdev":1614,"Ġbas":1615,"let":1616,"raft":1617,"Ġorgan":1618,"Ġdel":1619,"Ġperform":1620,"Ġstory":1621,"Ġseason":1622,"ĠCol":1623,"Ġclaim":1624,"Ġcame":1625,"Ġwithin":1626,"Ġline":1627,"Ġproject":1628,"ĠAt":1629,"Ġcontrol":1630,"ended":1631,"ĠSy":1632,"Ġair":1633,"ization":1634,"Ġ*":1635,"ley":1636,"Ġmoney":1637,"idd":1638,"You":1639,"for":1640,"Ġfamily":1641,"Ġmaking":1642,"Ġbit":1643,"Ġpolice":1644,"Ġhappen":1645,"Ġvers":1646,"ony":1647,"uff":1648,"ĠWhen":1649,"Ġsit":1650,"ideo":1651,"lf":1652,"ison":1653,"Ġsure":1654,"gin":1655,"Ġappear":1656,"Ġlight":1657,"Ġes":1658,"of":1659,"Ġwater":1660,"Ġtimes":1661,"not":1662,"Ġgrow":1663,"Ġcompany":1664,"ĠTe":1665,"ows":1666,"Ġmar":1667,"ource":1668,"iol":1669,"arm":1670,"br":1671,"Ġexample":1672,"Ġconc":1673,"Ġfore":1674,"ĠTo":1675,"pro":1676,"EN":1677,"ries":1678,"Ġ25":1679,"ĠCan":1680,"ney":1681,"Ġactually":1682,"Ġever":1683,"urity":1684,"aken":1685,"aps":1686,"Ġtax":1687,"Ġmajor":1688,"ama":1689,"Ġoften":1690,"eral":1691,"Ġhuman":1692,"Ġjob":1693,"ister":1694,"Ġavailable":1695,"ocr":1696,"enn":1697,"aid":1698,"ivid":1699,"Ġrecord":1700,"?\"":1701,"Ġsing":1702,"ĠAm":1703,"idence":1704,"Ġnews":1705,"ster":1706,"Ġeconom":1707,"Ġfollowing":1708,"ĠBr":1709,"ising":1710,"Ġhour":1711,"most":1712,"ument":1713,"Ġsex":1714,"Ġdesc":1715,"Ġbecome":1716,"ĠEd":1717,"Ġtook":1718,"Ġhaving":1719,"Ġproduct":1720,"ault":1721,"As":1722,"aring":1723,"Ġmeans":1724,"Ġhop":1725,"une":1726,"Ġcho":1727,"Ġcertain":1728,"Ġnon":1729,"Ġdeal":1730,"24":1731,"lement":1732,"oci":1733,"ene":1734,"Ġside":1735,"ĠPr":1736,"ĠMay":1737,"Ġreason":1738,"ued":1739,"ched":1740,"ulation":1741,"Ġelect":1742,"Ġofficial":1743,"Ġpossible":1744,"Ġhold":1745,"ands":1746,"ots":1747,"Ġcity":1748,"ories":1749,"Ġsever":1750,"Ġchildren":1751,"Ġonce":1752,"Ġactiv":1753,"ler":1754,"Ġnight":1755,"itions":1756,"ĠJohn":1757,"ape":1758,"play":1759,"Ġdone":1760,"Ġlim":1761,"Ġworking":1762,"ĠPres":1763,"orld":1764,"eb":1765,"ĠCo":1766,"Ġbody":1767,"ails":1768,"utes":1769,"ĠMr":1770,"Ġwhether":1771,"Ġauthor":1772,"rop":1773,"Ġproper":1774,"Ġseen":1775,");":1776,"Ġfac":1777,"ĠSu":1778,"Ġcond":1779,"iting":1780,"Ġcourse":1781,"Ġ}":1782,"----------------":1783,"aign":1784,"Ġevent":1785,"Ġeng":1786,"Ġpot":1787,"Ġintern":1788,"iam":1789,"Ġshort":1790,"empt":1791,"ãĤ":1792,"ĠGod":1793,"ilar":1794,"80":1795,"Ġorig":1796,"IS":1797,"ourn":1798,"ability":1799,"itive":1800,"Ġdam":1801,"Ġ100":1802,"Ġpress":1803,"Ġdoing":1804,"Ġprotect":1805,"ring":1806,"Ġthought":1807,"Ġquestion":1808,"rew":1809,"ĠWar":1810,"Ġseveral":1811,"ĠState":1812,"Ġgiven":1813,"Ġfund":1814,"ĠTw":1815,"Ġwent":1816,"ances":1817,"work":1818,"por":1819,"my":1820,"40":1821,"Ġarg":1822,"artment":1823,"ustom":1824,"Ġpolic":1825,"Ġmeet":1826,"Ġcreat":1827,"22":1828,"ĠStates":1829,"Ġgames":1830,"raw":1831,"uture":1832,"Ġunderstand":1833,"urs":1834,"ĠOb":1835,"lish":1836,"sy":1837,"Ġmakes":1838,"Ġwon":1839,"agon":1840,"Ġhtt":1841,"Ġlove":1842,"ential":1843,"Ġcomplete":1844,"par":1845,"ĠIm":1846,"AL":1847,"Ġaccount":1848,"Âł":1849,"ored":1850,"vert":1851,"Ġident":1852,"Ġ2015":1853,"Ġothers":1854,"ĠMin":1855,"iber":1856,"verage":1857,"There":1858,"itional":1859,"dd":1860,"Ġprob":1861,"Ġyoung":1862,"Ġalong":1863,"Ġaccording":1864,"Ġyet":1865,"Ġmembers":1866,"ĠWhat":1867,"oid":1868,"ĠMan":1869,"And":1870,"Ġamong":1871,"ai":1872,"Ġemploy":1873,"ĠRes":1874,"Ġ>":1875,"Ġinvol":1876,"Ġlow":1877,"af":1878,"ĠCar":1879,"Ġhig":1880,"ĠOne":1881,"ĠSec":1882,"ination":1883,"Ġlikely":1884,"Ġant":1885,"aged":1886,"ĠRuss":1887,"Ġben":1888,"Ġrele":1889,"For":1890,"back":1891,"ĠNot":1892,"Ġpresident":1893,"ball":1894,"Ġaccess":1895,"ividual":1896,"ĠDem":1897,"ĠEuro":1898,"60":1899,"Ġknown":1900,"irl":1901,"ĠGr":1902,"Ġearly":1903,"use":1904,"iety":1905,"âĢĵ":1906,"Ġfight":1907,"Ġsent":1908,"Ġtoday":1909,"Ġmarket":1910,"\".":1911,"Ġbased":1912,"Ġstrong":1913,"urther":1914,"Ġdeb":1915,"mber":1916,"Ġproblem":1917,"Ġdeath":1918,"Ġsocial":1919,"imate":1920,"AS":1921,"ortun":1922,"Ġcampaign":1923,"ery":1924,"Ch":1925,"Ġey":1926,"ially":1927,"Ġmus":1928,"wh":1929,"pos":1930,"Ġer":1931,"Ġsaf":1932,"Ġmonths":1933,"iron":1934,"Ġviol":1935,"Ġfive":1936,"Ġstre":1937,"Ġplayers":1938,"inc":1939,"ald":1940,"year":1941,"aun":1942,"Ġsuccess":1943,"Ġpresent":1944,"erence":1945,"Ġ2014":1946,"Ġsugg":1947,"Ġparticular":1948,"Ġtry":1949,"Ġsuggest":1950,"ĠChrist":1951,"ones":1952,"Ġpriv":1953,"23":1954,"Ġcrit":1955,"Ġland":1956,"Ġlocal":1957,"ify":1958,"29":1959,"Ġaut":1960,"ED":1961,"ĠGu":1962,"Ġmult":1963,"Ġpolitical":1964,"Ġasked":1965,"Ġformer":1966,"itter":1967,"ript":1968,"Ġclose":1969,"Ġpract":1970,"ĠYork":1971,"Ġgetting":1972,"Ġacross":1973,"Ġcomb":1974,"Ġbelieve":1975,"Ġz":1976,"Ġtoget":1977,"Ġtogether":1978,"ĠCent":1979,"irc":1980,"Ġindividual":1981,"ĠMc":1982,"27":1983,"isk":1984,"ĠEng":1985,"Ġface":1986,"Ġ24":1987,"Ġvalue":1988,"Ġarea":1989,"ev":1990,"Ġwrit":1991,"ĠPresident":1992,"Ġvot":1993,"Ġkey":1994,"Ġmom":1995,"put":1996,"Ġanything":1997,"Ġexperience":1998,"attle":1999,"Ġmind":2000,"aff":2001,"omm":2002,"Ġfuture":2003,"ged":2004,"Ġcut":2005,"Ġtot":2006,"itch":2007,"Ġvideo":2008,"Ġinvestig":2009,"Ġnet":2010,"ĠMy":2011,"rict":2012,"ien":2013,".)":2014,"Ġimpro":2015,"though":2016,"wards":2017,"Ġconnect":2018,"ĠMed":2019,"selves":2020,"ensive":2021,"mb":2022,"ober":2023,"ators":2024,"An":2025,"Ġ50":2026,"Ġredu":2027,"resent":2028,"Ġabove":2029,"Ġfre":2030,"ĠEurope":2031,"sw":2032,"Ġamount":2033,"ĠApp":2034,"Ġeither":2035,"Ġmilit":2036,"Ġanal":2037,"Ġfail":2038,"ĠEn":2039,"ales":2040,"Ġspecial":2041,"Ġblack":2042,"IT":2043,"cher":2044,"Ġlooking":2045,"Ġfire":2046,"yn":2047,"Ġalmost":2048,"oon":2049,"Ġstudy":2050,"Ġmiss":2051,"ches":2052,"rown":2053,"Ġtre":2054,"Ġcommunity":2055,"Ġmedia":2056,"Ġfood":2057,"Ġcomes":2058,"ĠUniversity":2059,"Ġsingle":2060,"What":2061,"uly":2062,"Ġhalf":2063,"ague":2064,"hod":2065,"ĠRepublic":2066,"Ġstarted":2067,"Ġquick":2068,"oto":2069,"book":2070,"Ġissue":2071,"itor":2072,"Ġelse":2073,"Ġconsider":2074,"26":2075,"rodu":2076,"Ġtaken":2077,"28":2078,"99":2079,"ĠWith":2080,"Ġtrue":2081,"Ġwa":2082,"Ġtrad":2083,"Ġago":2084,"Ġmess":2085,"ief":2086,"Ġadded":2087,"oke":2088,"Ġbad":2089,"Ġfav":2090,"33":2091,"Ġsimilar":2092,"ask":2093,"ĠDon":2094,"Ġcharacter":2095,"orts":2096,"ĠHouse":2097,"Ġreported":2098,"Ġtype":2099,"val":2100,"iod":2101,"ĠHowever":2102,"Ġtarg":2103,"Ġentire":2104,"pping":2105,"Ġhistory":2106,"Ġlive":2107,"ffic":2108,"........":2109,"ederal":2110,"Ġtrying":2111,"Ġdiscuss":2112,"ĠHar":2113,"aces":2114,"lished":2115,"Ġself":2116,"osp":2117,"rest":2118,"Ġroom":2119,"elt":2120,"Ġfall":2121,"olution":2122,"Ġet":2123,"Ġx":2124,"Ġisn":2125,"Ġidea":2126,"bo":2127,"Ġsound":2128,"ĠDep":2129,"Ġsomeone":2130,"cially":2131,"ully":2132,"Ġfoc":2133,"Ġobject":2134,"ift":2135,"aper":2136,"Ġplayer":2137,"Ġrather":2138,"Ġservice":2139,"ashing":2140,"ĠDo":2141,"ĠPart":2142,"rug":2143,"mon":2144,"ply":2145,"Ġmor":2146,"Ġnothing":2147,"Ġprovide":2148,"IC":2149,"ung":2150,"Ġparty":2151,"Ġexist":2152,"Ġmag":2153,"70":2154,"Ġrul":2155,"Ġhouse":2156,"Ġbehind":2157,"Ġhowever":2158,"ĠWorld":2159,"Ġsum":2160,"Ġapplic":2161,"Ġ;":2162,"Ġfunction":2163,"gr":2164,"ĠPol":2165,"Ġfront":2166,"200":2167,"Ġseries":2168,"Ġtem":2169,"Ġtyp":2170,"ills":2171,"Ġopt":2172,"Ġpoints":2173,"Ġbelow":2174,"itted":2175,"Ġspecific":2176,"Ġ2017":2177,"umb":2178,"Ġra":2179,"Ġprevious":2180,"Ġpret":2181,"reme":2182,"Ġcustom":2183,"Ġcourt":2184,"ĠMe":2185,"Ġrepl":2186,"Ġwhole":2187,"go":2188,"cer":2189,"Ġtreat":2190,"ĠAct":2191,"Ġprobably":2192,"Ġlearn":2193,"ender":2194,"ĠAss":2195,"Ġversion":2196,"now":2197,"Ġcheck":2198,"ĠCal":2199,"RE":2200,"minist":2201,"On":2202,"ources":2203,"Ġbenef":2204,"Ġdoc":2205,"Ġdeter":2206,"Ġenc":2207,"Ġsuper":2208,"Ġaddress":2209,"Ġvict":2210,"Ġ2013":2211,"Ġmeas":2212,"tr":2213,"Ġfield":2214,"When":2215,"Ġsignific":2216,"uge":2217,"Ġfeat":2218,"Ġcommon":2219,"load":2220,"Ġbegin":2221,"Ġbring":2222,"Ġaction":2223,"erman":2224,"Ġdescrib":2225,"Ġindust":2226,"Ġwanted":2227,"ried":2228,"ming":2229,"Ġattempt":2230,"45":2231,"fer":2232,"Ġdue":2233,"ression":2234,"##":2235,"Ġshall":2236,"Ġsix":2237,"oo":2238,"Ġstep":2239,"Ġpub":2240,"Ġhimself":2241,"Ġ23":2242,"Ġcop":2243,"Ġdest":2244,"Ġstop":2245,"AC":2246,"ibility":2247,"Ġlab":2248,"icult":2249,"Ġhours":2250,"Ġcreate":2251,"Ġfurther":2252,"ĠAmerica":2253,"ĠCity":2254,"Ġdou":2255,"head":2256,"ST":2257,"ĠNorth":2258,"cing":2259,"Ġnational":2260,"ule":2261,"ĠInst":2262,"Ġtaking":2263,"ĠQu":2264,"irt":2265,"Ġred":2266,"Ġresearch":2267,"viron":2268,"ĠGe":2269,"Ġbreak":2270,"ana":2271,"Ġspace":2272,"aterial":2273,"Ġrecent":2274,"ĠAb":2275,"Ġgeneral":2276,"Ġhit":2277,"Ġperiod":2278,"Ġeverything":2279,"ively":2280,"Ġphys":2281,"Ġsaying":2282,"anks":2283,"Ġcou":2284,"Ġcult":2285,"aced":2286,"eal":2287,"uation":2288,"Ġcoun":2289,"lu":2290,"Ġinclude":2291,"Ġposition":2292,"ĠAfter":2293,"ĠCanad":2294,"ĠEm":2295,"Ġimm":2296,"ĠRed":2297,"Ġpick":2298,"Ġcompl":2299,"Ġmatter":2300,"reg":2301,"ext":2302,"angu":2303,"isc":2304,"ole":2305,"aut":2306,"Ġcompet":2307,"eed":2308,"fect":2309,"Ġ21":2310,"ĠSen":2311,"ĠThese":2312,"asing":2313,"Ġcannot":2314,"Ġinit":2315,"Ġrelations":2316,"ached":2317,"Ġbar":2318,"Ġ40":2319,"ĠTH":2320,"Ġ2012":2321,"Ġvol":2322,"Ġground":2323,"Ġsecurity":2324,"Ġupd":2325,"ilt":2326,"35":2327,"Ġconcern":2328,"ĠJust":2329,"Ġwhite":2330,"Ġseems":2331,"ĠHer":2332,"pecially":2333,"ients":2334,"Ġannoun":2335,"Ġfig":2336,"ights":2337,"Ġstri":2338,"like":2339,"ids":2340,"Ġsus":2341,"Ġwatch":2342,"Ġâ":2343,"Ġwind":2344,"ĠCont":2345,"Ġitself":2346,"Ġmass":2347,"Al":2348,"yle":2349,"ique":2350,"ĠNational":2351,"Ġabs":2352,"Ġpack":2353,"Ġoutside":2354,"Ġanim":2355,"Ġpain":2356,"eter":2357,"Ġmanag":2358,"duct":2359,"ogn":2360,"Ġ]":2361,"ĠSept":2362,"sec":2363,"off":2364,"ĠJan":2365,"Ġfoot":2366,"ades":2367,"Ġthird":2368,"Ġmot":2369,"Ġevidence":2370,"inton":2371,"Ġthreat":2372,"apt":2373,"ples":2374,"cle":2375,"Ġlo":2376,"Ġdecl":2377,"Ġitem":2378,"medi":2379,"Ġrepresent":2380,"omb":2381,"amer":2382,"Ġsignificant":2383,"ograph":2384,"su":2385,"Ġcal":2386,"ires":2387,"0000":2388,"ID":2389,"AM":2390,"Ġsimply":2391,"Ġlonger":2392,"Ġfile":2393,"OT":2394,"che":2395,"So":2396,"ateg":2397,"org":2398,"ĠHis":2399,"Ġener":2400,"Ġdom":2401,"Ġupon":2402,"ili":2403,"\":\"":2404,"Ġthemselves":2405,"Ġcoming":2406,"Ġquite":2407,"Ġdifficult":2408,"ĠBar":2409,"ilities":2410,"rel":2411,"ends":2412,"cial":2413,"64":2414,"Ġwoman":2415,"rap":2416,"yr":2417,"Ġnecess":2418,"ips":2419,"Ġtext":2420,"Ġrequire":2421,"Ġmilitary":2422,"Ġreview":2423,"Ġrespons":2424,"75":2425,"Ġsubject":2426,"Ġinstead":2427,"Ġissues":2428,"Ġgen":2429,"\",\"":2430,"Ġminutes":2431,"Ġweap":2432,"ray":2433,"amed":2434,"time":2435,"bl":2436,"How":2437,"Ġcode":2438,"ĠSm":2439,"Ġhigher":2440,"ĠSte":2441,"ris":2442,"Ġpage":2443,"Ġstudents":2444,"ĠIntern":2445,"Ġmethod":2446,"ĠAug":2447,"ĠPer":2448,"ĠAg":2449,"Ġpolicy":2450,"ĠSw":2451,"Ġexec":2452,"Ġaccept":2453,"ume":2454,"ribut":2455,"Ġwords":2456,"Ġfinal":2457,"Ġchanges":2458,"ĠDemocr":2459,"Ġfriends":2460,"Ġrespect":2461,"Ġep":2462,"Ġcompan":2463,"ivil":2464,"Ġdamage":2465,"****":2466,"ogle":2467,"vironment":2468,"Ġneg":2469,"ental":2470,"Ġap":2471,"Ġtotal":2472,"ival":2473,"!\"":2474,"lim":2475,"Ġneeds":2476,"Ġagre":2477,"Ġdevelopment":2478,"Ġage":2479,"iple":2480,"21":2481,"Ġresults":2482,"ĠAf":2483,"Sh":2484,"Ġgun":2485,"ĠObama":2486,"roll":2487,"Ġ@":2488,"Ġrights":2489,"ĠBrit":2490,"Ġrunning":2491,"Ġwasn":2492,"Ġport":2493,"Ġrate":2494,"Ġpretty":2495,"Ġtarget":2496,"Ġsaw":2497,"Ġcirc":2498,"Ġworks":2499,"icro":2500,"alt":2501,"over":2502,"www":2503,"That":2504,"lier":2505,"Ġeveryone":2506,"ude":2507,"Ġpie":2508,"iddle":2509,"rael":2510,"Ġrad":2511,"Ġblock":2512,"Ġwalk":2513,"To":2514,"ãģ":2515,"nes":2516,"ĠAust":2517,"aul":2518,"rote":2519,"ĠSouth":2520,"ession":2521,"oph":2522,"Ġshows":2523,"Ġsite":2524,"Ġjo":2525,"Ġrisk":2526,"clus":2527,"lt":2528,"Ġinj":2529,"iding":2530,"ĠSpe":2531,"Ġchall":2532,"irm":2533,"Ġ22":2534,"itting":2535,"str":2536,"Ġhy":2537,"LE":2538,"key":2539,"Ġbegan":2540,"atur":2541,"ashington":2542,"lam":2543,"ĠDav":2544,"bit":2545,"Ġsize":2546,"ĠPar":2547,"38":2548,"ournal":2549,"face":2550,"Ġdecision":2551,"Ġlarg":2552,"Ġjud":2553,"rect":2554,"Ġcontinue":2555,"ĠOct":2556,"overed":2557,"ĠInt":2558,"========":2559,"Ġparent":2560,"ĠWill":2561,"Ġeasy":2562,"Ġdrug":2563,"anger":2564,"Ġsense":2565,"Ġdi":2566,"iday":2567,"Ġenergy":2568,"istic":2569,"Ġassoci":2570,"arter":2571,"obal":2572,"eks":2573,"ĠEl":2574,"urch":2575,"Ġgirl":2576,"oe":2577,"itle":2578,"Ġ28":2579,"ĠChe":2580,"Ġrequest":2581,"Ġsoon":2582,"Ġhost":2583,"ky":2584,"Ġstates":2585,"omes":2586,"Ġmaterial":2587,"lex":2588,"Ġmoment":2589,"Ġansw":2590,"onse":2591,"Ġespecially":2592,"Ġnorm":2593,"Ġservices":2594,"pite":2595,"ran":2596,"Ġrole":2597,"44":2598,"):":2599,"Ġcred":2600,"Cl":2601,"________":2602,"Ġmat":2603,"Ġlog":2604,"ĠClinton":2605,"OU":2606,"Ġoffice":2607,"Ġ26":2608,"Ġcharg":2609,"Ġtrack":2610,"ma":2611,"Ġheart":2612,"Ġball":2613,"Ġpersonal":2614,"Ġbuilding":2615,"na":2616,"set":2617,"body":2618,"ĠBlack":2619,"Ġincrease":2620,"itten":2621,"Ġneeded":2622,"36":2623,"32":2624,"=\"":2625,"Ġlost":2626,"Ġbecame":2627,"Ġgroups":2628,"ĠMus":2629,"Ġwrote":2630,"ĠPe":2631,"Ġprop":2632,"joy":2633,"Ã©":2634,"ĠWhite":2635,"Ġdead":2636,".'":2637,"Ġhttp":2638,"Ġwebs":2639,"OS":2640,"Ġinside":2641,"Ġwrong":2642,"Ġstatement":2643,"Ġ...":2644,"yl":2645,"Ġfilm":2646,"Ġmusic":2647,"Ġshare":2648,"ification":2649,"Ġrelease":2650,"Ġforward":2651,"Ġstay":2652,"Ġcomput":2653,"itte":2654,"ser":2655,"Ġoriginal":2656,"Ġcard":2657,"Ġcand":2658,"Ġdiv":2659,"atural":2660,"Ġfavor":2661,"OM":2662,"Ġcases":2663,"uses":2664,"Ġsection":2665,"Ġleave":2666,"ging":2667,"oved":2668,"ĠWashington":2669,"39":2670,"ĠGl":2671,"Ġrequired":2672,"action":2673,"apan":2674,"oor":2675,"iter":2676,"ĠKing":2677,"Ġcountries":2678,"ĠGerman":2679,"lling":2680,"Ġ27":2681,"34":2682,"Ġquestions":2683,"Ġprim":2684,"Ġcell":2685,"Ġshoot":2686,"Ġanyone":2687,"ĠWest":2688,"Ġaffect":2689,"epend":2690,"Ġonline":2691,"ĠIsrael":2692,"ĠSeptember":2693,"Ġability":2694,"Ġcontent":2695,"ises":2696,"Ġreve":2697,"Ġlaun":2698,"Ġindic":2699,"Ġforce":2700,"cast":2701,"Ġsold":2702,"aving":2703,"fl":2704,"Ġsoft":2705,"Ġcompanies":2706,"ceed":2707,"Ġarticle":2708,"Ġaud":2709,"Ġrev":2710,"Ġeduc":2711,"Ġplaying":2712,"05":2713,"Ġheld":2714,"ctor":2715,"Ġreleased":2716,"Ġfederal":2717,"37":2718,"Ġadminist":2719,"Ġinterview":2720,"Ġinstall":2721,"Ġreceived":2722,"Ġsource":2723,"uk":2724,"Ph":2725,"Ġserious":2726,"Ġcreated":2727,"Ġcause":2728,"Ġimmedi":2729,"Ġdefin":2730,"uel":2731,"ĠDepartment":2732,"ctions":2733,"ĠCour":2734,"ĠNow":2735,"ze":2736,"ites":2737,"itution":2738,"Ġlate":2739,"Ġspeak":2740,"ners":2741,"Ġlegal":2742,"ari":2743,"ĠCor":2744,"Ġweeks":2745,"Ġmodel":2746,"Ġpred":2747,"Ġexact":2748,"BC":2749,"ĠBy":2750,"ING":2751,"osing":2752,"Ġtakes":2753,"Ġregard":2754,"Ġopportun":2755,"Ġprice":2756,"Ġ198":2757,"ĠApr":2758,"fully":2759,"Ġord":2760,"Ġproblems":2761,"ruction":2762,"ham":2763,"ĠCount":2764,"lege":2765,"Ġleaders":2766,"ET":2767,"lev":2768,"Ġdeep":2769,"ological":2770,"ese":2771,"haps":2772,"ĠSome":2773,"Ġpers":2774,"Ġcontract":2775,"Ġrelationship":2776,"sp":2777,"oud":2778,"Ġbase":2779,"48":2780,"mit":2781,"Ad":2782,"ancial":2783,"Ġconsum":2784,"Ġpotential":2785,"Ġlangu":2786,"rem":2787,"eth":2788,"Ġrelig":2789,"ressed":2790,"66":2791,"Ġlink":2792,"Ġlower":2793,"ayer":2794,"ĠJune":2795,"Ġfem":2796,"unt":2797,"erc":2798,"urd":2799,"Ġcontact":2800,"Ġill":2801,"Ġmother":2802,"Ġestab":2803,"htt":2804,"ĠMarch":2805,"ĠBro":2806,"ĠChina":2807,"Ġ29":2808,"Ġsqu":2809,"Ġprovided":2810,"Ġaverage":2811,"asons":2812,"Ġ2011":2813,"Ġexam":2814,"lin":2815,"55":2816,"ned":2817,"Ġperfect":2818,"Ġtou":2819,"alse":2820,"ux":2821,"Ġbuy":2822,"Ġshot":2823,"Ġcollect":2824,"Ġphot":2825,"Ġplayed":2826,"Ġsurpr":2827,"Ġofficials":2828,"Ġsimple":2829,"avy":2830,"Ġindustry":2831,"Ġhands":2832,"ground":2833,"Ġpull":2834,"Ġround":2835,"Ġuser":2836,"Ġrange":2837,"uary":2838,"Ġprivate":2839,"ops":2840,"ees":2841,"Ġways":2842,"ĠMich":2843,"Ġveh":2844,"Ġexcept":2845,"Ġterms":2846,"imum":2847,"pper":2848,"ION":2849,"ores":2850,"ĠDragon":2851,"oul":2852,"Ġden":2853,"Ġperformance":2854,"Ġbill":2855,"cil":2856,"47":2857,"Ġenvironment":2858,"Ġexc":2859,"add":2860,"Ġworth":2861,"Ġpict":2862,"Ġchance":2863,"Ġ2018":2864,"bor":2865,"Ġspeed":2866,"iction":2867,"Ġalleg":2868,"ĠJapan":2869,"atory":2870,"reet":2871,"Ġmatch":2872,"ĠII":2873,"Ġstru":2874,"order":2875,"Ġste":2876,"Ġliving":2877,"Ġstruct":2878,"ino":2879,"Ġsepar":2880,"hern":2881,"Ġresponse":2882,"Ġenjoy":2883,"Ġvia":2884,"AD":2885,"uments":2886,"acebook":2887,"Ġmember":2888,"ibr":2889,"izing":2890,"Ġtool":2891,"ĠMon":2892,"ĠWhile":2893,"hood":2894,"ĠAng":2895,"ĠDef":2896,"Ġoffer":2897,"Tr":2898,"aur":2899,"Ġturned":2900,"ĠJuly":2901,"down":2902,"anced":2903,"Ġrecently":2904,"ĠEar":2905,"Ġce":2906,"ĠStar":2907,"ĠCong":2908,"rought":2909,"Ġblood":2910,"Ġhope":2911,"Ġcomment":2912,"aint":2913,"Ġarri":2914,"iles":2915,"Ġparticip":2916,"ought":2917,"ription":2918,"08":2919,"49":2920,"Ġgave":2921,"Ġselect":2922,"Ġkilled":2923,"sych":2924,"Ġgoes":2925,"ij":2926,"Ġcoll":2927,"Ġimpact":2928,"atives":2929,"ĠSer":2930,"09":2931,"ĠAugust":2932,"Ġboy":2933,"de":2934,"ĠDes":2935,"Ġfelt":2936,"US":2937,"Ġexpected":2938,"Ġimage":2939,"ĠMark":2940,"ccording":2941,"oice":2942,"EC":2943,"ĠMag":2944,"ened":2945,"hold":2946,"ĠPost":2947,"Ġprevent":2948,"No":2949,"Ġinvolved":2950,"Ġeyes":2951,"Ġquickly":2952,"At":2953,"unk":2954,"Ġbehav":2955,"Ġur":2956,"Ġled":2957,"come":2958,"ey":2959,"Ġcandid":2960,"Ġearlier":2961,"Ġfocus":2962,"ety":2963,"Pro":2964,"ledge":2965,"ixed":2966,"illed":2967,"Ġpopular":2968,"AP":2969,"Ġsett":2970,"light":2971,"Ġvarious":2972,"inks":2973,"Ġlevels":2974,"Ġroad":2975,"ellig":2976,"ables":2977,"hel":2978,"ittee":2979,"ĠGener":2980,"ype":2981,"Ġheard":2982,"icles":2983,"Ġmis":2984,"Ġusers":2985,"ĠSan":2986,"Ġimprove":2987,"Ġfather":2988,"Ġsearch":2989,"They":2990,"vil":2991,"Ġprofess":2992,"Ġknew":2993,"Ġloss":2994,"Ġevents":2995,"65":2996,"Ġbillion":2997,"07":2998,"02":2999,"ĠNews":3000,"ĠAM":3001,"Ġcover":3002,"where":3003,"ension":3004,"Ġbott":3005,"Ġareas":3006,"ences":3007,"ope":3008,"ĠTwitter":3009,"ael":3010,"Ġgets":3011,"ĠGoogle":3012,"Ġsn":3013,"iant":3014,"Ġvote":3015,"Ġnearly":3016,"Ġincluded":3017,"Ġrecogn":3018,"zz":3019,"mm":3020,"aled":3021,"Ġhappened":3022,"04":3023,"Ġhot":3024,"Ġwhose":3025,"Ġcivil":3026,"Ġsuff":3027,"oes":3028,"itiz":3029,"ĠSyri":3030,"Ġrespond":3031,"Ġhon":3032,"Ġfeatures":3033,"Ġeconomic":3034,"ĠApril":3035,"rim":3036,"Ġtechnology":3037,"Ġoption":3038,"aging":3039,"Ġpurch":3040,"Re":3041,"Ġlat":3042,"chie":3043,"isl":3044,"Ġrecomm":3045,"uf":3046,"Ġtraining":3047,"Ġeffects":3048,"Ġfast":3049,"Ġ2010":3050,"Ġoccur":3051,"Ġwebsite":3052,"Ġemail":3053,"Ġsens":3054,"ech":3055,"Ġoil":3056,"Ġinflu":3057,"Ġcurrently":3058,"ĠSch":3059,"ĠAdd":3060,"Ġgoal":3061,"Ġscient":3062,"Ġconv":3063,"100":3064,"emy":3065,"Ġdecided":3066,"Ġtravel":3067,"Ġmention":3068,"LL":3069,"03":3070,"Ġelection":3071,"Ġphone":3072,"Ġlooks":3073,"Ġsituation":3074,"Ġcy":3075,"Ġhor":3076,"bed":3077,"ĠCourt":3078,"aily":3079,"aves":3080,"Ġquality":3081,"ĠComp":3082,"wise":3083,"Ġtable":3084,"Ġstaff":3085,"ĠWind":3086,"ett":3087,"Ġtried":3088,"idered":3089,"Ġaddition":3090,"Ġbox":3091,"Ġlack":3092,"arily":3093,"Ġwide":3094,"Ġmid":3095,"Ġboard":3096,"ysis":3097,"Ġanti":3098,"ha":3099,"Ġdig":3100,"ening":3101,"Ġdro":3102,"Con":3103,"68":3104,"Ġslow":3105,"based":3106,"sequ":3107,"Ġpath":3108,"Ex":3109,"aker":3110,"Ġworked":3111,"Ġpen":3112,"Ġengine":3113,"Ġlooked":3114,"ĠSuper":3115,"ĠServ":3116,"Ġvictim":3117,"Un":3118,"Ġproperty":3119,"Ġintrodu":3120,"Ġexecut":3121,"ĠPM":3122,"Le":3123,"Ġcolor":3124,"ĠMore":3125,"Ġ60":3126,"Ġnetwork":3127,"Ġdate":3128,"cul":3129,"idge":3130,"Ġextra":3131,"31":3132,"Ġsle":3133,"67":3134,"Ġwond":3135,"Ġreports":3136,"just":3137,"ĠAustral":3138,"Ġcapital":3139,"Ġens":3140,"Ġcommand":3141,"Ġallowed":3142,"Ġprep":3143,"Ġcapt":3144,"hib":3145,"Ġnumbers":3146,"chan":3147,"Ġfair":3148,"mp":3149,"oms":3150,"Ġreach":3151,"With":3152,"tain":3153,"Ġbroad":3154,"Ġcouple":3155,"ecause":3156,"lying":3157,"ĠFeb":3158,"Ġscreen":3159,"Ġlives":3160,"Ġprior":3161,"ĠCongress":3162,"Ar":3163,"Ġapproach":3164,"Ġemer":3165,"aries":3166,"ĠDis":3167,"serv":3168,"ĠNe":3169,"Ġbuilt":3170,"cies":3171,"Ġrepe":3172,"Ġrules":3173,"force":3174,"ĠPal":3175,"Ġfinancial":3176,"Ġconsidered":3177,"ĠChar":3178,"nces":3179,"ĠIS":3180,"Ġbrought":3181,"Ġbi":3182,"iers":3183,"ĠSim":3184,"OP":3185,"Ġproducts":3186,"Ġvisit":3187,"Ġdocument":3188,"Ġconduct":3189,"Ġcompletely":3190,"ining":3191,"ĠCalif":3192,"ibly":3193,"Ġwritten":3194,"ĠTV":3195,"ements":3196,"Ġdraw":3197,"One":3198,"Ġpublished":3199,"Ġsecret":3200,"rain":3201,"het":3202,"ĠFacebook":3203,"onday":3204,"ĠUp":3205,"Ġsexual":3206,"Ġthous":3207,"ĠPat":3208,"Ġess":3209,"Ġstandard":3210,"Ġarm":3211,"ges":3212,"ection":3213,"Ġfell":3214,"Ġforeign":3215,"ani":3216,"ĠFriday":3217,"Ġregular":3218,"inary":3219,"Ġincreased":3220,"Ġusually":3221,"Ġdemon":3222,"Ġdark":3223,"Ġadditional":3224,"rol":3225,"ĠOf":3226,"Ġproduction":3227,"!!":3228,"undred":3229,"Ġinternational":3230,"idents":3231,"ĠFree":3232,"roup":3233,"Ġrace":3234,"Ġmach":3235,"Ġhuge":3236,"All":3237,"lear":3238,"ovember":3239,"Ġtown":3240,"Ġattention":3241,"ĠOff":3242,"yond":3243,"ĠThen":3244,"field":3245,"Ġterror":3246,"raz":3247,"ĠBo":3248,"Ġmeeting":3249,"ĠPark":3250,"Ġarrest":3251,"Ġfear":3252,"Ġaw":3253,"ĠVal":3254,"oring":3255,"',":3256,"Ġextreme":3257,"arr":3258,"Ġworkers":3259,"After":3260,"Ġ31":3261,"net":3262,"ament":3263,"Ġdirectly":3264,"Ġpopulation":3265,"ube":3266,"ĠOctober":3267,"ĠIN":3268,"ĠJanuary":3269,"59":3270,"ĠDavid":3271,"Ġcross":3272,"cember":3273,"ĠFirst":3274,"Ġmessage":3275,"irit":3276,"Ġnation":3277,"Ġpoll":3278,"isions":3279,"Ġanswer":3280,"ny":3281,"isode":3282,"Ġcarry":3283,"ĠRussia":3284,"Ġhear":3285,"ength":3286,"roy":3287,"Ġnatural":3288,"inally":3289,"Ġdog":3290,"mitted":3291,"Ġtrade":3292,"Ġsubst":3293,"Ġmultiple":3294,"ĠAfric":3295,"Ġfans":3296,"Ġsort":3297,"Ġglobal":3298,"ication":3299,"ĠWed":3300,"ara":3301,"Ġachie":3302,"Ġlanguage":3303,"vey":3304,"Ġtal":3305,"Ġnecessary":3306,"Ġdetails":3307,"Ġsen":3308,"ĠSund":3309,"ĠReg":3310,"ĠRec":3311,"06":3312,"Ġsil":3313,"ressive":3314,"Ġmedical":3315,"unch":3316,"ornia":3317,"Ġund":3318,"fort":3319,"ocks":3320,"ĠMonday":3321,"uesday":3322,"craft":3323,"77":3324,"urt":3325,"Ġver":3326,"ĠHill":3327,"Ġreceive":3328,"Ġmorning":3329,"estern":3330,"Ġbank":3331,"Ġsat":3332,"irth":3333,"ĠHigh":3334,"Ġdevice":3335,"ĠTHE":3336,"ĠCenter":3337,"Ġsafe":3338,"Ġple":3339,"ĠCanada":3340,"Ġsystems":3341,"Ġassist":3342,"Ġsurv":3343,"Ġbattle":3344,"ĠSoc":3345,"vertis":3346,"She":3347,"Ġpaper":3348,"Ġgrowth":3349,"Ġcast":3350,"Sc":3351,"Ġplans":3352,"lled":3353,"Ġparts":3354,"Ġwall":3355,"Ġmovement":3356,"Ġpractice":3357,"imately":3358,"Ġdisplay":3359,"Ġsometimes":3360,"omp":3361,"ĠPaul":3362,"ĠYes":3363,"king":3364,"58":3365,"oly":3366,"Ġson":3367,"Ġavoid":3368,"okes":3369,"ĠJew":3370,"Ġtowards":3371,"asc":3372,"Ġ//":3373,"ĠKore":3374,"Ġtalking":3375,"Ġcorrect":3376,"Ġspent":3377,"icks":3378,"iable":3379,"eared":3380,"Ġterm":3381,"Ġwants":3382,"oming":3383,"Ġut":3384,"Ġdoub":3385,"Ġforces":3386,"Ġplease":3387,"69":3388,"ĠNovember":3389,"atform":3390,"ondon":3391,"Ġones":3392,"Ġimmediately":3393,"ĠRussian":3394,"ĠMet":3395,"Ġdeg":3396,"Ġparents":3397,"CH":3398,"ĠAmericans":3399,"aly":3400,"ĠMod":3401,"Ġshown":3402,"Ġconditions":3403,"Ġstuff":3404,"Ġreb":3405,"ĠYour":3406,"Ġincludes":3407,"nown":3408,"ĠSam":3409,"Ġexperien":3410,"mission":3411,"ĠEven":3412,"aught":3413,"Ġannounced":3414,"ĠRepublican":3415,"Ġdetermin":3416,"Ġdescribed":3417,"ĠCounty":3418,"()":3419,"Ġdoor":3420,"Ġchanged":3421,"Ġneigh":3422,"ĠHere":3423,"Ġclean":3424,"Ġpan":3425,"ĠDecember":3426,"ĠEuropean":3427,"iring":3428,"apter":3429,"Ġclub":3430,"ĠTuesday":3431,"Ġpaid":3432,"ĠNet":3433,"Ġattacks":3434,"Ġcharacters":3435,"Ġalone":3436,"Ġdirector":3437,"dom":3438,"Ġ35":3439,"Ġload":3440,"Ġrout":3441,"ĠCalifornia":3442,"Ġfinally":3443,"Ġrac":3444,"Ġcontr":3445,"Ġexactly":3446,"resh":3447,"pri":3448,"ĠIslam":3449,"Ġnature":3450,"Ġcareer":3451,"Ġlatest":3452,"Ġconvers":3453,"ĠSl":3454,"pose":3455,"cient":3456,"ĠInc":3457,"ivity":3458,"88":3459,"ĠAtt":3460,"ĠMor":3461,"nesday":3462,"Ġweight":3463,"ken":3464,"Ġnote":3465,"Ġteams":3466,"Ġ\\":3467,"airs":3468,"ĠGreen":3469,"Ġhundred":3470,"onent":3471,"Ġstreng":3472,"Ġconsist":3473,"icated":3474,"Ġregul":3475,"Ġlic":3476,"astic":3477,"Ġten":3478,"ursday":3479,"elligence":3480,"ously":3481,"ĠUK":3482,"BI":3483,"Ġcosts":3484,"Ġindepend":3485,"ĠAP":3486,"Ġnormal":3487,"Ġhom":3488,"Ġobvious":3489,"Ġswe":3490,"Ġstar":3491,"Ġready":3492,"acher":3493,"Ġimplement":3494,"gest":3495,"Ġsong":3496,"ĠGet":3497,"ĠLab":3498,"Ġinteresting":3499,"using":3500,"Ġgiving":3501,"ĠSunday":3502,"Ġetc":3503,"Ġmiddle":3504,"Ġremember":3505,"right":3506,"osition":3507,"utions":3508,"Ġmax":3509,"46":3510,"Ġyourself":3511,"Ġdemand":3512,"Ġtreatment":3513,"Ġdanger":3514,"ĠCons":3515,"Ġguy":3516,"ĠBritish":3517,"Ġphysical":3518,"Ġrelated":3519,"Ġremain":3520,"Ġcouldn":3521,"Ġrefer":3522,"Ġcitiz":3523,"box":3524,"ENT":3525,"board":3526,"Ġinn":3527,"IG":3528,"ero":3529,"ĠStreet":3530,"ospital":3531,"rench":3532,"chers":3533,"Ġstra":3534,"OL":3535,"ager":3536,"ĠAN":3537,"Ġeasily":3538,"IA":3539,"enge":3540,"iny":3541,"Ġclos":3542,"ocked":3543,"Ġuses":3544,"ĠCoun":3545,"Im":3546,"uild":3547,"??":3548,"more":3549,"Ġang":3550,"Ġwrite":3551,"olute":3552,"57":3553,"Ġleader":3554,"Ġreading":3555,"</":3556,"Ġautom":3557,"ests":3558,"43":3559,"Ġlegisl":3560,"ĠGold":3561,"Ġdesigned":3562,"ĠST":3563,"ĠLeg":3564,"ares":3565,"Ġbeaut":3566,"ĠTex":3567,"Ġappears":3568,"Ġstrugg":3569,"ĠRom":3570,"Ġ00":3571,"Ġchoice":3572,"Ġparticularly":3573,"ĠFrom":3574,"oper":3575,"ĠLondon":3576,"anned":3577,"Ġallows":3578,"obile":3579,"Ġdifference":3580,"âĢ¢":3581,"ĠView":3582,"ĠWednesday":3583,"Ġalthough":3584,"Ġrelative":3585,"Ġapplication":3586,"atever":3587,"Ġaren":3588,"Ġmyself":3589,"Ġimag":3590,"Ġdise":3591,"Ġsociety":3592,"Ġfrequ":3593,"ĠEnglish":3594,"Ġpoor":3595,"ĠDay":3596,"Ġwriting":3597,"Ġseven":3598,"Ġstarting":3599,"Ġbud":3600,"Ġprint":3601,"ĠTrans":3602,"ufact":3603,"ĠStud":3604,"new":3605,"Ġcrim":3606,"Ġgives":3607,"Ġcool":3608,"ae":3609,"iance":3610,"ĠGeneral":3611,"Ġthinking":3612,"Ġsave":3613,"Ġlimited":3614,"ĠParty":3615,"Ġmeaning":3616,"pen":3617,"owers":3618,"ĠJack":3619,"EM":3620,"Ġnice":3621,"rupt":3622,"Ġgas":3623,"Ġeight":3624,"Ġfeet":3625,"Ġeffort":3626,"Ġign":3627,"icit":3628,"Bl":3629,"coin":3630,"Ġopin":3631,"Ġbrain":3632,"While":3633,"hest":3634,"ĠThursday":3635,"Ġwouldn":3636,"aughter":3637,"Ġtouch":3638,"lements":3639,"Ġstudies":3640,"Ġcenter":3641,"cont":3642,"orge":3643,"Ġcomputer":3644,"Ġinvestigation":3645,"Pl":3646,"orks":3647,"Ġ2008":3648,"Ġincreasing":3649,"Ġstore":3650,"Ġcomments":3651,"Ġbal":3652,"men":3653,"Ġdoll":3654,"Ġliber":3655,"Ġwife":3656,"Ġlaws":3657,"aturday":3658,"itness":3659,"Ġmodern":3660,"ĠSk":3661,"Ġadministration":3662,"Ġopportunity":3663,"Ġsal":3664,"Ġpowerful":3665,"My":3666,"Ġclaims":3667,"ĠEarth":3668,"ords":3669,"Ġtitle":3670,"Ġesc":3671,"name":3672,"Not":3673,"omen":3674,"Ġbeyond":3675,"Ġcamer":3676,"Ġsell":3677,"itute":3678,"earch":3679,"Ġappl":3680,"iment":3681,"42":3682,"ĠArt":3683,"Ġunf":3684,"Ġviolence":3685,"urg":3686,"ĠEast":3687,"Ġcompared":3688,"Ġoptions":3689,"Ġthroughout":3690,"Ġvs":3691,"igr":3692,".[":3693,"aches":3694,"78":3695,"Ġfiles":3696,"FL":3697,"EL":3698,"arian":3699,"ĠJames":3700,"ĠAir":3701,"anch":3702,"Ġdetail":3703,"Ġpiece":3704,"PS":3705,"Ġnamed":3706,"Ġeducation":3707,"Ġdrive":3708,"Ġitems":3709,"Ġstudent":3710,"iced":3711,"::":3712,"ico":3713,"Ġthrow":3714,"Ġscene":3715,"Ġcomplex":3716,"Ġ2009":3717,"Ġprec":3718,"ĠBre":3719,"79":3720,"Ġconcept":3721,"Ġstatus":3722,"aming":3723,"Ġdied":3724,"Ġknowledge":3725,"Ġbeginning":3726,"OD":3727,"ruary":3728,"Ġcertainly":3729,"Ġguys":3730,"Ġslight":3731,"inn":3732,"ounds":3733,"Ġfine":3734,"Ġfat":3735,"ications":3736,"Ġperhaps":3737,"ĠAnt":3738,"Ġincome":3739,"Ġhttps":3740,"Ġmajority":3741,"ports":3742,"ston":3743,"Ġgreater":3744,"Ġfeed":3745,"entially":3746,"Ġsafety":3747,"Ġunique":3748,"andom":3749,"Ġgone":3750,"Ġshowed":3751,"Ġhistor":3752,"Ġcounter":3753,"ius":3754,"ida":3755,"Ġleading":3756,"ipe":3757,"Ġsend":3758,"ĠDonald":3759,"erve":3760,"Ġdefense":3761,"inese":3762,"Ġyes":3763,"ĠFire":3764,"ĠMuslim":3765,"raq":3766,"Ġcontinued":3767,"osh":3768,"Ġprovides":3769,"Ġprison":3770,"ĠPre":3771,"Ġhappy":3772,"Ġeconomy":3773,"Ġtrust":3774,"ags":3775,"ĠGame":3776,"Ġweapons":3777,"uman":3778,"ĠCle":3779,"itation":3780,"Ġanalysis":3781,"ĠTimes":3782,"Ġscience":3783,"->":3784,"Ġfigure":3785,"Ġdisapp":3786,"enty":3787,"Ġsoftware":3788,"Ġult":3789,"Ġofficers":3790,"New":3791,"Is":3792,"Ġremains":3793,"ĠIndia":3794,"Ġpsych":3795,"rief":3796,"Ġcat":3797,"esc":3798,"Ġobserv":3799,"Ġstage":3800,"ĠDark":3801,"Ġenter":3802,"change":3803,"Ġpassed":3804,"Ġdespite":3805,"ĠOut":3806,"Ġmovie":3807,"rs":3808,"Ġvoice":3809,"mine":3810,"ĠPlay":3811,"Ġtoward":3812,"ĠTer":3813,"Ġregion":3814,"Ġvalues":3815,"orters":3816,"Ġmount":3817,"Ġofficer":3818,"ĠOther":3819,"ban":3820,"Ġhous":3821,"wood":3822,"room":3823,"IV":3824,"ĠSun":3825,"see":3826,"ĠOver":3827,"rog":3828,"90":3829,"Ġlay":3830,"ĠTur":3831,"awn":3832,"Ġpressure":3833,"ĠSub":3834,"Ġbooks":3835,"edom":3836,"ĠSand":3837,"AA":3838,"ago":3839,"Ġreasons":3840,"ford":3841,"Ġactivity":3842,"UT":3843,"Now":3844,"ĠSenate":3845,"cell":3846,"night":3847,"Ġcalls":3848,"inter":3849,"Ġletter":3850,"ĠRob":3851,"ĠJe":3852,"Ġchoose":3853,"ĠLaw":3854,"Get":3855,"Be":3856,"Ġrob":3857,"Ġtypes":3858,"Ġplatform":3859,"Ġquarter":3860,"RA":3861,"ĠTime":3862,"Ġmaybe":3863,"ĠCr":3864,"95":3865,"pre":3866,"Ġmoving":3867,"Ġlif":3868,"Ġgold":3869,"Ġsom":3870,"Ġpatients":3871,"Ġtruth":3872,"ĠKe":3873,"urance":3874,"antly":3875,"mar":3876,"Ġcharge":3877,"ĠGreat":3878,"Ġcele":3879,"--------------------------------":3880,"Ġrock":3881,"roid":3882,"ancy":3883,"Ġcredit":3884,"aud":3885,"By":3886,"ĠEvery":3887,"Ġmoved":3888,"inger":3889,"ribution":3890,"Ġnames":3891,"Ġstraight":3892,"ĠHealth":3893,"ĠWell":3894,"Ġfeature":3895,"Ġrule":3896,"Ġsche":3897,"inated":3898,"ĠMichael":3899,"berg":3900,"41":3901,"iled":3902,"band":3903,"Ġclick":3904,"ĠAngel":3905,"onents":3906,"ÂŃ":3907,"ĠIraq":3908,"ĠSaturday":3909,"Ġaware":3910,"part":3911,"Ġpattern":3912,"OW":3913,"ĠLet":3914,"Ġgrad":3915,"igned":3916,"Ġassociated":3917,"Ġstyle":3918,"no":3919,"iation":3920,"aith":3921,"ilies":3922,"Ġstories":3923,"uration":3924,"Ġindividuals":3925,"ĠâĢ¦":3926,"miss":3927,"ĠAssoci":3928,"ishing":3929,"aby":3930,"Ġsummer":3931,"ĠBen":3932,"Ġ32":3933,"Ġarch":3934,"uty":3935,"ĠTexas":3936,"hol":3937,"Ġfully":3938,"Ġmill":3939,"Ġfollowed":3940,"ĠBill":3941,"ĠIndian":3942,"ĠSecret":3943,"ĠBel":3944,"ĠFebruary":3945,"Ġjobs":3946,"Ġseemed":3947,"ĠGovern":3948,"ipped":3949,"Ġreality":3950,"Ġlines":3951,"Ġpark":3952,"Ġmeasure":3953,"ĠOur":3954,"IM":3955,"Ġbrother":3956,"Ġgrowing":3957,"Ġban":3958,"Ġestim":3959,"Ġcry":3960,"ĠSchool":3961,"Ġmechan":3962,"ĠOF":3963,"ĠWindows":3964,"Ġrates":3965,"ĠOh":3966,"Ġpositive":3967,"Ġculture":3968,"istics":3969,"ica":3970,"Ġhar":3971,"ya":3972,"itely":3973,"ipp":3974,"Ġmap":3975,"encies":3976,"ĠWilliam":3977,"II":3978,"akers":3979,"56":3980,"ĠMart":3981,"ĠRem":3982,"Ġaltern":3983,"itude":3984,"Ġcoach":3985,"rowd":3986,"Don":3987,"Ġkids":3988,"Ġjournal":3989,"Ġcorpor":3990,"Ġfalse":3991,"Ġweb":3992,"Ġsleep":3993,"Ġcontain":3994,"Ġsto":3995,"Ġbed":3996,"iverse":3997,"ĠRich":3998,"ĠChinese":3999,"Ġpun":4000,"Ġmeant":4001,"known":4002,"Ġnotice":4003,"Ġfavorite":4004,"aven":4005,"Ġcondition":4006,"Ġpurpose":4007,"))":4008,"Ġorganization":4009,"Ġchalleng":4010,"Ġmanufact":4011,"Ġsusp":4012,"ĠAc":4013,"Ġcritic":4014,"unes":4015,"uclear":4016,"Ġmer":4017,"vention":4018,"Ġ80":4019,"Ġmist":4020,"ĠUs":4021,"ĠTor":4022,"http":4023,"olf":4024,"Ġlarger":4025,"Ġadvant":4026,"Ġresear":4027,"Ġactions":4028,"ml":4029,"Ġkept":4030,"Ġaim":4031,",'":4032,"col":4033,"Ġbenefits":4034,"ifying":4035,"Ġactual":4036,"ĠInternational":4037,"Ġvehicle":4038,"Ġchief":4039,"Ġefforts":4040,"ĠLeague":4041,"ĠMost":4042,"Ġwait":4043,"Ġadult":4044,"Ġoverall":4045,"Ġspeech":4046,"Ġhighly":4047,"Ġfemale":4048,"Ġerror":4049,"Ġeffective":4050,"54":4051,"Ġencour":4052,"well":4053,"Ġfailed":4054,"Ġconserv":4055,"Ġprograms":4056,"Ġtrou":4057,"Ġahead":4058,"500":4059,"vertisement":4060,"IP":4061,"ĠFound":4062,"pir":4063,"Ġ%":4064,"Ġcrime":4065,"ander":4066,"Ġlocation":4067,"ĠIran":4068,"Ġbehavior":4069,"azing":4070,"Ġrare":4071,"Ġemb":4072,"Ġcaused":4073,"Ġship":4074,"Ġactive":4075,"Ġcontribut":4076,"Ġgreen":4077,"Ġacqu":4078,"Ġreflect":4079,"venue":4080,"Ġfirm":4081,"Ġbirth":4082,"].":4083,"Ġclearly":4084,"Ġemot":4085,"Ġagency":4086,"riage":4087,"Ġmemory":4088,"98":4089,"SA":4090,"ĠSee":4091,"acing":4092,"CC":4093,"Ġbiggest":4094,"Ġrap":4095,"Ġbasic":4096,"Ġband":4097,"eat":4098,"Ġsuspect":4099,"ĠMac":4100,"Ġ90":4101,"mark":4102,"istan":4103,"Ġspread":4104,"ams":4105,"ki":4106,"asy":4107,"rav":4108,"ĠRober":4109,"Ġdemonstr":4110,"rated":4111,"Ġabsolute":4112,"Ġplaces":4113,"Ġimpl":4114,"ibrary":4115,"Ġcards":4116,"Ġdestroy":4117,"Ġvirt":4118,"vere":4119,"Ġappeared":4120,"yan":4121,"point":4122,"Ġbeg":4123,"Ġtemper":4124,"spe":4125,"anted":4126,"ears":4127,"ĠDirect":4128,"Ġlength":4129,"Ġblog":4130,"amb":4131,"Ġinteg":4132,"Ġresources":4133,"acc":4134,"iful":4135,"Ġspot":4136,"Ġforced":4137,"Ġthousands":4138,"ĠMinister":4139,"Ġqual":4140,"ĠFrench":4141,"atically":4142,"Ġgenerally":4143,"Ġdrink":4144,"Ġthus":4145,"IL":4146,"odes":4147,"Ġappropri":4148,"ĠRead":4149,"Ġwhom":4150,"Ġeye":4151,"Ġcollege":4152,"Ġ45":4153,"irection":4154,"Ġensure":4155,"Ġapparent":4156,"iders":4157,"Ġreligious":4158,"Ġminor":4159,"olic":4160,"Ġtro":4161,"ĠWhy":4162,"ribute":4163,"met":4164,"Ġprimary":4165,"Ġdeveloped":4166,"Ġpeace":4167,"Ġskin":4168,"ste":4169,"ava":4170,"Ġblue":4171,"Ġfamilies":4172,"Ġir":4173,"Ġapply":4174,"Ġinform":4175,"ĠSmith":4176,"CT":4177,"ii":4178,"Ġlimit":4179,"Ġresist":4180,"................":4181,"umn":4182,"Ġconflic":4183,"Ġtwe":4184,"udd":4185,"ĠTom":4186,"Ġliter":4187,"que":4188,"bon":4189,"Ġhair":4190,"Ġeventually":4191,"Ġpus":4192,"Ġhelped":4193,"Ġagg":4194,"orney":4195,"ĠApple":4196,"Ġfit":4197,"ĠSur":4198,"Ġprem":4199,"Ġsales":4200,"Ġseconds":4201,"Ġstrength":4202,"Ġfeeling":4203,"¿½":4204,"Ġtour":4205,"Ġknows":4206,"oom":4207,"Ġexerc":4208,"Ġsomew":4209,"ï¿½":4210,">>":4211,"Ġspokes":4212,"Ġideas":4213,"Ġregist":4214,"soft":4215,"ĠDel":4216,"ĠPC":4217,"Ġpropos":4218,"Ġlaunch":4219,"Ġbottom":4220,"TH":4221,"ĠPlease":4222,"vest":4223,"itz":4224,"ĠInter":4225,"Ġscript":4226,"Ġrat":4227,"arning":4228,"Ġil":4229,"ĠJer":4230,"ĠAre":4231,"Ġwhatever":4232,"oken":4233,"cience":4234,"Ġmode":4235,"Ġagree":4236,"Ġsources":4237,"Ġinitial":4238,"Ġrestrict":4239,"Ġwonder":4240,"usion":4241,"####":4242,"ĠSil":4243,"ville":4244,"Ġburn":4245,"tw":4246,"asion":4247,"ĠÂ£":4248,"Ġnor":4249,"uing":4250,"Ġreached":4251,"Ġsun":4252,"Ġcateg":4253,"igration":4254,"Ġcook":4255,"Ġpromot":4256,"Ġmale":4257,"Ġclimate":4258,"Ġfix":4259,"Ġalleged":4260,"UR":4261,"alled":4262,"Ġimages":4263,"Cont":4264,"ota":4265,"Ġschools":4266,"ios":4267,"Ġdrop":4268,"Ġstream":4269,"ĠMo":4270,"Ġpreviously":4271,"aling":4272,"Ġpet":4273,"Ġdouble":4274,"Ġ(@":4275,"annel":4276,"Ġdefault":4277,"ties":4278,"Ġrank":4279,"ĠDec":4280,"ĠCouncil":4281,"Ġweapon":4282,"Ġstock":4283,"Ġanaly":4284,"ĠStr":4285,"Ġpicture":4286,"ĠPolice":4287,"ference":4288,"Ġcentury":4289,"Ġcitizens":4290,"Ġonto":4291,"Ġexpand":4292,"Ġhero":4293,"ĠSol":4294,"Ġwild":4295,"Ġupdate":4296,"Ġcustomers":4297,"ront":4298,"def":4299,"Ġlik":4300,"Ġcriminal":4301,"ĠChristian":4302,"SP":4303,"76":4304,"Ġleaving":4305,"Ġotherwise":4306,"ĠDist":4307,"Ġbasis":4308,"52":4309,"53":4310,"icip":4311,"ĠBer":4312,"Ġrecommend":4313,"Ġfloor":4314,"Ġcrowd":4315,"oles":4316,"Ġ70":4317,"Ġcentral":4318,"ĠEv":4319,"Ġdream":4320,"Ġdownload":4321,"Ġconfir":4322,"ĠThom":4323,"Ġwindow":4324,"Ġhappens":4325,"Ġunit":4326,"Ġtend":4327,"Ġspl":4328,"Ġbecomes":4329,"Ġfighting":4330,"Ġpredict":4331,"ĠPress":4332,"ĠPower":4333,"Ġheavy":4334,"aked":4335,"Ġfan":4336,"orter":4337,"ategy":4338,"BA":4339,"izes":4340,"Ġspend":4341,"Here":4342,"Ġ2007":4343,"Ġadop":4344,"ĠHam":4345,"Ġfootball":4346,"ĠPort":4347,"oday":4348,"51":4349,"ampions":4350,"Ġtransfer":4351,"ht":4352,"Ġ38":4353,"term":4354,"acity":4355,"Ġbur":4356,"],":4357,"ternal":4358,"rig":4359,"but":4360,"Ġtherefore":4361,"ĠBecause":4362,"resp":4363,"rey":4364,"Ġmission":4365,"Some":4366,"Ġnoted":4367,"Ġassum":4368,"Ġdisease":4369,"Ġedit":4370,"Ġprogress":4371,"rd":4372,"ĠBrown":4373,"ocal":4374,"Ġadding":4375,"Ġraised":4376,"ĠAny":4377,"Ġtick":4378,"Ġseeing":4379,"ĠPeople":4380,"Ġagreement":4381,"Ġserver":4382,"Ġwat":4383,"Ġdebate":4384,"Ġsupposed":4385,"iling":4386,"Ġlargest":4387,"Ġsuccessful":4388,"ĠPri":4389,"ĠDemocratic":4390,"Ġjump":4391,"ĠSyria":4392,"Ġowners":4393,"Ġoffers":4394,"Ġshooting":4395,"Ġeffic":4396,"sey":4397,"Ġhaven":4398,"verse":4399,"tered":4400,"ĠLight":4401,"imal":4402,"ĠBig":4403,"Ġdefend":4404,"Ġbeat":4405,"Ġrecords":4406,"%)":4407,"Ġscen":4408,"Ġemployees":4409,"Ġdevices":4410,"hem":4411,"Ġcommer":4412,"ĠMex":4413,"Ġbenefit":4414,"ĠProf":4415,"Ġilleg":4416,"Ġsurface":4417,"ĠAlso":4418,"Ġharm":4419,"ingly":4420,"wide":4421,"ĠAlex":4422,"Ġshut":4423,"ĠCur":4424,"Ġlose":4425,"pm":4426,"Ġchallenge":4427,"semb":4428,"Ġstation":4429,"Ġintelligence":4430,"Ġaccur":4431,"ĠFlor":4432,"Ġrequires":4433,"ĠMal":4434,"bum":4435,"Ġhospital":4436,"Ġspirit":4437,"Ġoffered":4438,"Ġproduce":4439,"ĠCommun":4440,"Ġcreating":4441,"Ġcris":4442,"spect":4443,"Ġended":4444,"Ġdaily":4445,"Ġvoters":4446,"lands":4447,"ias":4448,"ih":4449,"ona":4450,"Ġsmart":4451,"ĠOffice":4452,"ĠLord":4453,"rial":4454,"ĠInternet":4455,"Ġcircum":4456,"Ġextremely":4457,"'.":4458,"Ġopinion":4459,"ĠMil":4460,"Ġgain":4461,"BS":4462,"ĠFin":4463,"yp":4464,"Ġuseful":4465,"Ġbudget":4466,"Ġcomfort":4467,"isf":4468,"Ġbackground":4469,"eline":4470,"Ġepisode":4471,"Ġenemy":4472,"Ġtrial":4473,"Ġestablish":4474,"date":4475,"ĠCap":4476,"Ġcontinues":4477,"Ġshowing":4478,"ĠUnion":4479,"with":4480,"Ġposted":4481,"ĠSystem":4482,"Ġeat":4483,"rian":4484,"Ġrise":4485,"ĠGermany":4486,"ils":4487,"Ġsigned":4488,"Ġvill":4489,"Ġgrand":4490,"mor":4491,"ĠEngland":4492,"Ġprojects":4493,"umber":4494,"Ġconference":4495,"za":4496,"Ġresponsible":4497,"ĠArab":4498,"Ġlearned":4499,"âĢĶâĢĶ":4500,"ipping":4501,"ĠGeorge":4502,"OC":4503,"Ġreturned":4504,"ĠAustralia":4505,"Ġbrief":4506,"Qu":4507,"Ġbrand":4508,"illing":4509,"abled":4510,"Ġhighest":4511,"Ġtrain":4512,"ĠCommission":4513,"while":4514,"Ġnom":4515,"ception":4516,"Ġmut":4517,"ĠBlue":4518,"Ġincident":4519,"vant":4520,"86":4521,"ĠID":4522,"Ġnuclear":4523,"74":4524,"ĠLike":4525,"ĠRE":4526,"ĠMicro":4527,"li":4528,"mail":4529,"Ġcharges":4530,"89":4531,"Ġadjust":4532,"ado":4533,"Ġearth":4534,"NA":4535,"Ġprices":4536,"PA":4537,"Ġdraft":4538,"Ġruns":4539,"Ġcandidate":4540,"enses":4541,"Ġmanagement":4542,"ĠPhil":4543,"ĠMiss":4544,"Ġteach":4545,"gram":4546,"Ġunderstanding":4547,"ait":4548,"icago":4549,"Add":4550,"ĠEp":4551,"secut":4552,"Ġseparate":4553,"Ġinstance":4554,"Ġeth":4555,"Ġunless":4556,"********":4557,"ĠFore":4558,"inate":4559,"Ġoperations":4560,"Sp":4561,"Ġfaith":4562,"gar":4563,"ĠChurch":4564,"ronic":4565,"Ġconfig":4566,"osure":4567,"Ġactivities":4568,"Ġtraditional":4569,"Ġ36":4570,"Ġdirection":4571,"Ġmachine":4572,"Ġsurround":4573,"Ġpush":4574,"unction":4575,"ĠEU":4576,"Ġeasier":4577,"Ġargument":4578,"GB":4579,"Ġmicro":4580,"Ġspending":4581,"izations":4582,"Ġtheory":4583,"adow":4584,"Ġcalling":4585,"ĠLast":4586,"Ġder":4587,"Ġinfluence":4588,"Ġcommit":4589,"Ġphoto":4590,"Ġunc":4591,"istry":4592,"gn":4593,"aste":4594,"acks":4595,"Ġdisp":4596,"ady":4597,"do":4598,"ĠGood":4599,"Ġ`":4600,"Ġwish":4601,"Ġrevealed":4602,"ÂłÂł":4603,"lig":4604,"Ġenforce":4605,"ĠCommittee":4606,"Ġchem":4607,"Ġmiles":4608,"Ġinterested":4609,"Ġsolution":4610,"icy":4611,"inct":4612,"Ġ->":4613,"ĠDet":4614,"Ġremoved":4615,"Ġcompar":4616,"eah":4617,"Ġplant":4618,"ĠSince":4619,"Ġachieve":4620,"Ġadvantage":4621,"Ġslightly":4622,"bing":4623,"Ġplaced":4624,"under":4625,"2015":4626,"ĠMad":4627,"Ġtim":4628,"oses":4629,"Ġcru":4630,"ĠRock":4631,"Ġmostly":4632,"Ġnegative":4633,"Ġsetting":4634,"Ġproduced":4635,"Ġmur":4636,"Ġconnection":4637,"ĠMer":4638,"Ġdriver":4639,"Ġexecutive":4640,"Ġassault":4641,"Ġborn":4642,"ĠVer":4643,"tained":4644,"Ġstructure":4645,"Ġreduce":4646,"Ġdecades":4647,"Ġded":4648,"uke":4649,"ĠMany":4650,"idden":4651,"Ġleague":4652,"Se":4653,"Ġjoin":4654,"Ġdisco":4655,"Ġdie":4656,"cks":4657,"actions":4658,"Ġassess":4659,"agn":4660,"Ġgoals":4661,"ours":4662,"IR":4663,"Ġsenior":4664,"iller":4665,"mod":4666,"ipment":4667,"ocol":4668,"uy":4669,"ĠQue":4670,"Ġparties":4671,"irgin":4672,"Ġlearning":4673,"itable":4674,"Ġstreet":4675,"Ġcamera":4676,"App":4677,"Ġskills":4678,"bre":4679,"cious":4680,"Ġcelebr":4681,"ĠFranc":4682,"Ġexisting":4683,"Ġwilling":4684,"lor":4685,"Ġid":4686,"ĠSpace":4687,"Ġcritical":4688,"ĠLa":4689,"ortunately":4690,"Ġserve":4691,"Ġcold":4692,"Ġspecies":4693,"TS":4694,"Ġanimals":4695,"ĠBay":4696,"Ġolder":4697,"ĠUnder":4698,"estic":4699,"ĠTre":4700,"Ġteacher":4701,"Ġprefer":4702,"vis":4703,"Ġthread":4704,"ĠMatt":4705,"Ġmanager":4706,"ãĥ»":4707,"Ġprofessional":4708,"ĠVol":4709,"Ġnotes":4710,"These":4711,"ula":4712,"Ġfresh":4713,"ented":4714,"uzz":4715,"edy":4716,"clusion":4717,"ĠRel":4718,"Ġdoubt":4719,"EO":4720,"Ġopened":4721,"ĠBit":4722,"Advertisement":4723,"Ġguess":4724,"ĠUN":4725,"Ġsequ":4726,"Ġexplain":4727,"otten":4728,"Ġattract":4729,"aks":4730,"Ġstring":4731,"Ġcontext":4732,"ossible":4733,"ĠRepublicans":4734,"Ġsolid":4735,"Ġcities":4736,"Ġasking":4737,"Ġrandom":4738,"ups":4739,"uries":4740,"arant":4741,"dden":4742,"gl":4743,"ĠFlorida":4744,"Ġdepend":4745,"ĠScott":4746,"Ġ33":4747,"ĠiT":4748,"icon":4749,"Ġmentioned":4750,"Ġ2000":4751,"Ġclaimed":4752,"Ġdefinitely":4753,"ulf":4754,"Ġcore":4755,"Ġopening":4756,"ĠConst":4757,"which":4758,"ĠTra":4759,"AG":4760,"72":4761,"Ġbelieved":4762,"ada":4763,"Ġ48":4764,"ĠSecurity":4765,"yright":4766,"ĠPet":4767,"ĠLou":4768,"Ġholding":4769,"================":4770,"Ġice":4771,"Ġbrow":4772,"Ġauthorities":4773,"host":4774,"word":4775,"Ġscore":4776,"ĠDiv":4777,"Ġcells":4778,"Ġtransl":4779,"Ġneighbor":4780,"Ġremove":4781,"uct":4782,"Ġdistrict":4783,"ĠAccording":4784,"Ġworse":4785,"Ġconcerns":4786,"Ġpresidential":4787,"Ġpolicies":4788,"ĠHall":4789,"73":4790,"Ġhus":4791,"AY":4792,"Ġ2006":4793,"ĠJud":4794,"Ġindependent":4795,"ĠJustice":4796,"iliar":4797,"print":4798,"ighter":4799,"Ġprotection":4800,"zen":4801,"Ġsudden":4802,"house":4803,"ĠJes":4804,"PR":4805,"ĠInf":4806,"Ġbul":4807,"Ġ_":4808,"ĠService":4809,"ĠPR":4810,"Ġstrategy":4811,"ffect":4812,"Ġgirls":4813,"Ġmissing":4814,"oyal":4815,"ĠTeam":4816,"ulated":4817,"Ġdat":4818,"Ġpolitics":4819,"abor":4820,"According":4821,"Ġspell":4822,"Ġgraph":4823,"orthern":4824,"TC":4825,"Ab":4826,"Ġlabor":4827,"isher":4828,"Ġkick":4829,"ĠiTunes":4830,"Ġsteps":4831,"poses":4832,"Ġsmaller":4833,"En":4834,"bert":4835,"Ġroll":4836,"Ġresearchers":4837,"Ġclosed":4838,"Ġtransport":4839,"Ġlawy":4840,"________________":4841,"ĠChicago":4842,"Ġaspect":4843,"Ġnone":4844,"Ġmarriage":4845,"96":4846,"Ġelements":4847,"ĠFre":4848,"ĠSal":4849,"Ġdram":4850,"FC":4851,"top":4852,"equ":4853,"Ġhearing":4854,"Ġsupported":4855,"Ġtesting":4856,"cohol":4857,"Ġmassive":4858,"Ġstick":4859,"Ġguard":4860,"isco":4861,"phone":4862,"From":4863,"However":4864,"Ġborder":4865,"Ġcopy":4866,"ography":4867,"list":4868,"71":4869,"Ġowner":4870,"class":4871,"ruit":4872,"rate":4873,"ĠOnce":4874,"Ġdigital":4875,"Ġtask":4876,"ERS":4877,"Ġincred":4878,"tes":4879,"++":4880,"ĠFrance":4881,"Ġbreat":4882,"owl":4883,"Ġissued":4884,"ĠWestern":4885,"Ġdetect":4886,"Ġpartners":4887,"Ġshared":4888,"ĠCall":4889,"Ġcancer":4890,"ache":4891,"ribe":4892,"Ġexplained":4893,"Ġheat":4894,"{\"":4895,"Ġinvestment":4896,"ĠBook":4897,"Ġwood":4898,"Ġtools":4899,"ĠAlthough":4900,"Ġbelief":4901,"Ġcrisis":4902,"Ġge":4903,"ĠMP":4904,"Ġoperation":4905,"type":4906,"~~":4907,"ga":4908,"Ġcontains":4909,"anta":4910,"Ġexpress":4911,"ĠGroup":4912,"ĠJournal":4913,"ka":4914,"Ġamb":4915,"ĠUSA":4916,"Ġfinding":4917,"Ġfunding":4918,"how":4919,"Ġestablished":4920,"ideos":4921,"Ġdegree":4922,"Ġdangerous":4923,"anging":4924,"Ġfreedom":4925,"pport":4926,"outhern":4927,"Ġchurch":4928,"Ġcatch":4929,"ĠTwo":4930,"Ġpresence":4931,"ĠGuard":4932,"Up":4933,"Ġauthority":4934,"ĠProject":4935,"Ġbutton":4936,"Ġconsequ":4937,"Ġvalid":4938,"Ġweak":4939,"Ġstarts":4940,"Ġreference":4941,"ĠMem":4942,"\")":4943,"UN":4944,"orage":4945,"ĠOpen":4946,"Ġcollection":4947,"ym":4948,"gency":4949,"Ġbeautiful":4950,"ros":4951,"Ġtells":4952,"Ġwaiting":4953,"nel":4954,"Ġproviding":4955,"ĠDemocrats":4956,"Ġdaughter":4957,"Ġmaster":4958,"Ġpurposes":4959,"ĠJapanese":4960,"Ġequal":4961,"Ġturns":4962,"Ġdocuments":4963,"Ġwatching":4964,"Res":4965,"Ġran":4966,"2014":4967,"Ġreject":4968,"ĠKorea":4969,"Ġvictims":4970,"Level":4971,"erences":4972,"Ġwitness":4973,"Ġ34":4974,"Ġreform":4975,"coming":4976,"Ġoccup":4977,"Ġcaught":4978,"Ġtraffic":4979,"ading":4980,"Ġmodels":4981,"ario":4982,"Ġserved":4983,"Ġbatter":4984,"uate":4985,"ĠSecretary":4986,"Ġagreed":4987,"Ġtruly":4988,"ynam":4989,"ĠRet":4990,"Ġunits":4991,"ĠResearch":4992,"hand":4993,"azine":4994,"ĠMike":4995,"Ġvariety":4996,"otal":4997,"Ġamazing":4998,"<|endoftext|>":4999}