#version: 0.2 - Trained by `huggingface/tokenizers`
Ġ t
Ġ a
h e
i n
r e
o n
Ġt he
e r
Ġ s
a t
Ġ w
Ġ o
e n
Ġ c
i t
i s
a n
o r
e s
Ġ b
e d
Ġ f
in g
Ġ p
o u
Ġa n
a l
a r
Ġt o
Ġ m
Ġo f
Ġ in
Ġ d
Ġ h
Ġan d
i c
a s
l e
Ġt h
i on
o m
l l
en t
Ġ n
Ġ l
s t
Ġ re
v e
Ġ e
r o
l y
Ġb e
Ġ g
Ġ T
c t
Ġ S
i d
o t
Ġ I
u t
e t
Ġ A
Ġ is
Ġ on
i m
a m
o w
a y
a d
s e
Ġth at
Ġ C
i g
Ġf or
a c
Ġ y
v er
u r
Ġ u
l d
Ġs t
Ġ M
' s
Ġ he
Ġ it
at ion
it h
i r
c e
Ġy ou
i l
Ġ B
Ġw h
o l
Ġ P
Ġw ith
Ġ 1
t er
c h
Ġa s
Ġw e
Ġ (
n d
i ll
Ġ D
i f
Ġ 2
a g
er s
k e
Ġ "
Ġ H
e m
Ġc on
Ġ W
Ġ R
he r
Ġw as
Ġ r
o d
Ġ F
u l
at e
Ġa t
r i
p p
o re
ĠT he
Ġs e
u s
Ġp ro
Ġh a
u m
Ġa re
Ġd e
a in
an d
Ġo r
ig h
es t
is t
a b
r om
Ġ N
t h
Ġc om
Ġ G
u n
o p
0 0
Ġ L
Ġn ot
es s
Ġe x
Ġ v
re s
Ġ E
e w
it y
an t
Ġb y
e l
o s
or t
o c
q u
Ġf rom
Ġha ve
Ġs u
i ve
ou ld
Ġs h
Ġth is
n t
r a
p e
igh t
ar t
m ent
Ġa l
u st
en d
- -
al l
Ġ O
ac k
Ġc h
Ġ le
i es
re d
ar d
â Ģ
ou t
Ġ J
Ġa b
e ar
i v
al ly
ou r
o st
g h
p t
Ġp l
as t
Ġc an
a k
om e
u d
T he
Ġh is
Ġd o
Ġg o
Ġh as
g e
' t
Ġ U
r ou
Ġs a
Ġ j
Ġb ut
Ġw or
Ġa ll
e ct
Ġ k
am e
Ġw ill
o k
Ġw he
Ġthe y
id e
0 1
f f
ic h
p l
t her
Ġt r
. .
Ġin t
i e
u re
ag e
Ġn e
i al
a p
in e
ic e
Ġm e
Ġo ut
an s
on e
on g
ion s
Ġwh o
Ġ K
Ġu p
Ġthe ir
Ġa d
Ġ 3
Ġu s
at ed
ou s
Ġm ore
u e
o g
ĠS t
in d
i ke
Ġs o
im e
p er
. "
b er
i z
a ct
Ġon e
Ġsa id
Ġ -
a re
Ġyou r
c c
ĠT h
Ġc l
e p
a ke
ab le
i p
Ġcon t
Ġwh ich
i a
Ġ im
Ġab out
Ġwe re
ver y
u b
Ġh ad
Ġ en
Ġcom p
, "
ĠI n
Ġu n
Ġa g
i re
ac e
a u
ar y
Ġw ould
as s
r y
Ġ âĢ
c l
o ok
e re
s o
Ġ V
ig n
i b
Ġof f
Ġt e
v en
Ġ Y
i le
o se
it e
or m
Ġ2 01
Ġre s
Ġm an
Ġp er
Ġo ther
or d
ul t
Ġbe en
Ġl ike
as e
an ce
k s
ay s
ow n
en ce
Ġd is
ct ion
Ġan y
Ġa pp
Ġs p
in t
res s
ation s
a il
Ġ 4
ic al
Ġthe m
Ġhe r
ou nt
ĠC h
Ġa r
Ġ if
Ġthe re
Ġp e
Ġy ear
a v
Ġm y
Ġs ome
Ġwhe n
ou gh
ac h
Ġth an
r u
on d
ic k
Ġo ver
ve l
Ġ qu
Ċ Ċ
Ġs c
re at
re e
ĠI t
ou nd
p ort
Ġal so
Ġp art
f ter
Ġk n
Ġbe c
Ġt ime
en s
Ġ 5
op le
Ġwh at
Ġn o
d u
m er
an g
Ġn ew
-- --
Ġg et
or y
it ion
ing s
Ġj ust
Ġint o
Ġ 0
ent s
o ve
t e
Ġpe ople
Ġp re
Ġit s
Ġre c
Ġt w
i an
ir st
ar k
or s
Ġwor k
ad e
o b
Ġs he
Ġo ur
w n
in k
l ic
Ġ1 9
ĠH e
is h
nd er
au se
Ġh im
on s
Ġ [
Ġ ro
f orm
i ld
at es
ver s
Ġon ly
o ll
Ġs pe
c k
e ll
am p
Ġa cc
Ġb l
i ous
ur n
f t
o od
Ġh ow
he d
Ġ '
Ġa fter
a w
Ġat t
o v
n e
Ġpl ay
er v
ic t
Ġc ould
it t
Ġa m
Ġf irst
Ġ 6
Ġa ct
Ġ $
e c
h ing
u al
u ll
Ġcom m
o y
o ld
c es
at er
Ġf e
Ġbe t
w e
if f
Ġtw o
oc k
Ġb ack
) .
id ent
Ġu nder
rou gh
se l
x t
Ġm ay
rou nd
Ġp o
p h
is s
Ġd es
Ġm ost
Ġd id
Ġad d
j ect
Ġin c
f ore
Ġp ol
on t
Ġag ain
cl ud
ter n
Ġkn ow
Ġne ed
Ġcon s
Ġc o
Ġ .
Ġw ant
Ġse e
Ġ 7
n ing
i ew
ĠTh is
c ed
Ġe ven
Ġin d
t y
ĠW e
at h
Ġthe se
Ġp r
Ġu se
Ġbec ause
Ġf l
n g
Ġn ow
ĠâĢ ĵ
c om
is e
Ġm ake
Ġthe n
ow er
Ġe very
ĠU n
Ġse c
os s
u ch
Ġe m
Ġ =
ĠR e
i ed
r it
Ġin v
le ct
Ġsu pp
at ing
Ġl ook
m an
pe ct
Ġ 8
ro w
Ġb u
Ġwhe re
if ic
Ġyear s
i ly
Ġd iff
Ġsh ould
Ġre m
T h
I n
Ġe v
d ay
' re
ri b
Ġre l
s s
Ġde f
Ġr ight
Ġs y
) ,
l es
00 0
he n
Ġth rough
ĠT r
_ _
Ġw ay
Ġd on
Ġ ,
Ġ1 0
as ed
Ġas s
ub lic
Ġre g
ĠA nd
i x
Ġ very
Ġin clud
ot her
Ġim p
ot h
Ġsu b
ĠâĢ Ķ
Ġbe ing
ar g
ĠW h
= =
ib le
Ġdo es
an ge
r am
Ġ 9
er t
p s
it ed
ation al
Ġb r
Ġd own
Ġman y
ak ing
Ġc all
ur ing
it ies
Ġp h
ic s
al s
Ġde c
at ive
en er
Ġbe fore
il ity
Ġwe ll
Ġm uch
ers on
Ġth ose
Ġsu ch
Ġ ke
Ġ end
ĠB ut
as on
t ing
Ġl ong
e f
Ġth ink
y s
Ġbe l
Ġs m
it s
a x
Ġo wn
Ġpro v
Ġs et
if e
ment s
b le
w ard
Ġsh ow
Ġp res
m s
om et
Ġo b
Ġs ay
ĠS h
t s
f ul
Ġe ff
Ġg u
Ġin st
u nd
re n
c ess
Ġ ent
ĠY ou
Ġgo od
Ġst art
in ce
Ġm ade
t t
st em
ol og
u p
Ġ |
um p
Ġhe l
ver n
ul ar
u ally
Ġa c
Ġm on
Ġl ast
Ġ2 00
1 0
Ġst ud
u res
ĠA r
sel f
ar s
mer ic
u es
c y
Ġm in
oll ow
Ġc ol
i o
Ġm od
Ġc ount
ĠC om
he s
Ġf in
a ir
i er
âĢ Ķ
re ad
an k
at ch
e ver
Ġst r
Ġpo int
or k
ĠN ew
Ġs ur
o ol
al k
em ent
Ġus ed
ra ct
we en
Ġs ame
ou n
ĠA l
c i
Ġdiff ere
Ġwh ile
---- ----
Ġg ame
ce pt
Ġs im
.. .
Ġin ter
e k
Ġre port
Ġpro du
Ġst ill
l ed
a h
Ġhe re
Ġwor ld
Ġth ough
Ġn um
ar ch
im es
al e
ĠS e
ĠI f
/ /
ĠL e
Ġre t
Ġre f
Ġtr ans
n er
ut ion
ter s
Ġt ake
ĠC l
Ġcon f
w ay
a ve
Ġgo ing
Ġs l
u g
ĠA meric
Ġspe c
Ġh and
Ġbet ween
ist s
ĠD e
o ot
I t
Ġe ar
Ġagain st
Ġh igh
g an
a z
at her
Ġex p
Ġo p
Ġin s
Ġg r
Ġhel p
Ġre qu
et s
in s
ĠP ro
is m
Ġf ound
l and
at a
us s
am es
Ġp erson
Ġg reat
p r
Ġs ign
ĠA n
' ve
Ġs omet
Ġs er
h ip
Ġr un
Ġ :
Ġt er
ire ct
Ġf ollow
Ġd et
ic es
Ġf ind
1 2
Ġm em
Ġc r
e red
e x
Ġex t
ut h
en se
c o
Ġte am
v ing
ou se
as h
at t
v ed
Ġsy stem
ĠA s
d er
iv es
m in
Ġle ad
ĠB l
c ent
Ġa round
Ġgo vern
Ġc ur
vel op
an y
Ġc our
al th
ag es
iz e
Ġc ar
od e
Ġl aw
Ġre ad
' m
c on
Ġre al
Ġsupp ort
Ġ1 2
.. ..
Ġre ally
n ess
Ġf act
Ġd ay
Ġb oth
y ing
Ġs erv
ĠF or
Ġth ree
Ġw om
Ġm ed
od y
ĠThe y
5 0
Ġex per
t on
Ġe ach
ak es
Ġc he
Ġc re
in es
Ġre p
1 9
g g
ill ion
Ġg rou
ut e
i k
W e
g et
E R
Ġm et
Ġs ays
o x
Ġd uring
er n
iz ed
a red
Ġf am
ic ally
Ġha pp
ĠI s
Ġch ar
m ed
v ent
Ġg ener
i ent
p le
i et
re nt
1 1
v es
pt ion
Ġ2 0
form ation
Ġc or
Ġoff ic
ie ld
Ġto o
is ion
Ġin f
Ġ Z
t he
o ad
Ġp ublic
Ġpro g
r ic
* *
Ġw ar
Ġp ower
v iew
Ġf ew
Ġl oc
Ġdiffere nt
Ġst ate
Ġhe ad
' ll
Ġp oss
Ġst at
re t
ant s
Ġv al
Ġis s
Ġc le
i vers
an c
Ġex pl
Ġan other
Ġ Q
Ġa v
th ing
n ce
W h
Ġch ild
Ġs ince
i red
l ess
Ġl ife
Ġde velop
itt le
Ġde p
Ġp ass
ã ĥ
Ġt urn
or n
Th is
b ers
ro ss
ĠA d
Ġf r
Ġres p
Ġsec ond
o h
Ġ /
Ġdis c
Ġ &
Ġsomet hing
Ġcomp le
Ġ ed
Ġf il
Ġmon th
a j
u c
Ġgovern ment
Ġwith out
Ġle g
Ġd ist
Ġp ut
Ġqu est
an n
Ġpro t
2 0
Ġne ver
i ence
Ġle vel
Ġar t
Ġth ings
Ġm ight
Ġeff ect
Ġcont ro
Ġc ent
Ġ1 8
Ġall ow
Ġbel ie
ch ool
ot t
Ġinc re
Ġfe el
Ġres ult
Ġl ot
Ġf un
ot e
Ġt y
ere st
Ġcont in
Ġus ing
Ġb ig
2 01
Ġas k
Ġb est
Ġ )
I N
Ġo pp
3 0
Ġnum ber
in ess
S t
le ase
Ġc a
Ġm ust
Ġd irect
Ġg l
Ġ <
Ġop en
Ġp ost
Ġcom e
Ġse em
ord ing
Ġwe ek
ate ly
it al
Ġe l
ri end
Ġf ar
Ġt ra
in al
Ġp ri
ĠU S
Ġpl ace
Ġfor m
Ġto ld
" :
ain s
at ure
ĠTr ump
Ġst and
Ġ #
id er
ĠF r
Ġne xt
Ġs oc
Ġp ur
Ġle t
Ġl ittle
Ġh um
Ġ i
r on
1 5
Ġ1 5
Ġcomm un
Ġm ark
ĠThe re
Ġw r
ĠTh at
Ġin formation
w ays
Ġb us
a pp
Ġinv est
m e
Ġh ard
ain ed
e ad
Ġim port
Ġapp ro
Ġt est
Ġt ri
Ġre st
os ed
Ġf ull
Ġc are
ĠS p
Ġc ase
O N
Ġs k
Ġl ess
Ġ +
Ġpart ic
ĠP l
ab ly
u ck
is hed
ch n
b e
Ġl ist
at or
Ġto p
Ġad v
ĠB e
ru ct
Ġd em
r ation
l ing
g y
re en
g er
Ġh ome
Ġle ft
Ġbet ter
Ġd ata
Ġ1 1
Ġatt ack
Ġpro ble
l ine
ard s
Ġbe h
r al
ĠH ow
ĠS he
ar ge
Ġ --
: //
Ġb ro
ĠP h
at s
Ġbu ild
w w
id ed
a im
as es
en cy
Ġm ain
in ed
Ġinclud ing
Ġ {
Ġg ot
Ġint erest
Ġke ep
Ġ X
Ġe as
ain ing
Ġcl ass
âĢ ¦
ĠN o
Ġv ar
Ġsm all
amp le
A T
Ġ ide
ĠS o
Ġre ce
Ġpol it
Ġm ov
Ġpl an
Ġper cent
iv ing
Ġc amp
Ġp ay
1 4
s c
is ed
Ġu nt
one y
pl oy
== ==
Ġdid n
ĠI nd
el s
ert ain
Ġp os
__ __
i ver
Ġpro cess
Ġprog ram
if ied
ĠR ep
1 6
u ro
olog y
at ter
in a
Ġn ame
ĠA ll
Ġf our
Ġret urn
v ious
b s
Ġcall ed
Ġm ove
ĠS c
ir d
Ġgrou p
Ġb re
Ġm en
Ġc ap
t en
e e
Ġd ri
le g
he re
uth or
Ġp at
Ġcur rent
id es
Ġp op
t o
ent ion
Ġal ways
Ġm il
Ġwom en
Ġ1 6
Ġo ld
iv en
ra ph
ĠO r
r or
ent ly
Ġn ear
ĠE x
re am
s h
Ġ1 4
Ġf ree
iss ion
st and
ĠC on
al ity
us ed
1 3
Ġdes ign
Ġch ange
Ġch ang
Ġb o
Ġv is
em ber
Ġb ook
read y
Ġk ill
2 5
pp ed
Ġa way
Ġab le
Ġcount ry
Ġcon st
ar n
Ġor der
A R
i or
i um
or th
1 8
ail able
Ġs w
Ġm illion
Ġ1 3
at ic
t ed
ĠG o
Ġo per
en g
Ġth ing
aj or
con om
ĠCom m
Ġwh y
u red
ur al
Ġs chool
b y
ĠM ar
Ġa ff
Ġd ays
Ġan n
us h
an e
I f
e g
Ġpro f
Ġhe alth
ou th
B ut
ion al
. ,
Ġs ol
Ġal ready
Ġ3 0
Ġchar act
H e
Ġf riend
E S
i ans
ic le
' d
ĠO n
Ġle ast
Ġp rom
Ġd r
Ġh ist
it her
Ġ est
i qu
1 7
s on
Ġte ll
Ġt alk
oh n
o int
le ction
A N
Ġunt il
au gh
Ġl ater
Ġ ve
Ġv iew
end ing
iv ed
Ġwor d
w are
Ġc ost
Ġen ough
Ġg ive
ĠUn ited
Ġte chn
are nt
O R
Ġp ar
ĠD r
Ġ201 6
r ist
er ing
Ġ Â
Ġl arge
s ide
ac y
cc ess
Ġw in
Ġimport ant
Ġ19 9
Ġdoes n
Ġ1 7
Ġbus iness
Ġcle ar
Ġre se
" ,
ur y
Ġe qu
as ter
al f
ĠAmeric an
n ect
Ġex pect
ivers ity
Ġo cc
ĠF l
Ġk ind
Ġme an
Ġp ast
Ġde v
Ġb as
le t
ra ft
Ġor gan
Ġde l
Ġper form
Ġst ory
Ġse ason
ĠC ol
Ġcl aim
Ġc ame
Ġwith in
Ġl ine
Ġpro ject
ĠA t
Ġcontro l
end ed
ĠS y
Ġa ir
iz ation
Ġ *
le y
Ġm oney
id d
Y ou
f or
Ġfam ily
Ġm aking
Ġb it
Ġpol ice
Ġhapp en
Ġ vers
on y
u ff
ĠW hen
Ġs it
ide o
l f
is on
Ġsu re
g in
Ġapp ear
Ġl ight
Ġ es
o f
Ġw ater
Ġt imes
n ot
Ġg row
Ġcomp any
ĠT e
ow s
Ġm ar
our ce
i ol
ar m
b r
Ġex ample
Ġcon c
Ġf ore
ĠT o
p ro
E N
ri es
Ġ2 5
ĠC an
ne y
Ġact ually
Ġe ver
ur ity
ak en
ap s
Ġt ax
Ġm ajor
am a
Ġof ten
er al
Ġhum an
Ġj ob
is ter
Ġav ailable
oc r
en n
a id
iv id
Ġrec ord
? "
Ġs ing
ĠA m
id ence
Ġnew s
st er
Ġe conom
Ġfollow ing
ĠB r
is ing
Ġh our
m ost
um ent
Ġse x
Ġdes c
Ġbec ome
ĠE d
Ġto ok
Ġha ving
Ġprodu ct
a ult
A s
ar ing
Ġme ans
Ġh op
un e
Ġch o
Ġc ertain
Ġn on
Ġde al
2 4
le ment
oc i
en e
Ġs ide
ĠP r
ĠM ay
Ġre ason
u ed
c hed
ul ation
Ġe lect
Ġoffic ial
Ġposs ible
Ġh old
and s
ot s
Ġc ity
or ies
Ġse ver
Ġchild ren
Ġon ce
Ġact iv
l er
Ġn ight
it ions
ĠJ ohn
a pe
pl ay
Ġd one
Ġl im
Ġwork ing
ĠP res
or ld
e b
ĠC o
Ġb ody
ail s
ut es
ĠM r
Ġwhe ther
Ġa uthor
ro p
Ġpro per
Ġse en
) ;
Ġf ac
ĠS u
Ġcon d
it ing
Ġcour se
Ġ }
-------- --------
a ign
Ġev ent
Ġen g
Ġp ot
Ġin tern
i am
Ġsh ort
em pt
ã Ĥ
ĠG od
il ar
8 0
Ġor ig
I S
our n
ab ility
it ive
Ġd am
Ġ1 00
Ġp ress
Ġdo ing
Ġprot ect
r ing
Ġthough t
Ġquest ion
re w
ĠW ar
Ġsever al
ĠSt ate
Ġg iven
Ġf und
ĠT w
Ġw ent
an ces
w ork
p or
m y
4 0
Ġar g
art ment
ust om
Ġpol ic
Ġme et
Ġc reat
2 2
ĠSt ates
Ġg ames
ra w
ut ure
Ġunder stand
ur s
ĠO b
l ish
s y
Ġm akes
Ġw on
ag on
Ġh tt
Ġl ove
ent ial
Ġcomple te
p ar
ĠI m
A L
Ġacc ount
Â ł
ore d
ver t
Ġ ident
Ġ201 5
Ġother s
ĠM in
i ber
ver age
The re
ition al
d d
Ġpro b
Ġyou ng
Ġal ong
Ġacc ording
Ġy et
Ġmem bers
ĠWh at
o id
ĠM an
A nd
Ġam ong
a i
Ġem ploy
ĠR es
Ġ >
Ġinv ol
Ġl ow
a f
ĠC ar
Ġh ig
ĠO ne
ĠS ec
in ation
Ġlike ly
Ġan t
ag ed
ĠR uss
Ġb en
Ġre le
F or
b ack
ĠN ot
Ġpres ident
b all
Ġacc ess
ivid ual
ĠD em
ĠE uro
6 0
Ġkn own
ir l
ĠG r
Ġear ly
u se
iet y
âĢ ĵ
Ġf ight
Ġs ent
Ġto day
Ġmark et
" .
Ġb ased
Ġstr ong
ur ther
Ġde b
m ber
Ġproble m
Ġde ath
Ġsoc ial
im ate
A S
ort un
Ġcamp aign
er y
C h
Ġe y
i ally
Ġm us
w h
p os
Ġ er
Ġsa f
Ġmonth s
ir on
Ġv iol
Ġf ive
Ġst re
Ġplay ers
in c
al d
y ear
a un
Ġsu ccess
Ġpres ent
ere nce
Ġ201 4
Ġsu gg
Ġpartic ular
Ġtr y
Ġsugg est
ĠCh rist
on es
Ġpri v
2 3
Ġc rit
Ġl and
Ġloc al
if y
2 9
Ġa ut
E D
ĠG u
Ġm ult
Ġpolit ical
Ġask ed
Ġfor mer
it ter
ri pt
Ġcl ose
Ġp ract
ĠY ork
Ġget ting
Ġac ross
Ġcom b
Ġbelie ve
Ġ z
Ġto get
Ġtoget her
ĠC ent
ir c
Ġind ividual
ĠM c
2 7
is k
ĠE ng
Ġf ace
Ġ2 4
Ġval ue
Ġare a
e v
Ġw rit
ĠPres ident
Ġv ot
Ġke y
Ġm om
p ut
Ġany thing
Ġexper ience
att le
Ġm ind
a ff
om m
Ġf uture
g ed
Ġc ut
Ġto t
it ch
Ġv ideo
Ġinvest ig
Ġn et
ĠM y
r ict
i en
. )
Ġimp ro
th ough
ward s
Ġcon nect
ĠM ed
sel ves
ens ive
m b
o ber
at ors
A n
Ġ5 0
Ġre du
res ent
Ġab ove
Ġf re
ĠEuro pe
s w
Ġam ount
ĠA pp
Ġe ither
Ġmil it
Ġan al
Ġf ail
ĠE n
al es
Ġspec ial
Ġbl ack
I T
c her
Ġlook ing
Ġf ire
y n
Ġal most
o on
Ġstud y
Ġm iss
c hes
ro wn
Ġt re
Ġcommun ity
Ġmed ia
Ġf ood
Ġcom es
ĠUn iversity
Ġsing le
Wh at
u ly
Ġh alf
ag ue
h od
ĠRep ublic
Ġstart ed
Ġqu ick
ot o
b ook
Ġiss ue
it or
Ġel se
Ġcons ider
2 6
ro du
Ġt aken
2 8
9 9
ĠW ith
Ġtr ue
Ġw a
Ġtr ad
Ġag o
Ġm ess
ie f
Ġadd ed
o ke
Ġb ad
Ġf av
3 3
Ġsim ilar
as k
ĠD on
Ġcharact er
ort s
ĠH ouse
Ġreport ed
Ġty pe
v al
i od
ĠHow ever
Ġt arg
Ġent ire
pp ing
Ġhist ory
Ġl ive
ff ic
.... ....
ed eral
Ġtr ying
Ġdisc uss
ĠH ar
ac es
l ished
Ġse lf
os p
re st
Ġro om
el t
Ġf all
ol ution
Ġe t
Ġ x
Ġis n
Ġide a
b o
Ġs ound
ĠD ep
Ġsome one
ci ally
ull y
Ġf oc
Ġob ject
if t
ap er
Ġplay er
Ġr ather
Ġserv ice
as hing
ĠD o
ĠP art
ru g
m on
p ly
Ġm or
Ġnot hing
Ġprov ide
I C
un g
Ġpart y
Ġex ist
Ġm ag
7 0
Ġr ul
Ġh ouse
Ġbeh ind
Ġhow ever
ĠW orld
Ġs um
Ġapp lic
Ġ ;
Ġfun ction
g r
ĠP ol
Ġfr ont
2 00
Ġser ies
Ġt em
Ġty p
ill s
Ġo pt
Ġpoint s
Ġbel ow
itt ed
Ġspec ific
Ġ201 7
um b
Ġr a
Ġpre vious
Ġpre t
re me
Ġc ustom
Ġcour t
ĠM e
Ġre pl
Ġwho le
g o
c er
Ġt reat
ĠA ct
Ġprob ably
Ġle arn
end er
ĠA ss
Ġvers ion
n ow
Ġche ck
ĠC al
R E
min ist
O n
our ces
Ġben ef
Ġd oc
Ġdet er
Ġen c
Ġsu per
Ġadd ress
Ġv ict
Ġ201 3
Ġme as
t r
Ġf ield
W hen
Ġsign ific
u ge
Ġfe at
Ġcomm on
l oad
Ġbe gin
Ġbr ing
Ġa ction
er man
Ġdesc rib
Ġind ust
Ġwant ed
ri ed
m ing
Ġatt empt
4 5
f er
Ġd ue
ress ion
# #
Ġsh all
Ġs ix
o o
Ġst ep
Ġp ub
Ġhim self
Ġ2 3
Ġc op
Ġd est
Ġst op
A C
ib ility
Ġl ab
ic ult
Ġhour s
Ġcre ate
Ġf urther
ĠAmeric a
ĠC ity
Ġd ou
he ad
S T
ĠN orth
c ing
Ġn ational
u le
ĠIn st
Ġt aking
ĠQ u
ir t
Ġre d
Ġrese arch
v iron
ĠG e
Ġbre ak
an a
Ġsp ace
ater ial
Ġrec ent
ĠA b
Ġgener al
Ġh it
Ġper iod
Ġevery thing
ive ly
Ġph ys
Ġsay ing
an ks
Ġc ou
Ġc ult
ac ed
e al
u ation
Ġc oun
l u
Ġinclud e
Ġpos ition
ĠA fter
ĠCan ad
ĠE m
Ġim m
ĠR ed
Ġp ick
Ġcom pl
Ġm atter
re g
e xt
ang u
is c
o le
a ut
Ġcomp et
e ed
f ect
Ġ2 1
ĠS en
ĠThe se
as ing
Ġcan not
Ġin it
Ġrel ations
ac hed
Ġb ar
Ġ4 0
ĠT H
Ġ201 2
Ġv ol
Ġg round
Ġsec urity
Ġup d
il t
3 5
Ġconc ern
ĠJ ust
Ġwh ite
Ġseem s
ĠH er
pe cially
i ents
Ġann oun
Ġf ig
ight s
Ġst ri
l ike
id s
Ġs us
Ġw atch
Ġ â
Ġw ind
ĠC ont
Ġit self
Ġm ass
A l
y le
iqu e
ĠN ational
Ġab s
Ġp ack
Ġout side
Ġan im
Ġp ain
et er
Ġman ag
du ct
og n
Ġ ]
ĠSe pt
se c
o ff
ĠJ an
Ġf oot
ad es
Ġth ird
Ġm ot
Ġev idence
int on
Ġth reat
a pt
pl es
c le
Ġl o
Ġde cl
Ġit em
med i
Ġrep resent
om b
am er
Ġsignific ant
og raph
s u
Ġc al
i res
00 00
I D
A M
Ġsim ply
Ġlong er
Ġf ile
O T
c he
S o
ate g
or g
ĠH is
Ġen er
Ġd om
Ġup on
il i
": "
Ġthem selves
Ġcom ing
Ġqu ite
Ġdiff icult
ĠB ar
il ities
re l
end s
c ial
6 4
Ġwom an
ra p
y r
Ġne cess
ip s
Ġte xt
Ġrequ ire
Ġmilit ary
Ġre view
Ġresp ons
7 5
Ġsub ject
Ġinst ead
Ġiss ues
Ġg en
" ,"
Ġmin utes
Ġwe ap
r ay
am ed
t ime
b l
H ow
Ġc ode
ĠS m
Ġhig her
ĠSt e
r is
Ġp age
Ġstud ents
ĠIn tern
Ġmet hod
ĠA ug
ĠP er
ĠA g
Ġpolic y
ĠS w
Ġex ec
Ġac cept
um e
rib ut
Ġword s
Ġfin al
Ġchang es
ĠDem ocr
Ġfriend s
Ġres pect
Ġe p
Ġcomp an
iv il
Ġdam age
** **
og le
viron ment
Ġne g
ent al
Ġa p
Ġtot al
iv al
! "
l im
Ġneed s
Ġag re
Ġdevelop ment
Ġa ge
ip le
2 1
Ġresult s
ĠA f
S h
Ġg un
ĠOb ama
ro ll
Ġ @
Ġright s
ĠB rit
Ġrun ning
Ġwas n
Ġp ort
Ġr ate
Ġpret ty
Ġtarg et
Ġsa w
Ġc irc
Ġwor ks
ic ro
al t
o ver
ww w
Th at
l ier
Ġevery one
ud e
Ġp ie
idd le
ra el
Ġr ad
Ġbl ock
Ġw alk
T o
ã ģ
n es
ĠA ust
a ul
ro te
ĠS outh
ess ion
op h
Ġshow s
Ġs ite
Ġj o
Ġr isk
cl us
l t
Ġin j
id ing
ĠS pe
Ġch all
ir m
Ġ2 2
itt ing
st r
Ġh y
L E
ke y
Ġbe gan
at ur
ashing ton
l am
ĠD av
b it
Ġs ize
ĠP ar
3 8
ourn al
f ace
Ġdec ision
Ġl arg
Ġj ud
re ct
Ġcontin ue
ĠO ct
ove red
ĠI nt
==== ====
Ġp arent
ĠW ill
Ġeas y
Ġd rug
ang er
Ġs ense
Ġd i
id ay
Ġener gy
ist ic
Ġass oci
ar ter
ob al
e ks
ĠE l
ur ch
Ġg irl
o e
it le
Ġ2 8
ĠC he
Ġrequ est
Ġso on
Ġh ost
k y
Ġst ates
om es
Ġm aterial
le x
Ġmom ent
Ġan sw
on se
Ġes pecially
Ġn orm
Ġserv ices
p ite
r an
Ġro le
4 4
) :
Ġc red
C l
____ ____
Ġm at
Ġl og
ĠCl inton
O U
Ġoff ice
Ġ2 6
Ġch arg
Ġtr ack
m a
Ġhe art
Ġb all
Ġperson al
Ġbuild ing
n a
s et
b ody
ĠBl ack
Ġincre ase
itt en
Ġneed ed
3 6
3 2
= "
Ġl ost
Ġbec ame
Ġgrou ps
ĠM us
Ġw rote
ĠP e
Ġpro p
j oy
Ã ©
ĠWh ite
Ġde ad
. '
Ġhtt p
Ġwe bs
O S
Ġins ide
Ġwr ong
Ġstat ement
Ġ ...
y l
Ġfil m
Ġmus ic
Ġsh are
ific ation
Ġre lease
Ġfor ward
Ġst ay
Ġcomp ut
it te
s er
Ġorig inal
Ġc ard
Ġc and
Ġd iv
at ural
Ġfav or
O M
Ġc ases
us es
Ġse ction
Ġle ave
g ing
ov ed
ĠW ashington
3 9
ĠG l
Ġrequ ired
act ion
ap an
o or
it er
ĠK ing
Ġcount ries
ĠG erman
ll ing
Ġ2 7
3 4
Ġquest ions
Ġpr im
Ġc ell
Ġsh oot
Ġany one
ĠW est
Ġaff ect
ep end
Ġon line
ĠIs rael
ĠSept ember
Ġab ility
Ġcont ent
is es
Ġre ve
Ġl aun
Ġind ic
Ġfor ce
c ast
Ġso ld
av ing
f l
Ġso ft
Ġcompan ies
ce ed
Ġart icle
Ġa ud
Ġre v
Ġed uc
Ġplay ing
0 5
Ġhe ld
ct or
Ġrele ased
Ġf ederal
3 7
Ġad minist
Ġinter view
Ġinst all
Ġrece ived
Ġs ource
u k
P h
Ġser ious
Ġcre ated
Ġc ause
Ġim medi
Ġdef in
u el
ĠDep artment
ct ions
ĠC our
ĠN ow
z e
it es
it ution
Ġl ate
Ġspe ak
n ers
Ġleg al
ar i
ĠC or
Ġwe eks
Ġmod el
Ġp red
Ġex act
B C
ĠB y
IN G
os ing
Ġt akes
Ġreg ard
Ġopp ortun
Ġpr ice
Ġ19 8
ĠA pr
f ully
Ġor d
Ġproble ms
ru ction
h am
ĠC ount
le ge
Ġlead ers
E T
le v
Ġde ep
olog ical
es e
h aps
ĠS ome
Ġp ers
Ġcont ract
Ġrelations hip
s p
ou d
Ġb ase
4 8
m it
A d
anc ial
Ġcons um
Ġpot ential
Ġl angu
re m
et h
Ġrel ig
ress ed
6 6
Ġl ink
Ġl ower
ay er
ĠJ une
Ġf em
un t
er c
ur d
Ġcont act
Ġ ill
Ġm other
Ġest ab
h tt
ĠM arch
ĠB ro
ĠCh ina
Ġ2 9
Ġs qu
Ġprov ided
Ġa verage
as ons
Ġ201 1
Ġex am
l in
5 5
n ed
Ġper fect
Ġt ou
al se
u x
Ġbu y
Ġsh ot
Ġcol lect
Ġph ot
Ġplay ed
Ġsur pr
Ġofficial s
Ġsim ple
av y
Ġindust ry
Ġhand s
g round
Ġp ull
Ġr ound
Ġus er
Ġr ange
u ary
Ġpriv ate
op s
e es
Ġw ays
ĠM ich
Ġve h
Ġex cept
Ġter ms
im um
pp er
I ON
ore s
ĠDr agon
ou l
Ġd en
Ġperform ance
Ġb ill
c il
4 7
Ġen vironment
Ġex c
ad d
Ġwor th
Ġp ict
Ġch ance
Ġ201 8
b or
Ġspe ed
ict ion
Ġal leg
ĠJ apan
at ory
re et
Ġm atch
ĠI I
Ġst ru
ord er
Ġst e
Ġl iving
Ġst ruct
in o
Ġse par
her n
Ġresp onse
Ġen joy
Ġv ia
A D
um ents
ace book
Ġmem ber
ib r
iz ing
Ġto ol
ĠM on
ĠWh ile
h ood
ĠA ng
ĠD ef
Ġoff er
T r
a ur
Ġturn ed
ĠJ uly
d own
an ced
Ġrec ently
ĠE ar
Ġc e
ĠSt ar
ĠC ong
rough t
Ġbl ood
Ġhop e
Ġcom ment
ain t
Ġar ri
il es
Ġpartic ip
ough t
ri ption
0 8
4 9
Ġg ave
Ġse lect
Ġkill ed
sy ch
Ġgo es
i j
Ġc oll
Ġimp act
at ives
ĠS er
0 9
ĠAug ust
Ġb oy
d e
ĠD es
Ġf elt
U S
Ġexpect ed
Ġim age
ĠM ark
cc ording
o ice
E C
ĠM ag
en ed
h old
ĠP ost
Ġpre vent
N o
Ġinvol ved
Ġey es
Ġquick ly
A t
un k
Ġbeh av
Ġ ur
Ġl ed
c ome
e y
Ġcand id
Ġear lier
Ġfoc us
et y
P ro
led ge
ix ed
ill ed
Ġpop ular
A P
Ġset t
l ight
Ġvar ious
in ks
Ġlevel s
Ġro ad
ell ig
ab les
he l
itte e
ĠG ener
y pe
Ġhe ard
ic les
Ġm is
Ġus ers
ĠS an
Ġimpro ve
Ġf ather
Ġse arch
The y
v il
Ġprof ess
Ġkn ew
Ġl oss
Ġev ents
6 5
Ġb illion
0 7
0 2
ĠNew s
ĠA M
Ġco ver
w here
ens ion
Ġb ott
Ġare as
en ces
op e
ĠTw itter
a el
Ġget s
ĠGo ogle
Ġs n
i ant
Ġv ote
Ġnear ly
Ġinclud ed
Ġrec ogn
z z
m m
al ed
Ġhappen ed
0 4
Ġh ot
Ġwho se
Ġc ivil
Ġsu ff
o es
it iz
ĠSy ri
Ġresp ond
Ġh on
Ġfeat ures
Ġeconom ic
ĠApr il
r im
Ġtechn ology
Ġo ption
ag ing
Ġpur ch
R e
Ġl at
ch ie
is l
Ġrec omm
u f
Ġtr aining
Ġeffect s
Ġf ast
Ġ201 0
Ġocc ur
Ġwebs ite
Ġem ail
Ġs ens
e ch
Ġo il
Ġinf lu
Ġcurrent ly
ĠS ch
ĠAd d
Ġgo al
Ġsc ient
Ġcon v
1 00
em y
Ġdec ided
Ġtra vel
Ġm ention
L L
0 3
Ġe lection
Ġph one
Ġlook s
Ġsit uation
Ġc y
Ġh or
b ed
ĠCour t
a ily
av es
Ġqu ality
ĠCom p
w ise
Ġt able
Ġst aff
ĠW ind
et t
Ġtri ed
ide red
Ġadd ition
Ġb ox
Ġl ack
ar ily
Ġw ide
Ġm id
Ġbo ard
ys is
Ġant i
h a
Ġd ig
en ing
Ġd ro
C on
6 8
Ġsl ow
b ased
se qu
Ġp ath
E x
ak er
Ġwork ed
Ġp en
Ġeng ine
Ġlook ed
ĠSu per
ĠS erv
Ġvict im
U n
Ġproper ty
Ġint rodu
Ġexec ut
ĠP M
L e
Ġcol or
ĠM ore
Ġ6 0
Ġnet work
Ġd ate
c ul
id ge
Ġext ra
3 1
Ġs le
6 7
Ġw ond
Ġreport s
j ust
ĠAust ral
Ġcap ital
Ġen s
Ġcomm and
Ġallow ed
Ġpre p
Ġca pt
h ib
Ġnum bers
ch an
Ġf air
m p
om s
Ġre ach
W ith
t ain
Ġbro ad
Ġcou ple
ec ause
ly ing
ĠF eb
Ġsc reen
Ġl ives
Ġpri or
ĠCong ress
A r
Ġappro ach
Ġe mer
ar ies
ĠD is
s erv
ĠN e
Ġbu ilt
c ies
Ġre pe
Ġrul es
for ce
ĠP al
Ġfin ancial
Ġcons idered
ĠCh ar
n ces
ĠI S
Ġb rought
Ġb i
i ers
ĠS im
O P
Ġproduct s
Ġvis it
Ġdoc ument
Ġcon duct
Ġcomplete ly
in ing
ĠCal if
ib ly
Ġwr itten
ĠT V
em ents
Ġd raw
O ne
Ġpub lished
Ġsec ret
r ain
he t
ĠF acebook
ond ay
ĠU p
Ġsex ual
Ġth ous
ĠP at
Ġ ess
Ġstand ard
Ġar m
g es
ect ion
Ġf ell
Ġfore ign
an i
ĠFr iday
Ġreg ular
in ary
Ġincre ased
Ġus ually
Ġdem on
Ġd ark
Ġadd itional
ro l
ĠO f
Ġprodu ction
! !
und red
Ġintern ational
id ents
ĠF ree
rou p
Ġr ace
Ġm ach
Ġh uge
A ll
le ar
ove mber
Ġto wn
Ġatt ention
ĠO ff
y ond
ĠThe n
f ield
Ġter ror
ra z
ĠB o
Ġmeet ing
ĠP ark
Ġar rest
Ġf ear
Ġa w
ĠV al
or ing
' ,
Ġext reme
ar r
Ġwork ers
A fter
Ġ3 1
n et
am ent
Ġdirect ly
Ġpop ulation
ub e
ĠOct ober
ĠI N
ĠJan uary
5 9
ĠDav id
Ġc ross
ce mber
ĠF irst
Ġmess age
ir it
Ġn ation
Ġp oll
is ions
Ġansw er
n y
is ode
Ġcar ry
ĠRuss ia
Ġhe ar
eng th
ro y
Ġn atural
in ally
Ġdo g
m itted
Ġtr ade
Ġsub st
Ġmult iple
ĠAf ric
Ġf ans
Ġs ort
Ġgl obal
ic ation
ĠW ed
ar a
Ġa chie
Ġlangu age
ve y
Ġt al
Ġnecess ary
Ġdet ails
Ġs en
ĠS und
ĠRe g
ĠR ec
0 6
Ġs il
ress ive
Ġmed ical
un ch
orn ia
Ġu nd
f ort
oc ks
ĠM onday
ues day
c raft
7 7
ur t
Ġ ver
ĠH ill
Ġrece ive
Ġmor ning
es tern
Ġb ank
Ġs at
ir th
ĠH igh
Ġdev ice
ĠTH E
ĠCent er
Ġsaf e
Ġp le
ĠCanad a
Ġsystem s
Ġass ist
Ġsur v
Ġb attle
ĠS oc
vert is
S he
Ġp aper
Ġgrow th
Ġc ast
S c
Ġpl ans
ll ed
Ġpart s
Ġw all
Ġmove ment
Ġpract ice
im ately
Ġdis play
Ġsomet imes
om p
ĠP aul
ĠY es
k ing
5 8
o ly
Ġs on
Ġav oid
ok es
ĠJ ew
Ġto wards
as c
Ġ //
ĠK ore
Ġtalk ing
Ġcor rect
Ġsp ent
ic ks
i able
e ared
Ġter m
Ġwant s
om ing
Ġ ut
Ġdou b
Ġfor ces
Ġp lease
6 9
ĠN ovember
at form
ond on
Ġon es
Ġimmedi ately
ĠRuss ian
ĠM et
Ġde g
Ġparent s
C H
ĠAmeric ans
al y
ĠM od
Ġsh own
Ġcond itions
Ġst uff
Ġre b
ĠY our
Ġinclud es
n own
ĠS am
Ġexper ien
m ission
ĠE ven
augh t
Ġannoun ced
ĠRepublic an
Ġdeter min
Ġdescrib ed
ĠCount y
( )
Ġdo or
Ġchang ed
Ġne igh
ĠH ere
Ġcle an
Ġp an
ĠDe cember
ĠEurope an
ir ing
ap ter
Ġcl ub
ĠT uesday
Ġp aid
ĠN et
Ġattack s
Ġcharact ers
Ġal one
Ġdirect or
d om
Ġ3 5
Ġl oad
Ġr out
ĠCalif ornia
Ġfin ally
Ġr ac
Ġcont r
Ġexact ly
res h
p ri
ĠIs lam
Ġn ature
Ġcare er
Ġlat est
Ġcon vers
ĠS l
p ose
ci ent
ĠIn c
iv ity
8 8
ĠA tt
ĠM or
nes day
Ġwe ight
k en
Ġnot e
Ġteam s
Ġ \
air s
ĠG reen
Ġh undred
on ent
Ġstre ng
Ġcons ist
ic ated
Ġreg ul
Ġl ic
ast ic
Ġt en
urs day
ellig ence
ous ly
ĠU K
B I
Ġcost s
Ġind epend
ĠA P
Ġnorm al
Ġh om
Ġob vious
Ġs we
Ġst ar
Ġread y
ac her
Ġimp lement
g est
Ġs ong
ĠG et
ĠL ab
Ġinterest ing
us ing
Ġg iving
ĠSund ay
Ġet c
Ġm iddle
Ġrem ember
r ight
os ition
ut ions
Ġm ax
4 6
Ġyour self
Ġdem and
Ġtreat ment
Ġd anger
ĠC ons
Ġgu y
ĠBrit ish
Ġphys ical
Ġrel ated
Ġrem ain
Ġcould n
Ġref er
Ġc itiz
b ox
EN T
bo ard
Ġin n
I G
er o
ĠSt reet
osp ital
ren ch
cher s
Ġst ra
O L
ag er
ĠA N
Ġeas ily
I A
en ge
in y
Ġcl os
ock ed
Ġus es
ĠC oun
I m
u ild
? ?
m ore
Ġan g
Ġwr ite
ol ute
5 7
Ġlead er
Ġread ing
< /
Ġaut om
est s
4 3
Ġleg isl
ĠG old
Ġdesign ed
ĠS T
ĠLe g
a res
Ġbe aut
ĠT ex
Ġappear s
Ġstru gg
ĠR om
Ġ 00
Ġcho ice
Ġparticular ly
ĠF rom
op er
ĠL ondon
ann ed
Ġallow s
ob ile
Ġdiffere nce
âĢ ¢
ĠV iew
ĠWed nesday
Ġal though
Ġrel ative
Ġapplic ation
ate ver
Ġare n
Ġmy self
Ġim ag
Ġdis e
Ġsoc iety
Ġfre qu
ĠEng lish
Ġpo or
ĠD ay
Ġwrit ing
Ġse ven
Ġstart ing
Ġb ud
Ġpr int
ĠTr ans
uf act
ĠSt ud
n ew
Ġcr im
Ġg ives
Ġco ol
a e
i ance
ĠGener al
Ġthink ing
Ġsa ve
Ġlim ited
ĠPart y
Ġmean ing
p en
ow ers
ĠJ ack
E M
Ġn ice
ru pt
Ġg as
Ġe ight
Ġfe et
Ġeff ort
Ġ ign
ic it
B l
co in
Ġop in
Ġbr ain
Wh ile
he st
ĠTh ursday
Ġwould n
augh ter
Ġtou ch
le ments
Ġstud ies
Ġcent er
c ont
or ge
Ġcomput er
Ġinvestig ation
P l
or ks
Ġ200 8
Ġincre asing
Ġst ore
Ġcom ments
Ġb al
m en
Ġdo ll
Ġl iber
Ġw ife
Ġlaw s
atur day
it ness
Ġmod ern
ĠS k
Ġadminist ration
Ġopportun ity
Ġs al
Ġpower ful
M y
Ġclaim s
ĠEar th
ord s
Ġt itle
Ġes c
n ame
N ot
om en
Ġbe yond
Ġc amer
Ġse ll
it ute
ear ch
Ġapp l
im ent
4 2
ĠAr t
Ġun f
Ġviol ence
ur g
ĠE ast
Ġcomp ared
Ġopt ions
Ġthrough out
Ġv s
ig r
. [
ac hes
7 8
Ġfil es
F L
E L
ar ian
ĠJ ames
ĠA ir
an ch
Ġdet ail
Ġpie ce
P S
Ġn amed
Ġeduc ation
Ġdri ve
Ġitem s
Ġstud ent
ic ed
: :
ic o
Ġth row
Ġsc ene
Ġcomple x
Ġ200 9
Ġpre c
ĠB re
7 9
Ġcon cept
Ġstat us
am ing
Ġd ied
Ġknow ledge
Ġbegin ning
O D
ru ary
Ġcertain ly
Ġgu ys
Ġsl ight
in n
ound s
Ġf ine
Ġf at
ic ations
Ġper haps
ĠA nt
Ġinc ome
Ġhtt ps
Ġmajor ity
port s
st on
Ġgreat er
Ġfe ed
ent ially
Ġsaf ety
Ġun ique
and om
Ġg one
Ġshow ed
Ġhist or
Ġcoun ter
i us
id a
Ġlead ing
i pe
Ġs end
ĠDon ald
er ve
Ġdef ense
ines e
Ġy es
ĠF ire
ĠMus lim
ra q
Ġcontin ued
os h
Ġprov ides
Ġpr ison
ĠP re
Ġhapp y
Ġeconom y
Ġtr ust
ag s
ĠG ame
Ġweap ons
um an
ĠC le
it ation
Ġanal ysis
ĠT imes
Ġsc ience
- >
Ġfig ure
Ġdis app
ent y
Ġsoft ware
Ġu lt
Ġoffic ers
N ew
I s
Ġrem ains
ĠInd ia
Ġp sych
ri ef
Ġc at
es c
Ġob serv
Ġst age
ĠD ark
Ġent er
ch ange
Ġpass ed
Ġdes pite
ĠO ut
Ġmov ie
r s
Ġv oice
m ine
ĠPl ay
Ġto ward
ĠT er
Ġreg ion
Ġval ues
or ters
Ġm ount
Ġoffic er
ĠO ther
b an
Ġh ous
w ood
ro om
I V
ĠS un
se e
ĠO ver
ro g
9 0
Ġl ay
ĠT ur
a wn
Ġpress ure
ĠS ub
Ġbook s
ed om
ĠS and
A A
ag o
Ġre asons
f ord
Ġactiv ity
U T
N ow
ĠSen ate
ce ll
n ight
Ġcall s
in ter
Ġlet ter
ĠR ob
ĠJ e
Ġcho ose
ĠL aw
G et
B e
Ġro b
Ġtyp es
Ġpl atform
Ġqu arter
R A
ĠT ime
Ġmay be
ĠC r
9 5
p re
Ġmov ing
Ġl if
Ġgo ld
Ġs om
Ġpat ients
Ġtr uth
ĠK e
ur ance
ant ly
m ar
Ġchar ge
ĠG reat
Ġce le
---------------- ----------------
Ġro ck
ro id
an cy
Ġcred it
a ud
B y
ĠE very
Ġmov ed
ing er
rib ution
Ġn ames
Ġstra ight
ĠHe alth
ĠW ell
Ġfe ature
Ġr ule
Ġsc he
in ated
ĠMich ael
ber g
4 1
il ed
b and
Ġcl ick
ĠAng el
on ents
Â Ń
ĠI raq
ĠS aturday
Ġa ware
p art
Ġpat tern
O W
ĠL et
Ġgr ad
ign ed
Ġassoci ated
Ġst yle
n o
i ation
a ith
il ies
Ġst ories
ur ation
Ġindividual s
ĠâĢ ¦
m iss
ĠAss oci
ish ing
ab y
Ġsum mer
ĠB en
Ġ3 2
Ġar ch
ut y
ĠTex as
h ol
Ġfull y
Ġm ill
Ġfollow ed
ĠB ill
ĠInd ian
ĠSec ret
ĠB el
ĠFeb ruary
Ġjob s
Ġseem ed
ĠGo vern
i pped
Ġreal ity
Ġl ines
Ġp ark
Ġmeas ure
ĠO ur
I M
Ġbro ther
Ġgrow ing
Ġb an
Ġest im
Ġc ry
ĠS chool
Ġme chan
ĠO F
ĠWind ows
Ġr ates
ĠO h
Ġpos itive
Ġcult ure
ist ics
ic a
Ġh ar
y a
ite ly
i pp
Ġm ap
en cies
ĠWill iam
I I
ak ers
5 6
ĠM art
ĠR em
Ġal tern
it ude
Ġco ach
row d
D on
Ġk ids
Ġj ournal
Ġcor por
Ġf alse
Ġwe b
Ġsle ep
Ġcont ain
Ġst o
Ġb ed
iver se
ĠR ich
ĠCh inese
Ġp un
Ġme ant
k nown
Ġnot ice
Ġfavor ite
a ven
Ġcond ition
Ġpur pose
) )
Ġorgan ization
Ġchall eng
Ġman ufact
Ġsus p
ĠA c
Ġcrit ic
un es
uc lear
Ġm er
vent ion
Ġ8 0
Ġm ist
ĠU s
ĠT or
htt p
ol f
Ġlarg er
Ġadv ant
Ġrese ar
Ġact ions
m l
Ġke pt
Ġa im
, '
c ol
Ġbenef its
if ying
Ġact ual
ĠIntern ational
Ġveh icle
Ġch ief
Ġeff orts
ĠLe ague
ĠM ost
Ġwa it
Ġad ult
Ġover all
Ġspe ech
Ġhigh ly
Ġfem ale
Ġer ror
Ġeffect ive
5 4
Ġenc our
w ell
Ġfail ed
Ġcons erv
Ġprogram s
Ġt rou
Ġa head
5 00
vertis ement
I P
ĠF ound
p ir
Ġ %
Ġcr ime
and er
Ġloc ation
ĠI ran
Ġbehav ior
az ing
Ġr are
Ġem b
Ġca used
Ġsh ip
Ġact ive
Ġcont ribut
Ġg reen
Ġac qu
Ġref lect
ven ue
Ġf irm
Ġb irth
] .
Ġclear ly
Ġem ot
Ġag ency
ri age
Ġmem ory
9 8
S A
ĠSe e
ac ing
C C
Ġbig gest
Ġr ap
Ġbas ic
Ġb and
e at
Ġsus pect
ĠM ac
Ġ9 0
m ark
ist an
Ġsp read
am s
k i
as y
ra v
ĠR ober
Ġdemon str
r ated
Ġabs olute
Ġpl aces
Ġim pl
ibr ary
Ġc ards
Ġdest roy
Ġv irt
ve re
Ġapp eared
y an
p oint
Ġbe g
Ġtem per
s pe
ant ed
ear s
ĠD irect
Ġl ength
Ġbl og
am b
Ġint eg
Ġres ources
ac c
if ul
Ġsp ot
Ġfor ced
Ġthous ands
ĠMin ister
Ġqu al
ĠF rench
at ically
Ġgener ally
Ġdr ink
Ġth us
I L
od es
Ġappro pri
ĠRe ad
Ġwh om
Ġey e
Ġcol lege
Ġ4 5
ire ction
Ġens ure
Ġapp arent
id ers
Ġrelig ious
Ġmin or
ol ic
Ġt ro
ĠWh y
rib ute
m et
Ġprim ary
Ġdevelop ed
Ġpe ace
Ġsk in
st e
av a
Ġbl ue
Ġfam ilies
Ġ ir
Ġapp ly
Ġin form
ĠSm ith
C T
i i
Ġlim it
Ġres ist
........ ........
um n
Ġconf lic
Ġtw e
ud d
ĠT om
Ġl iter
qu e
b on
Ġha ir
Ġevent ually
Ġp us
Ġhelp ed
Ġag g
or ney
ĠApp le
Ġf it
ĠS ur
Ġpre m
Ġs ales
Ġsecond s
Ġstreng th
Ġfeel ing
¿ ½
Ġt our
Ġknow s
o om
Ġex erc
Ġsom ew
ï ¿½
> >
Ġsp okes
Ġide as
Ġreg ist
so ft
ĠD el
ĠP C
Ġpro pos
Ġlaun ch
Ġbott om
T H
ĠP lease
v est
it z
ĠIn ter
Ġsc ript
Ġr at
ar ning
Ġ il
ĠJ er
ĠA re
Ġwh atever
ok en
ci ence
Ġmod e
Ġag ree
Ġs ources
Ġinit ial
Ġrest rict
Ġwond er
us ion
## ##
ĠS il
vil le
Ġb urn
t w
as ion
ĠÂ £
Ġn or
u ing
Ġre ached
Ġs un
Ġc ateg
ig ration
Ġc ook
Ġprom ot
Ġm ale
Ġcl imate
Ġf ix
Ġalleg ed
U R
all ed
Ġim ages
C ont
ot a
Ġschool s
i os
Ġd rop
Ġst ream
ĠM o
Ġprevious ly
al ing
Ġp et
Ġdou ble
Ġ( @
ann el
Ġdef ault
t ies
Ġr ank
ĠD ec
ĠCoun cil
Ġweap on
Ġst ock
Ġanal y
ĠSt r
Ġpict ure
ĠPol ice
f erence
Ġcent ury
Ġcitiz ens
Ġon to
Ġexp and
Ġhe ro
ĠS ol
Ġw ild
Ġupd ate
Ġcustom ers
r ont
d ef
Ġl ik
Ġcrim inal
ĠChrist ian
S P
7 6
Ġle aving
Ġother wise
ĠD ist
Ġbas is
5 2
5 3
ic ip
ĠB er
Ġrecomm end
Ġfl oor
Ġc rowd
ol es
Ġ7 0
Ġcent ral
ĠE v
Ġd ream
Ġdown load
Ġconf ir
ĠTh om
Ġwind ow
Ġhapp ens
Ġun it
Ġt end
Ġs pl
Ġbec omes
Ġfight ing
Ġpred ict
ĠP ress
ĠP ower
Ġhe avy
ak ed
Ġf an
or ter
ate gy
B A
iz es
Ġsp end
H ere
Ġ200 7
Ġad op
ĠH am
Ġfoot ball
ĠP ort
od ay
5 1
amp ions
Ġtrans fer
h t
Ġ3 8
ter m
ac ity
Ġb ur
] ,
tern al
r ig
b ut
Ġthere fore
ĠB ecause
res p
re y
Ġm ission
S ome
Ġnot ed
Ġass um
Ġdise ase
Ġed it
Ġprog ress
r d
ĠB rown
oc al
Ġadd ing
Ġra ised
ĠAn y
Ġt ick
Ġsee ing
ĠPe ople
Ġagre ement
Ġser ver
Ġw at
Ġdeb ate
Ġsupp osed
il ing
Ġlarg est
Ġsuccess ful
ĠP ri
ĠDemocr atic
Ġj ump
ĠSyri a
Ġown ers
Ġoff ers
Ġshoot ing
Ġeff ic
se y
Ġha ven
ver se
te red
ĠL ight
im al
ĠB ig
Ġdef end
Ġbe at
Ġrecord s
% )
Ġsc en
Ġemploy ees
Ġdev ices
he m
Ġcom mer
ĠM ex
Ġbenef it
ĠPro f
Ġil leg
Ġsur face
ĠAl so
Ġh arm
ing ly
w ide
ĠA lex
Ġsh ut
ĠC ur
Ġl ose
p m
Ġchall enge
se mb
Ġst ation
Ġint elligence
Ġacc ur
ĠFl or
Ġrequ ires
ĠM al
b um
Ġh ospital
Ġsp irit
Ġoff ered
Ġprodu ce
ĠComm un
Ġcreat ing
Ġcr is
s pect
Ġend ed
Ġd aily
Ġvot ers
land s
i as
i h
on a
Ġsm art
ĠOff ice
ĠL ord
ri al
ĠIntern et
Ġcirc um
Ġextreme ly
' .
Ġopin ion
ĠM il
Ġg ain
B S
ĠF in
y p
Ġuse ful
Ġbud get
Ġcom fort
is f
Ġback ground
el ine
Ġep isode
Ġen emy
Ġtri al
Ġestab lish
d ate
ĠC ap
Ġcontin ues
Ġshow ing
ĠUn ion
w ith
Ġpost ed
ĠSy stem
Ġe at
ri an
Ġr ise
ĠGerman y
il s
Ġsign ed
Ġv ill
Ġgr and
m or
ĠEng land
Ġproject s
um ber
Ġconf erence
z a
Ġrespons ible
ĠAr ab
Ġlearn ed
âĢĶ âĢĶ
i pping
ĠGe orge
O C
Ġreturn ed
ĠAustral ia
Ġb rief
Q u
Ġbr and
ill ing
ab led
Ġhig hest
Ġtr ain
ĠComm ission
wh ile
Ġn om
cept ion
Ġm ut
ĠBl ue
Ġinc ident
v ant
8 6
ĠI D
Ġn uclear
7 4
ĠL ike
ĠR E
ĠM icro
l i
m ail
Ġcharg es
8 9
Ġad just
ad o
Ġear th
N A
Ġpr ices
P A
Ġd raft
Ġrun s
Ġcandid ate
ens es
Ġmanag ement
ĠPh il
ĠM iss
Ġte ach
g ram
Ġunderstand ing
a it
ic ago
A dd
ĠE p
sec ut
Ġsepar ate
Ġinst ance
Ġe th
Ġun less
**** ****
ĠF ore
in ate
Ġoper ations
S p
Ġf aith
g ar
ĠCh urch
ron ic
Ġconf ig
os ure
Ġactiv ities
Ġtrad itional
Ġ3 6
Ġd irection
Ġmach ine
Ġsur round
Ġp ush
un ction
ĠE U
Ġeas ier
Ġarg ument
G B
Ġm icro
Ġsp ending
iz ations
Ġthe ory
ad ow
Ġcall ing
ĠL ast
Ġd er
Ġinflu ence
Ġcomm it
Ġph oto
Ġun c
ist ry
g n
ast e
ack s
Ġdis p
ad y
d o
ĠG ood
Ġ `
Ġw ish
Ġreve aled
Âł Âł
l ig
Ġen force
ĠComm ittee
Ġche m
Ġmil es
Ġinterest ed
Ġsol ution
ic y
in ct
Ġ- >
ĠD et
Ġrem oved
Ġcomp ar
e ah
Ġpl ant
ĠS ince
Ġachie ve
Ġadvant age
Ġslight ly
b ing
Ġpl aced
u nder
201 5
ĠM ad
Ġt im
os es
Ġc ru
ĠR ock
Ġmost ly
Ġneg ative
Ġset ting
Ġprodu ced
Ġm ur
Ġconnect ion
ĠM er
Ġdri ver
Ġexecut ive
Ġass ault
Ġb orn
ĠV er
t ained
Ġstruct ure
Ġredu ce
Ġdec ades
Ġd ed
u ke
ĠM any
idd en
Ġle ague
S e
Ġjo in
Ġdis co
Ġd ie
c ks
act ions
Ġass ess
ag n
Ġgo als
our s
I R
Ġsen ior
ill er
m od
ip ment
oc ol
u y
ĠQ ue
Ġpart ies
ir gin
Ġle arning
it able
Ġstre et
Ġcamer a
A pp
Ġsk ills
b re
c ious
Ġcele br
ĠFr anc
Ġexist ing
Ġwill ing
l or
Ġ id
ĠSp ace
Ġcrit ical
ĠL a
ortun ately
Ġser ve
Ġc old
Ġspec ies
T S
Ġanim als
ĠB ay
Ġold er
ĠU nder
est ic
ĠT re
Ġte acher
Ġpre fer
v is
Ġth read
ĠM att
Ġmanag er
ãĥ »
Ġprofess ional
ĠV ol
Ġnot es
The se
ul a
Ġf resh
ent ed
u zz
ed y
clus ion
ĠR el
Ġdoub t
E O
Ġopen ed
ĠB it
Ad vertisement
Ġgu ess
ĠU N
Ġse qu
Ġexpl ain
ott en
Ġatt ract
ak s
Ġstr ing
Ġcont ext
oss ible
ĠRepublic ans
Ġsol id
Ġc ities
Ġask ing
Ġr andom
u ps
ur ies
ar ant
dd en
g l
ĠFlor ida
Ġdep end
ĠSc ott
Ġ3 3
Ġi T
ic on
Ġmention ed
Ġ2 000
Ġclaim ed
Ġdefin itely
ul f
Ġc ore
Ġopen ing
ĠCon st
wh ich
ĠT ra
A G
7 2
Ġbelie ved
ad a
Ġ4 8
ĠSec urity
yr ight
ĠP et
ĠL ou
Ġhold ing
======== ========
Ġ ice
Ġb row
Ġauthor ities
h ost
w ord
Ġsc ore
ĠD iv
Ġcell s
Ġtrans l
Ġneigh bor
Ġrem ove
u ct
Ġdist rict
ĠA ccording
Ġwor se
Ġconcern s
Ġpresident ial
Ġpolic ies
ĠH all
7 3
Ġh us
A Y
Ġ200 6
ĠJ ud
Ġindepend ent
ĠJust ice
ili ar
pr int
igh ter
Ġprotect ion
z en
Ġsu dden
h ouse
ĠJ es
P R
ĠIn f
Ġb ul
Ġ _
ĠServ ice
ĠP R
Ġstr ategy
ff ect
Ġgirl s
Ġmiss ing
oy al
ĠTe am
ul ated
Ġd at
Ġpolit ics
ab or
A ccording
Ġspe ll
Ġg raph
ort hern
T C
A b
Ġlab or
is her
Ġk ick
ĠiT unes
Ġstep s
pos es
Ġsmall er
E n
ber t
Ġro ll
Ġresear chers
Ġcl osed
Ġtrans port
Ġlaw y
________ ________
ĠCh icago
Ġas pect
Ġn one
Ġmar riage
9 6
Ġe lements
ĠF re
ĠS al
Ġd ram
F C
t op
e qu
Ġhe aring
Ġsupport ed
Ġtest ing
co hol
Ġmass ive
Ġst ick
Ġgu ard
is co
ph one
F rom
How ever
Ġb order
Ġcop y
ograph y
l ist
7 1
Ġown er
cl ass
ru it
r ate
ĠO nce
Ġdig ital
Ġt ask
ER S
Ġinc red
t es
+ +
ĠFr ance
Ġb reat
ow l
Ġiss ued
ĠW estern
Ġdet ect
Ġpart ners
Ġsh ared
ĠC all
Ġcan cer
ac he
rib e
Ġexpl ained
Ġhe at
{ "
Ġinvest ment
ĠB ook
Ġw ood
Ġtool s
ĠAl though
Ġbelie f
Ġcris is
Ġg e
ĠM P
Ġoper ation
ty pe
~ ~
g a
Ġcont ains
ant a
Ġexp ress
ĠG roup
ĠJ ournal
k a
Ġam b
ĠUS A
Ġfind ing
Ġfund ing
h ow
Ġestab lished
ide os
Ġdeg ree
Ġdanger ous
ang ing
Ġfre edom
pp ort
out hern
Ġch urch
Ġc atch
ĠTw o
Ġpres ence
ĠGu ard
U p
Ġauthor ity
ĠPro ject
Ġbut ton
Ġcon sequ
Ġval id
Ġwe ak
Ġstart s
Ġref erence
ĠM em
" )
U N
or age
ĠO pen
Ġcol lection
y m
g ency
Ġbeaut iful
ro s
Ġtell s
Ġwa iting
n el
Ġprov iding
ĠDemocr ats
Ġd aughter
Ġm aster
Ġpur poses
ĠJapan ese
Ġequ al
Ġturn s
Ġdoc uments
Ġwatch ing
R es
Ġr an
201 4
Ġre ject
ĠKore a
Ġvictim s
Le vel
ere nces
Ġw itness
Ġ3 4
Ġre form
com ing
Ġocc up
Ġc aught
Ġtra ffic
ad ing
Ġmod els
ar io
Ġserv ed
Ġb atter
u ate
ĠSecret ary
Ġagre ed
Ġtr uly
yn am
ĠR et
Ġun its
ĠRes earch
h and
az ine
ĠM ike
Ġvar iety
ot al
Ġam azing
