[PAD]
[UNK]
[CLS]
[SEP]
[MASK]
<S>
<T>
!
"
#
$
%
&
'
(
)
*
+
,
-
.
/
0
1
2
3
4
5
6
7
8
9
:
;
<
=
>
?
@
[
\
]
^
_
`
a
b
c
d
e
f
g
h
i
j
k
l
m
n
o
p
q
r
s
t
u
v
w
x
y
z
{
|
}
~
¡
¢
£
¥
§
¨
©
«
®
°
±
²
³
´
µ
·
¹
º
»
¼
½
¿
×
ß
æ
ð
÷
ø
þ
đ
ħ
ı
ł
ŋ
œ
ſ
ǀ
ǁ
ǝ
ɐ
ɑ
ɒ
ɔ
ɕ
ɘ
ə
ɛ
ɡ
ɣ
ɪ
ɫ
ɹ
ɾ
ʁ
ʃ
ʊ
ʒ
ʔ
ʰ
ʲ
ʷ
ʻ
ʼ
ʾ
ʿ
ˈ
ˊ
ˌ
ː
α
β
γ
δ
ε
ζ
η
θ
ι
κ
λ
μ
ν
ξ
ο
π
ρ
ς
σ
τ
υ
φ
χ
ψ
ω
ϙ
а
б
в
г
д
е
ж
з
и
к
л
м
н
о
п
р
с
т
у
ф
х
ц
ч
ш
щ
ъ
ы
ь
э
ю
я
є
і
ј
ћ
қ
ң
ү
ә
ա
գ
ե
ի
լ
կ
հ
մ
յ
ն
ո
ս
տ
ր
ւ
א
ב
ג
ד
ה
ו
ז
ח
ט
י
כ
ל
ם
מ
ן
נ
ס
ע
פ
צ
ק
ר
ש
ת
،
ء
ا
ب
ة
ت
ث
ج
ح
خ
د
ذ
ر
ز
س
ش
ص
ض
ط
ظ
ع
غ
ـ
ف
ق
ك
ل
م
ن
ه
و
ى
ي
ٱ
پ
چ
ڈ
ک
ڭ
گ
ھ
ہ
ی
ە
ܐ
ܝ
ނ
ރ
އ
މ
ދ
अ
आ
इ
ई
ए
क
ख
ग
घ
च
ज
झ
ट
ड
ण
त
थ
द
ध
न
प
फ
ब
भ
म
य
र
ल
ळ
व
श
ष
स
ह
ा
ि
ी
ो
।
॥
ং
আ
ই
ক
গ
ঙ
চ
জ
ঞ
ট
ড
ত
দ
ন
প
ফ
ব
ম
য
র
ল
শ
স
হ
া
ি
ী
ে
ਾ
ର
ା
க
ச
ட
ண
த
ந
ன
ப
ம
ய
ர
ற
ல
ள
வ
ா
ி
ு
ூ
ே
ை
ರ
ക
ല
ാ
ി
ක
න
ම
ර
ල
ව
ස
ා
ෙ
ก
ข
ค
ง
จ
ช
ฐ
ณ
ด
ต
ท
ธ
น
บ
ป
ผ
พ
ม
ย
ร
ล
ว
ศ
ส
ห
อ
ะ
า
ำ
เ
แ
โ
ไ
་
ა
ე
ი
ლ
მ
რ
ᄀ
ᄁ
ᄂ
ᄃ
ᄄ
ᄅ
ᄆ
ᄇ
ᄉ
ᄊ
ᄋ
ᄌ
ᄎ
ᄏ
ᄐ
ᄑ
ᄒ
ᅡ
ᅢ
ᅣ
ᅥ
ᅦ
ᅧ
ᅨ
ᅩ
ᅪ
ᅬ
ᅭ
ᅮ
ᅯ
ᅱ
ᅲ
ᅳ
ᅴ
ᅵ
ᆨ
ᆫ
ᆯ
ᆷ
ᆸ
ᆼ
ን
አ
‐
‑
–
—
―
‘
’
“
”
„
†
‡
•
…
′
″
›
⁄
₤
€
₹
℃
№
™
⅓
←
↑
→
−
√
∞
∴
≈
≡
≤
≥
⋅
─
│
└
├
█
●
☆
♥
♦
♭
♯
⟨
⟩
ⴰ
ⵜ
、
。
〈
〉
《
》
「
」
『
』
〜
あ
い
う
え
お
か
き
く
け
こ
さ
し
す
せ
そ
た
ち
っ
つ
て
と
な
に
の
は
ひ
ふ
ほ
ま
み
め
も
ゃ
や
よ
ら
り
る
れ
わ
を
ん
ァ
ア
ィ
イ
ウ
ェ
エ
オ
カ
キ
ク
ケ
コ
サ
シ
ス
セ
ソ
タ
チ
ッ
ツ
テ
ト
ナ
ニ
ネ
ノ
ハ
ヒ
フ
ヘ
ホ
マ
ミ
ム
メ
モ
ャ
ュ
ユ
ョ
ラ
リ
ル
レ
ロ
ワ
ン
・
ー
ㅅ
ㅇ
一
三
上
下
不
世
东
中
主
之
九
也
乡
事
二
五
井
交
京
人
仁
代
伊
会
佐
佛
你
保
信
元
光
全
八
公
共
关
兴
内
出
別
利
前
劇
力
加
動
化
北
区
十
千
協
南
原
县
口
古
台
史
号
司
合
吉
同
名
向
君
周
味
命
和
四
回
国
國
土
在
地
城
基
堂
報
士
夏
外
多
夜
夢
大
天
太
夫
头
奇
奈
女
好
子
字
学
學
宇
安
宗
定
宝
宮
家
寨
寺
寿
小
局
山
岡
岩
峰
島
川
州
工
市
帝
平
年
幸
庄
店
康
建
式
张
後
徐
徳
德
心
志
悲
愛
成
我
戦
房
所
手
打
摩
政
教
文
新
方
族
日
明
星
春
時
智
曲
書
最
月
有
朝
木
本
朱
李
村
東
松
林
校
株
根
桥
森
楼
楽
歌
正
武
死
氏
民
水
永
江
池
沈
沙
河
治
泉
法
津
洪
活
流
海
清
渡
渭
港
湖
溪
漢
火
為
無
版
物
玉
王
理
琴
生
田
由
男
町
画
白
百
的
皇
直
県
真
知
石
研
社
神
福
科
秦
究
空
立
章
竹
第
等
系
紀
經
縣
红
美
義
老
者
自
航
良
色
花
若
英
草
華
藏
藤
行
街
西
要
観
角
言
記
話
語
譜
谷
豆
赤
越
跡
路
通
速
遊
道
郎
部
都
里
重
野
金
镇
長
长
門
関
门
阳
阿
院
陵
陽
隆
雄
集
雲
青
韓
音
風
食
香
馬
駅
马
高
麻
黃
黄
齋
龍
龙
ꯀ
ꯁ
ꯂ
ꯃ
ꯄ
ꯅ
ꯆ
ꯇ
ꯈ
ꯉ
ꯊ
ꯌ
ꯍ
ꯎ
ꯏ
ꯔ
ꯕ
ꯛ
ꯜ
ꯝ
ꯟ
ꯡ
ꯢ
ꯣ
ꯤ
ꯦ
ꯧ
ꯩ
ﷺ
！
（
）
，
：
～
￼
##8
##0
##6
##h
##a
##b
##e
##n
##y
##o
##z
##i
##t
##l
##g
##u
##s
##k
##d
##r
##f
##c
##2
##p
##w
##j
##v
##m
##1
##9
##3
##5
##न
##र
##ी
##7
##x
##л
##о
##и
##4
##ह
##ा
##स
##ि
##q
##°
##р
##м
##а
##е
##д
##ر
##ا
##س
##ن
##ð
##ل
##ق
##ت
##ب
##ꯃ
##ꯟ
##ك
##ア
##ー
##カ
##イ
##フ
##ス
##ʼ
##п
##б
##у
##る
##ල
##म
##भ
##ß
##ᅥ
##ᆫ
##ᄑ
##ᅮ
##ᆼ
##ᄀ
##ᅵ
##ܐ
##া
##¢
##æ
##с
##н
##в
##т
##к
##ณ
##ป
##ร
##ะ
##ᆨ
##ᄋ
##ᅳ
##ᆷ
##ᆯ
##ᅡ
##ł
##و
##ی
##α
##ζ
##ϙ
##σ
##τ
##ν
##ι
##μ
##ᅯ
##ᄎ
##ே
##ற
##க
##ா
##ள
##ⴰ
##г
##ф
##ч
##ध
##ш
##℃
##ي
##ه
##ı
##ァ
##レ
##ン
##←
##ネ
##ル
##ע
##ו
##ל
##ת
##ø
##ম
##দ
##ᄐ
##ᅩ
##ᄒ
##ᅴ
##י
##ז
##ד
##ʊ
##ə
##ס
##ィ
##د
##थ
##ɐ
##ˈ
##ո
##ե
##ր
##տ
##ի
##υ
##ς
##า
##บ
##น
##ไ
##ท
##ย
##²
##ы
##ム
##メ
##€
##ى
##ع
##ز
##ח
##מ
##ש
##×
##ɛ
##ŋ
##ћ
##ь
##ᅢ
##ᄌ
##ক
##х
##ъ
##ง
##อ
##ผ
##ด
##¹
##ο
##テ
##シ
##ョ
##ส
##พ
##ר
##א
##ם
##प
##ल
##ッ
##ج
##ה
##ק
##く
##て
##ᄂ
##ᅧ
##ᄉ
##ᄃ
##ة
##©
##ᅣ
##ᅪ
##ᅦ
##λ
##ω
##œ
##≤
##ː
##ำ
##त
##の
##я
##נ
##श
##ग
##ন
##য
##व
##і
##ј
##ꯍ
##ꯣ
##ꯡ
##ف
##з
##ρ
##η
##ে
##כ
##ح
##ط
##م
##ە
##ک
##ष
##ट
##¼
##に
##な
##っ
##し
##ま
##た
##ん
##う
##ঞ
##চ
##গ
##ড
##ذ
##ش
##け
##স
##ি
##ε
##ж
##ュ
##エ
##モ
##タ
##ᄆ
##ᆸ
##ц
##ड
##ᅬ
##ᅨ
##す
##ാ
##χ
##´
##ত
##হ
##צ
##ʰ
##ю
##キ
##ノ
##ᄇ
##ರ
##ص
##ホ
##ト
##オ
##リ
##κ
##£
##さ
##द
##ब
##ᄅ
##ラ
##ט
##य
##ħ
##ɔ
##ひ
##き
##り
##ދ
##щ
##ロ
##ニ
##よ
##か
##れ
##や
##お
##も
##え
##ա
##ն
##ワ
##þ
##э
##ட
##ம
##ʻ
##đ
##β
##み
##ェ
##ᅭ
##մ
##կ
##জ
##ী
##ব
##ク
##ण
##घ
##ई
##เ
##ก
##फ
##އ
##މ
##⁄
##ˌ
##ɪ
##ψ
##ㅅ
##ㅇ
##ɾ
##ג
##チ
##ᄁ
##ʲ
##ɘ
##ு
##ர
##ி
##ண
##ม
##ช
##ว
##จ
##ล
##ห
##क
##ो
##ख
##ธ
##ต
##ハ
##ـ
##ა
##მ
##რ
##ე
##ლ
##ი
##つ
##ら
##コ
##ן
##ү
##پ
##い
##θ
##÷
##ɕ
##ꯩ
##ꯔ
##ꯎ
##ꯕ
##−
##こ
##±
##ফ
##র
##ळ
##π
##せ
##ء
##ウ
##™
##│
##└
##ʒ
##ث
##─
##گ
##ข
##โ
##ظ
##ല
##ɹ
##ǝ
##ɑ
##ʃ
##→
##ᄏ
##ʿ
##ɫ
##ξ
##ᄊ
##қ
##ち
##ふ
##ャ
##ツ
##แ
##ค
##ב
##½
##ज
##ɣ
##γ
##च
##ھ
##ᅲ
##ſ
##├
##ল
##ʷ
##ର
##غ
##ⵜ
##ট
##ނ
##サ
##ʁ
##⋅
##ɡ
##ර
##ස
##ෙ
##خ
##マ
##®
##ہ
##º
##ꯀ
##ɒ
##த
##ய
##ꯤ
##յ
##ി
##գ
##வ
##ை
##そ
##ˊ
##δ
##¥
##ꯈ
##ꯄ
##∴
##φ
##は
##ض
##³
##ٱ
##ս
##झ
##ศ
##ฐ
##ゃ
##ᅱ
##න
##ම
##ා
##լ
##☆
##ꯌ
##ꯜ
##ව
##め
##ல
##ூ
##と
##শ
##ミ
##ケ
##¨
##ڈ
##∞
##ப
##ʾ
##ꯧ
##ই
##প
##ソ
##ꯦ
##ക
##ன
##ச
##µ
##ヒ
##ঙ
##ւ
##♥
##ᄄ
##ܝ
##ꯛ
##פ
##ヘ
##ା
##ந
##ә
##♯
##ꯝ
##ን
##█
##ڭ
##ꯂ
##ং
##ਾ
##～
##є
##セ
##ナ
##ක
##⅓
##わ
##ほ
##ꯢ
##ʔ
##ꯇ
##￼
##あ
##ރ
##इ
##ꯏ
##ң
##を
##ꯁ
##ꯅ
##♭
##چ
##ꯊ
##ꯉ
##अ
##ǁ
##≡
##ꯆ
##ǀ
##հ
##ユ
##√
##আ
##er
th
the
##an
##es
##in
##on
##or
##en
##ar
##ed
##at
in
##al
of
##is
##it
##ic
an
##as
and
##om
##ou
##ing
##le
##re
##ion
19
to
is
##th
##il
##am
##el
##ent
##ol
##st
20
re
##ct
st
##ch
was
##ur
##ir
##ad
##ers
##iv
##ro
on
fr
##et
##ay
for
it
##id
##ce
##ist
##us
##op
he
##ot
##ow
be
al
##ig
de
ch
##ov
##im
as
##ian
##ly
##ation
##ag
wh
##em
##and
##un
##ut
##ies
from
##oun
##ter
##ia
##ul
sh
##os
com
un
##ces
##ra
##mer
##ish
se
##all
##um
by
##est
201
##ith
at
200
##ber
##ther
##art
##ere
pl
##fer
or
are
##av
with
##od
##ck
##ican
ne
##ak
##ap
##ity
##ie
pro
##ain
con
that
##ill
le
amer
en
pe
pr
ar
##ab
sp
##if
##ople
##ip
##feren
##ard
american
##ess
referen
##ath
references
people
##ant
##eb
##igh
##ate
##ld
##ment
199
mov
##ich
##ud
his
us
te
wor
##ame
##ge
##ary
##ver
##ub
other
##rit
##ort
act
##so
##our
##orn
18
##og
##ust
play
##ong
##ast
##ount
can
##ial
they
##ell
mar
##ated
##se
man
##ore
##ost
ex
##ive
##ue
198
##ine
##ound
this
su
##ear
also
tr
##oc
cl
##man
new
ab
di
not
af
##gh
##ight
has
##land
##ok
##ome
web
##ors
##ates
pol
##ph
##ang
##ical
count
##lish
##sit
##ave
197
##ited
she
gr
col
bo
were
part
comp
ro
fir
websit
##ach
bir
sc
##age
comm
##end
bec
##ik
##ib
##per
##ac
##ect
##ack
##own
##ry
first
##ure
##ord
me
ser
car
born
one
##ey
united
death
##out
##sp
which
##iz
nor
##pt
her
##ths
##ions
##pp
##ond
##ict
mus
ad
##ass
##ember
196
eng
fo
##ime
kn
##ide
ind
##ans
##ational
states
all
have
##ory
##ern
websites
##ous
##cl
##amp
##wn
births
##du
##ough
liv
##qu
##00
##ru
there
##ice
city
##ician
##ance
year
##aw
tw
##mp
ph
dis
par
##ater
##ade
jo
##ace
after
ag
##ens
but
had
##ball
cent
##ree
their
deaths
##der
##aus
sou
who
195
##tern
194
may
##ision
br
##to
polit
##ics
##io
rep
bl
movies
fl
##ign
ac
pres
world
##lect
call
off
##te
its
foot
193
##les
##ual
##ug
##ec
per
##ild
some
most
about
##ah
##ts
many
when
known
##ward
mon
football
go
sing
war
res
##act
co
ger
##ick
min
county
##lev
17
##ire
##ings
##ents
movie
202
two
cont
##ivers
##ake
##ied
##we
used
called
##iss
bas
work
##ould
writ
##one
##ff
ev
commun
do
rel
##ations
##ence
up
##ery
dr
##ities
sy
##ral
pop
192
##ments
##ind
##ince
south
##ton
sch
gen
north
##istr
time
##ames
german
##ists
rec
made
##ult
reg
##old
national
##ress
##ail
##ile
##0s
##au
##ite
##ork
##span
found
##ons
##ose
so
living
gre
politician
bu
est
telev
am
actors
pre
##als
will
##oup
##clud
brit
television
sec
dep
state
hist
##ten
char
ear
##rect
more
10
##apan
includ
japan
died
english
##iver
app
sw
aust
##olog
no
##ition
we
##orm
des
gu
univers
##ike
##uring
##ident
fam
out
into
bet
##ause
elect
##ese
16
been
jan
##ages
cal
bro
##ne
king
sm
##az
gov
over
direct
po
song
##ague
##ier
sa
##ays
nov
##oll
##ins
15
group
ge
govern
fe
##gan
air
##duc
distr
##ablish
tra
##ina
team
##ft
##vel
med
##raph
##ix
##ife
##ank
##ubl
alb
mo
ap
lar
cr
##ica
##erson
league
##ury
joh
british
during
award
years
12
them
series
ma
bel
##inn
offic
hel
##ock
##enn
popul
art
##ase
only
how
##ys
form
cre
ed
cap
town
river
high
##anc
establish
##ep
became
##inal
##hip
because
##tle
president
##urr
##ood
##urn
ter
jun
name
mun
##uary
##son
11
dif
##eral
att
stud
##ope
##ograph
ju
france
john
##icip
january
york
##ily
la
prov
music
qu
##gr
##uss
university
these
like
district
show
than
him
##ool
row
rele
##imes
2010
played
album
start
##ale
##int
##ama
##ween
14
spec
##ench
player
##cess
13
between
serv
##ism
191
march
em
thr
##ash
##ley
history
imp
##ann
book
##iel
##up
star
eur
##able
##ci
intern
ital
rom
el
bar
##iet
aug
##ely
person
##air
french
##ouse
lang
municip
end
very
chr
municipal
main
inf
met
##ased
2020
set
austral
##ional
canad
august
where
again
oct
under
long
second
##ower
##ve
such
str
later
depart
three
rowspan
official
##res
##ob
then
best
mil
exp
sept
num
##way
##yp
school
##ril
##ures
former
arm
record
##ai
##ublic
##til
##cer
law
life
##ction
september
##are
##ober
langu
##iam
july
establishments
##ually
october
##mber
sci
june
sl
##ason
mod
child
care
old
dece
april
champ
##lin
##ister
differ
west
would
##ative
century
##ke
since
lead
sub
##ks
##fore
##ital
december
party
different
europe
##ather
sur
players
won
november
2017
##emb
related
wom
har
inst
games
##ium
cons
2007
lo
feb
mat
fil
actor
game
island
until
##ren
je
sim
soc
##ruary
day
inter
if
february
ii
div
def
back
##aint
##amed
area
##pen
four
2014
sk
ret
released
2006
##sh
2019
prof
ang
age
##rop
##ement
land
2008
ste
list
sport
through
##ron
##eng
club
bus
##oss
department
##und
before
small
##stem
band
loc
bra
2018
##ble
use
member
##ious
##ants
##ri
house
phil
international
russ
acc
family
##ss
2005
government
kill
inv
system
##ology
##bert
##ced
##ets
well
##let
region
make
water
##ats
il
##ott
general
career
gl
##thern
2009
number
ob
##ms
rock
ever
##ution
21
25
##ating
red
same
##cy
hum
dem
singer
2004
##its
anim
compan
rem
##gest
christ
000
mill
geor
2016
##ography
val
my
##cc
##ural
##ise
2011
often
##amm
2015
mu
produc
30
##ull
##ange
east
cities
typ
##row
mak
2000
##ds
190
did
2001
im
being
bat
##ung
##ont
ann
id
champions
near
##ink
calif
wal
californ
##co
##bo
##omet
california
japanese
based
##over
##ever
##ines
##tain
website
##ator
##ae
##ject
you
actress
2013
right
both
##oph
leg
season
stat
2003
vo
any
##ific
named
afr
##yl
roman
##ollow
early
tre
orig
##iew
##els
port
language
place
bre
vill
cor
indian
pages
lit
own
organ
charact
each
miss
##ives
2012
##gy
##dom
mag
build
ass
country
england
dec
tex
italian
24
great
ep
population
winn
##ee
2021
oper
started
##ove
##ought
lu
rev
ir
germany
follow
run
now
ec
add
lond
##ger
arch
mich
sen
examp
##ark
2002
disc
##bur
london
comed
said
arr
against
##ches
get
##ty
22
black
profess
##yn
##red
pa
##ony
around
help
nat
while
const
women
23
sal
du
##velop
##ize
cro
last
inc
usually
supp
av
perf
however
maj
ke
fin
ra
##ourn
develop
##eter
tak
##ular
mid
common
oly
##ene
minister
##ric
sever
au
olymp
live
##elf
##ries
##ful
colspan
##ison
produ
vide
##ane
class
pat
including
politicians
189
children
head
way
kingdom
##ody
home
##ians
##ved
municipality
##ara
int
1999
26
cour
power
sol
##ling
rad
appear
bi
##atic
##ana
hol
communes
curr
big
musician
28
could
##other
god
design
##iness
wr
import
##ains
sum
##ago
##ried
##istan
mount
trans
compos
major
##inc
several
##br
film
commune
lou
just
repres
chur
contr
far
##lo
##omin
mal
cup
##anish
##ones
progr
championship
##ined
##ield
27
what
var
##ode
park
caus
san
##ows
province
thir
##uk
cancer
william
open
cast
##ner
##by
vir
memb
gold
super
##itz
down
##ret
##ible
canadian
good
##onom
eas
prot
##ille
sign
attack
##estern
colle
business
##ized
del
1998
vol
video
##ipp
ber
large
29
youn
india
times
mer
every
america
mass
##cr
members
##ze
##day
swed
##ler
ext
capital
1996
phys
lived
another
chang
tit
rich
cens
public
pub
australia
vers
top
188
represent
##augh
white
son
##cle
important
pass
vi
men
##ute
##omb
current
##ington
##ues
company
##he
directed
##ney
left
pal
writer
1997
saint
emp
popular
31
li
example
##ico
##ald
order
began
million
camp
census
adv
short
##ham
spe
##ax
##ilt
drama
1995
##min
##adem
present
publish
##que
dav
created
conf
tem
milit
original
##writ
##ature
186
##lex
church
educ
##ting
famous
##ka
1994
##tal
dise
##soci
center
mark
##na
histor
##ata
uk
line
giv
##esh
suc
##cept
even
real
species
##ams
somet
writers
civ
associ
tur
##ief
win
hock
don
##erv
prime
much
grand
books
##ps
bill
hockey
##ois
bur
##ford
cult
mor
democ
ref
ant
groups
##side
sometimes
union
director
central
academ
1992
political
187
cath
mex
spanish
gra
##ived
australian
##ven
countries
means
still
angel
manag
scient
##app
##aster
light
##fect
##ett
##ices
los
russian
civil
1993
##me
##burg
##aur
roy
include
six
army
see
written
100
flor
mean
##ider
republic
songs
sea
human
##istics
military
##ior
occ
married
##ida
econom
##ided
gir
pos
coun
##ruct
enter
auth
##thers
james
##thing
1990
father
##idge
##ma
tal
third
##ena
western
activ
special
##ract
hon
##led
comedy
##eople
support
comput
earth
heart
##ino
wind
##xt
##gin
paul
fre
built
1991
##ves
##ky
chem
sold
##ania
##sc
gree
journ
largest
##ted
cer
hal
stand
##pl
rh
##tt
college
lab
five
kh
ver
stage
cy
cam
body
jack
##itar
louis
vict
##aut
does
##aces
contin
sil
##chn
towns
##ides
canada
km
texas
##rog
##ansas
story
wrest
northern
chic
engine
total
democr
division
##rote
bal
##umb
cat
##ots
que
##ired
1989
disease
braz
professional
fem
george
##ush
epis
hy
##uck
color
mart
need
er
chicago
hand
##yle
##ael
kore
want
conn
proble
wrote
final
single
pak
went
rece
brazil
awards
mur
##epend
deb
aut
##af
governor
##ators
##iod
dut
independ
franc
##berg
austr
##ius
social
came
lat
given
green
tour
arg
vis
##arn
young
##ars
footballer
jew
seat
become
battle
##ya
china
1988
wash
1987
success
##bs
net
word
ve
along
term
author
rul
things
works
food
##ency
took
185
stre
card
ent
ice
##alth
voice
albums
summer
election
1986
equ
moved
##ases
modern
natural
expl
fire
##work
resp
sun
medal
period
##gress
type
##be
##gether
rail
fed
##ids
hall
##ised
using
look
mont
##yr
held
##aced
eff
statistics
##ges
fri
ast
got
european
together
mad
character
compet
footballers
1983
##ness
following
hard
1980
trad
##ring
##ories
science
scott
dev
municipalities
##ends
1984
techn
##olution
rest
mot
##ville
##par
sn
##por
events
chin
1979
return
##uel
##raft
atl
guitar
put
##che
killed
bad
##ured
robert
turn
##gar
court
royal
station
##ival
pakistan
sym
road
role
##osed
1985
parts
hen
1981
radio
relig
##ady
##iety
##cil
##port
aged
squ
##ula
journal
david
##ano
southern
jose
love
fun
take
secret
level
1982
##aving
##ally
crit
sov
italy
tran
worked
##amb
founded
ide
few
free
descr
washington
african
cop
published
next
##avy
##ctor
ru
event
hor
stop
muse
ben
served
##ta
1976
fif
mother
jud
plays
##ilar
##uted
##itch
##ells
thom
##ero
scre
musical
sports
##ek
site
ath
personal
##ander
association
hot
pur
##itions
fall
connect
cov
leader
sent
musicians
sex
ho
village
##ota
plan
christian
sat
space
sound
cant
##ij
broad
1972
find
##writer
little
sit
##omes
##olic
chinese
emper
nu
##iction
mc
press
days
side
perform
cir
1974
den
making
angeles
##oth
kar
##lands
stars
ce
##ote
night
##dle
##arch
council
dou
belie
africa
##ically
math
virgin
ele
inform
##antic
##ility
caused
less
version
tv
beg
ur
##ien
democratic
et
illin
det
lot
similar
illinois
non
pict
asia
paint
museum
feat
dutch
1975
che
local
lake
empire
##ple
carol
tom
184
charles
##itzer
sam
ox
michael
girl
pun
1973
fail
florida
##ization
say
richard
announ
post
wat
rob
ham
georg
reach
wood
##eth
1978
##rug
point
resear
records
ten
those
alex
collect
ara
##ways
pet
host
cle
mel
conv
research
hill
mary
ze
admin
producer
office
artist
today
1977
grow
##lu
thought
coast
##ster
frank
##osp
prev
fish
characters
##aj
##rael
control
places
bank
dan
fact
bord
fight
phot
lim
1970
money
without
rights
dam
academy
test
##osh
32
1971
repl
50
##go
computer
##iers
az
dest
eastern
##line
##ude
rap
territ
spain
##emat
read
##nes
building
##ying
beh
soviet
prize
islands
##ona
israel
speak
opp
hit
animals
lost
mem
service
##ropical
1969
seven
##west
style
must
1968
led
novel
mac
sportsp
prem
emperor
##ental
kansas
##ified
fer
sportspeople
tor
##ially
##cient
20th
force
key
peter
middle
cross
paris
dist
oh
screen
mult
##ki
away
##odes
teach
sour
exper
accord
settle
strong
poet
##ged
##itional
##ump
40
kind
183
due
nomin
report
others
race
shar
allow
prim
wil
singers
prefect
exec
##atives
republ
##oles
##aves
ancient
##rew
elected
1967
penn
protect
bay
makes
instit
let
sant
received
cla
process
blue
gar
lib
##ror
clim
track
##ye
greek
administr
ol
late
storm
##eration
##sy
mexico
sweden
tro
##ued
olympic
daugh
ball
##ention
information
##de
switzer
trib
bor
surv
##ais
should
1964
switzerland
fur
title
pan
##ergy
problems
alth
turk
located
parl
gal
low
wall
##lic
pap
produced
##asc
constit
struct
##ado
composer
##onia
norm
33
formed
catholic
network
oce
##den
##ani
languages
although
##ning
indust
alm
effect
##oma
poss
pers
hu
round
know
brown
according
##overed
##gypt
wife
change
areas
##oms
os
cit
##iga
community
shows
pen
gall
consider
seen
virginia
##ours
parliam
hap
##gian
##ari
describ
hurr
coach
egypt
treat
##ape
##ored
##ender
##ross
181
health
playing
##cent
##wood
hold
##ead
though
thomas
nob
##ha
henry
##ket
frog
mathemat
##ita
ha
republican
hurrican
chief
##att
##ops
der
mos
society
##adu
parliament
##ained
1966
news
##cast
prom
half
##my
ship
congress
queen
gun
ill
scientists
##ults
education
##ended
##ument
1960
##of
##anch
##bc
##ground
1945
ok
##iana
##med
teams
##osoph
##olf
##nd
##thod
words
##ards
##icle
changed
tenn
dra
##oy
voc
energy
uses
##ga
pu
##ished
esp
tropical
joined
philosoph
buildings
prefecture
182
birth
##eball
hun
blood
34
eth
match
mix
mountain
1965
engineer
includes
35
mostly
woman
cur
prison
##ini
never
police
transp
female
##ength
among
bab
sand
baseball
earl
train
culture
##ipt
airport
les
bud
cand
happen
##ris
##ba
swedish
##lam
russia
1963
product
come
##oon
defe
36
iran
francis
##hl
dead
too
full
##ii
##asons
carolina
##une
announced
field
##osaur
##ura
##etic
##field
olympics
model
##aland
boy
gave
##ersey
development
##fl
iv
winners
##ims
viol
brother
types
##wards
action
chart
##ylv
prince
##za
mr
argent
sar
basket
episode
hung
##ient
whe
project
bul
learn
within
##era
##ements
entertain
commit
##aly
lawy
comes
1956
##ox
mic
##lad
##ylvania
##craft
plant
sho
van
##anger
##akes
##gen
##aries
##the
appeared
counties
result
better
jer
##ances
hosp
##uc
inh
bc
1961
notes
program
rac
##ima
scot
production
##olk
daughter
distrib
##isc
federal
winning
victor
map
##uit
##ission
think
iss
included
once
##ogn
##eland
break
movement
cann
1962
##aff
tim
arab
##icles
scottish
dog
##ste
lives
1950
georgia
jersey
cho
having
penns
forces
##ef
basketball
instead
separ
##idents
##ada
##ological
1947
chemical
pie
##igan
##ests
##abit
gh
jewish
geography
##wer
pot
lower
##bers
##iff
pennsylvania
view
comb
ohio
wanted
almost
martin
ocean
board
##bon
##bor
liter
street
brazilian
1948
coll
independent
##view
perfor
mach
die
dig
##ube
developed
keep
kent
pain
##awa
intro
bang
cond
##ban
##lete
##ware
##gb
meaning
cost
established
##shire
hurricane
flight
aver
##ondiss
front
##ither
##wa
##itect
es
179
arrondiss
1946
##oming
##ique
select
portug
songwriter
##ming
says
##arian
metal
done
##lor
ire
polish
##get
chann
1951
180
canton
##ference
becomes
crime
rank
influ
pian
appro
bern
lee
1957
jul
object
medic
nick
##sych
fest
iii
architect
##aria
gro
##ador
plants
theat
ireland
studio
sus
1958
1959
premier
90
##cul
irish
dyn
refer
week
1940
smith
##east
past
##eder
invol
representatives
1942
##ints
fox
1944
settlements
working
##ym
##ca
1949
box
covid
transport
names
wrestling
gard
bridge
##ols
columb
1954
cra
ground
study
##ellow
bass
eight
proper
1930
##mon
travel
colon
temper
winter
studied
1939
position
##ny
mater
##itor
##iest
##iple
1952
magaz
fort
##ters
failure
##pre
companies
##ification
##agon
##ato
1941
som
##gg
1936
react
islam
max
##ences
nar
zealand
nether
above
incre
able
##iation
border
##ared
media
70
psych
##etts
condu
##50
1934
##col
##roy
taken
##men
##achus
burn
anth
highest
stan
wild
rain
##ala
sem
##vir
centre
transl
electric
##elling
review
##ih
##ament
considered
##istry
1955
soft
1929
##iger
austrian
1990s
1933
##isters
netherlands
give
jim
meas
here
qual
sir
decl
fly
massachus
vot
##ologist
chair
ul
##ola
currently
joseph
massachusetts
heavy
##uts
murder
ins
priv
mayor
release
libr
##ev
glob
biography
corn
requ
manager
pictures
pas
stra
latin
hospital
might
##tar
##off
##ination
talk
month
##ems
##zo
districts
fiction
move
secretary
korean
performan
average
eat
material
##self
##oul
##acy
opera
##eds
citiz
cause
37
dark
territory
wars
walk
ven
ww
jean
writing
pay
edward
haw
least
##ulf
tree
broadcast
##ston
cell
rivers
revolution
senate
38
##ately
##isl
himself
1931
fa
##ishop
fig
1935
friends
##ils
lord
opened
##eld
aud
##leg
##reg
certain
ros
various
data
1943
wales
cart
##vers
##owa
asian
korea
drug
1953
dar
1932
castle
hom
valley
case
parish
golden
##less
pac
austria
nucle
1938
1937
mir
##sel
retired
##atory
1928
silver
##stein
relations
carl
numbers
goal
professor
happ
op
##board
bomb
cycl
railway
takes
tar
obs
##itan
always
medical
across
80
##ja
successful
lik
##20
lie
##mit
complet
text
##gl
doc
##ua
conserv
advent
1980s
jackson
liber
##vin
da
meet
ren
##ested
inside
fore
either
##umn
bob
##10
exist
nations
your
close
micro
scotland
##unch
##face
originally
##ently
climate
stad
##ouri
1926
##used
mainly
##oo
recorded
##iy
mah
native
roles
drum
students
19th
39
amount
animated
60
ba
leaders
symb
princ
performed
##inted
500
jr
##zech
##ably
##azz
male
journalist
something
fle
philipp
##hol
method
##utive
michigan
deg
1927
ident
##any
magn
crash
czech
changes
orch
45
reb
ask
artists
candid
results
nominated
envir
recogn
##urs
page
amb
schools
kr
##itive
villages
beat
##ression
##ending
sav
##abeth
months
espec
##aka
##aign
##erb
aff
##oh
presidential
theory
fourth
mountains
channel
fut
##ole
arts
bav
missouri
##ruction
cab
especially
##form
mexican
ray
pope
entertainment
prin
cele
seats
serie
iowa
systems
nobel
assemb
##iev
capt
##ques
##bour
##utes
outside
instr
astron
lin
##aker
##band
range
doctor
environ
##ette
##ales
##ella
ended
64
mas
circ
goes
causes
##ores
##dy
services
institute
tax
pract
##mar
##com
1925
domin
peace
gradu
##hi
disney
size
##inning
##ively
idea
anton
##read
destroy
atlantic
gas
sequ
##owers
plat
bron
178
magazine
previous
wid
cub
shown
aircraft
##uments
ukra
viet
honor
campaign
fac
##wan
##ert
duke
##ios
abb
programs
saf
square
1970s
##apt
fame
brand
##ias
##oke
hyd
prob
log
festival
champion
##elle
maria
##stand
going
electron
##iles
speed
##igr
lay
dynast
esc
hus
##li
signed
nav
##orf
##outh
market
helped
britain
enough
fair
background
ken
independence
added
birds
##och
danc
soon
ca
inj
musl
dance
##la
stone
windows
dre
laws
pred
our
pit
##kyo
library
prop
imm
rout
religious
friend
internet
further
foreign
cannot
##lah
rome
vice
reached
sister
possible
spir
##ites
##play
##rel
sax
##jan
naz
mess
htt
northwest
ak
upper
##enc
##edia
date
tun
programm
regular
invent
bost
animal
alp
ash
1924
42
roll
##ivid
replaced
##ex
diff
syn
bon
pil
seasons
kil
##aska
stadium
stories
2000s
concer
73
##agn
##ense
agre
chap
theatre
minor
tokyo
environment
##ume
87
electr
75
newsp
1960s
killing
technology
##urt
74
moon
89
##nam
singles
committe
##11
##illa
decided
allowed
organization
jac
##ko
##aged
88
cover
newspap
miles
hop
##rey
##icular
86
##idence
quick
bands
rod
##mark
1923
hous
stay
boston
orchest
##ux
##oto
interview
points
stock
1922
cut
leon
assembly
historical
##inson
poland
##gn
oklah
ran
##ounds
oil
commer
autom
ark
episodes
oklahoma
##ensive
divided
ut
executive
individ
invest
2010s
00
##win
returned
tourn
##har
officer
dom
inse
##ened
wel
##cher
forms
##anda
##empt
cas
trade
barb
wwe
surr
bell
cases
##heim
oldest
parents
performance
ron
features
longer
ach
flag
##airs
length
winner
##chester
louisiana
pacific
rang
smaller
standard
saw
##cel
cry
celebr
minnes
92
2022
1900
founder
master
##sen
clos
individual
##12
##aki
legisl
ram
minnesota
##lines
##ateg
gallery
brain
ts
traditional
source
except
feel
##bach
##teen
simp
ta
43
aqu
##uf
##establish
gramm
beginning
fifa
##ipl
##lications
din
tam
##ped
goals
egg
gian
conc
scr
dynasty
true
avail
##ati
##ips
bavaria
##orial
bow
discovered
rule
##use
soldiers
columbia
religion
block
introduc
##ucky
##rd
committee
commission
177
jazz
##don
assist
align
charl
critic
##iro
activist
atlant
##well
origin
yellow
85
disestablish
tall
chile
eliz
vocals
1920
bbc
arth
##ights
inhabit
famil
awarded
##yan
ther
humans
francisco
ring
ris
steph
launch
sel
appo
kid
##wh
##oor
table
online
designed
alexander
collection
cook
berlin
65
formula
studies
genus
shot
examples
cold
fast
iron
##chan
##hr
surface
83
##ladesh
96
bangladesh
ic
code
someone
nhl
rat
##uch
neigh
##aine
##iller
84
lady
##riage
od
##isions
albert
shoot
neg
command
48
deep
regions
bru
##iding
##endo
hero
gets
##ected
##icult
##agan
kentucky
championships
citizens
fel
private
jones
99
##hood
pier
contains
job
literature
fc
mcc
##ria
##ience
1921
arrondissement
available
##bit
medicine
77
##ades
stations
##for
swiss
oppos
##wor
spring
54
95
emer
lgb
lawyer
jes
##ali
jeff
pand
pick
##rid
lgbt
ey
continued
mario
higher
rog
future
deput
##people
##inces
rules
91
97
motor
jon
sug
armen
kings
79
##ken
bol
cells
lov
dun
alab
running
starring
##tario
forest
romantic
finished
##ira
##writers
beach
wik
##can
weap
ontario
introduced
usa
particular
economic
##ropol
##mann
44
anti
##rick
politics
businesspeople
##adel
##selves
ess
1918
believed
beaut
nuclear
##rupt
41
93
bg
believe
joe
face
##inet
larger
princess
alabama
46
bishop
captain
##ela
told
legal
##ji
structures
provinces
coup
##lers
##rich
victoria
ministers
##color
1st
kong
navy
02
ways
82
quest
nation
software
letter
nine
visit
fant
ly
##ouch
##mond
businessman
##illy
##ros
##ora
elizabeth
constitution
fal
##idae
accident
59
johnson
47
commonly
self
##din
##loy
98
bund
themselves
described
happened
bgcolor
##akh
access
below
von
##tim
article
debut
athlet
sud
##iced
tried
particip
1919
senator
daniel
foc
fict
relationship
##va
directors
racing
labor
76
##aught
##elly
##iter
difficult
americans
promot
brought
temperature
selected
attempt
78
feet
santa
subject
inhabitants
##ila
##mont
bh
www
claim
##ving
affect
painter
##urity
unit
spread
active
sexual
org
freed
impro
alph
presidents
belgian
behav
##ito
throughout
##19
myth
paraly
belong
##str
occup
##inger
tenness
66
##rial
##ova
starting
##onto
kim
mob
matches
##aps
##burgh
gener
biggest
disestablishments
fictional
##ker
mole
corpor
justice
nint
##ipe
##mas
##inian
##itt
guard
itself
acting
tennessee
suic
indones
plann
63
72
harry
04
##war
##oud
additional
py
cru
lines
edition
##ffer
husband
nic
##emon
owned
kenn
base
ah
wide
reading
distributed
swe
##ift
carbon
industry
94
##zy
metropol
nintendo
##iment
sle
physics
tell
##gu
sab
##kh
##elled
problem
nature
##ram
fav
##anz
##anth
mississ
08
quar
##ippi
communic
airlines
remov
sources
arthur
elev
supre
##ads
azerb
##ders
##aining
marriage
evolution
williams
vote
schol
bull
stro
conference
ideas
basic
azerbai
##emic
create
clubs
51
##iving
watch
67
ko
grew
astronom
57
planet
foss
temple
lett
##osph
accept
ky
paralymp
reason
profile
##asa
herit
##mir
alf
polic
crick
reported
##ential
##onsin
israeli
03
branch
calais
52
ira
hours
49
##uth
raised
girls
wisc
nap
300
wear
indiana
mission
spok
needed
andrew
bod
argentine
spl
wisconsin
enc
photograph
document
thous
multiple
thousand
path
enem
kir
##phia
administrative
families
ott
mand
##tra
##aven
generally
producers
behind
##imin
followed
damage
marsh
luc
toronto
heritage
leading
fu
pul
primary
older
wa
68
ago
nord
spr
arkansas
##bridge
passeng
mississippi
##ule
1917
suggest
orchestra
rose
write
##itude
harv
elections
interest
06
##inct
##eas
##enty
cultural
rot
anne
abs
comedian
##aya
leave
km²
whole
mamm
hund
philadel
physic
jane
machine
dro
##icted
palace
07
81
degree
##nel
##enna
chairman
link
security
quickly
hir
##bury
##asy
eventually
philadelphia
##uries
gives
1901
rub
tournament
sac
##utions
bird
holy
##iac
##phy
economy
##hib
##vi
poor
addition
extre
mosc
deal
appointed
fifth
bah
era
jesus
physical
normal
blues
infect
snow
terms
chris
stanley
dipl
fat
##jo
controll
##amin
veh
wolf
engineering
foundation
lor
tel
probably
liver
weather
officially
sky
skin
regional
defeated
vietnam
##ingu
editor
farm
lung
##kn
anal
complete
taking
greece
clear
entire
ethn
bit
trump
staff
express
loire
constant
05
71
fund
na
##ew
##ability
##enced
units
composers
##omp
##istic
hundred
southwest
tay
andre
why
inn
##osl
##rison
kept
medalists
destroyed
categ
##wide
mathematician
deputy
##her
godd
lind
##neum
competition
conduct
http
letters
pra
mechan
baby
rug
ib
##aud
metropolitan
##uese
join
55
##uten
##abad
turkey
singap
portuguese
folk
jur
tells
notable
budd
rather
##ees
rand
organiz
paper
##da
insp
slov
bronze
alt
purp
chess
respons
##hamm
##kins
niger
khan
las
moscow
dak
slow
heat
digital
singapore
calend
##ients
cham
simple
ple
structure
dry
hin
haut
billion
guitarist
abd
urban
norwe
hair
##ika
protest
trees
##cial
earn
##onic
##ctions
runs
driver
try
greatest
explor
2nd
step
complex
tony
##orpor
1950s
tai
brook
altern
lew
ali
syd
carr
##zz
asked
##ava
trial
176
supreme
##bi
becoming
piano
brothers
##uses
tennis
soul
##erve
peak
element
alpes
cust
tower
##ustr
58
norwegian
##ili
nam
sev
leaves
##ologists
pneum
section
contract
begins
grant
sett
bond
jews
symbol
bush
##ghan
equal
##roit
belg
##pr
attacks
elements
swim
cd
danger
mike
reign
alg
cos
films
ruled
queens
##aga
horror
parties
soccer
j1
uef
##aded
southeast
teen
##han
##ties
flu
marie
youth
##gle
##oln
upon
powerful
resign
clar
emb
sail
fighting
##iot
##real
function
##eria
orange
diam
administration
##western
goddess
##ready
reviews
suffer
##ourg
crown
marc
hong
##una
hay
terror
##uan
philippines
moving
##edral
hem
newspaper
##iny
unl
gab
detroit
teacher
turkish
finn
init
croat
estim
kash
##reat
imper
subst
contest
chemistry
kur
ot
hart
##oman
69
han
ped
adventure
tele
judge
wilson
spirit
shr
colorado
pack
redu
##ados
universities
uefa
tas
manchester
wee
##icated
princip
01
lif
##fall
spent
legend
hungarian
##chen
student
sydney
sites
kinds
troops
memorial
sciences
towards
already
fought
ga
surround
monarch
historian
##ields
cathedral
diplom
afghan
borough
53
wing
positive
picture
carry
62
draw
suff
56
starts
##ilities
09
serb
understand
##ho
bos
rab
##sex
si
##een
pneumonia
1914
adop
##ancy
earlier
room
charge
##icut
##vert
piece
thriller
hat
offer
stroke
##isa
confir
turned
##ami
400
ban
observ
##ires
gil
distance
placed
adult
whose
appearance
effects
separate
islamic
bed
mp
cars
##head
calendar
critics
double
stephen
garden
rio
recording
route
freedom
##ship
shap
nearly
dakota
involved
passed
bott
kat
classical
freder
training
figure
graph
mut
tag
##edy
flat
greater
cel
cin
dougl
loss
##rian
illustr
value
construction
scul
getting
fantasy
forced
falls
sleep
##onne
spee
scientific
##orter
1912
scored
boys
minutes
slav
suicide
commercial
##station
steve
##ners
screenwriter
dream
christoph
##liga
##pped
bundes
##rence
mom
connecticut
150
##iption
gay
stopped
disord
generation
175
##ipur
oxford
pandemic
kal
##worth
designated
##iov
universe
tail
morn
exc
##rogen
walter
portugal
donald
iraq
belgium
poly
greg
wrestler
galax
##orporated
liga
starred
frequ
##eding
meant
##ension
##tic
mixed
sin
tu
search
##izes
bach
##uation
##val
argentina
cred
fred
christmas
horn
spoken
dial
norway
dies
depression
account
sid
sund
##ilton
junior
majority
##cks
holly
acid
note
egyptian
ships
meters
flood
products
ful
treaty
##esc
philosopher
nag
sad
##ran
##astic
ford
##icks
listed
complications
gor
dor
##cest
##ables
1915
grammy
chall
compounds
eyes
taylor
##iday
##unt
solo
pressure
manuf
cm
lyn
disp
apart
ty
sher
houses
174
weak
supported
liberal
manufact
agric
hell
##sa
hills
diss
worldwide
educators
weeks
##isation
finally
deter
kilomet
fash
candidate
communities
##enez
earthqu
cree
fell
reform
##back
susp
mobile
##kin
##pa
frogs
ax
desp
kaz
weight
##known
sculpt
colomb
investig
bact
thing
recent
industrial
gang
##ising
pieces
measure
playstation
workers
kan
historic
azerbaijan
##oid
lawyers
1916
opt
activists
iranian
ethnic
shape
lands
##30
##wick
##ori
lawrence
##regon
##alia
cav
douglas
lock
##df
bring
drink
##uki
liqu
##iting
##overy
vac
comic
seg
communist
platform
##anna
linc
pad
assistant
signif
concept
billboard
##water
draft
clin
agricult
ariz
eggs
oregon
closed
concert
finland
merc
lux
store
wheel
##arm
chamber
##eg
inte
##hire
##aux
insect
lincoln
eye
resist
taiwan
##wr
lith
plane
kw
##onian
##sey
appl
ern
featured
fill
commander
weapons
pic
lists
powers
##ebec
management
maryland
dal
##weight
ais
unknown
##ema
bot
fashion
charts
merged
raj
ambass
arizona
split
##hs
ancest
versions
ans
##ysis
crew
image
eld
affairs
##rie
twenty
mathematics
lieuten
##key
showed
northeast
dail
ross
jam
simply
hour
##ez
respect
produce
plot
intell
und
mol
highway
location
represented
quebec
solar
global
contrib
horse
etc
dur
##asters
limited
touch
volley
bib
rugby
conqu
hans
apple
steel
competed
mis
om
1911
1913
models
operation
voices
bear
trains
##bourne
##iab
cool
##iques
##atures
atom
covered
hear
catal
morning
##18
peru
headqu
imperial
##oe
##15
progress
feature
doll
ay
zone
brian
programming
##stone
##oka
nom
1910
financ
montreal
lieutenant
dv
colour
status
tradition
hawai
formerly
alco
welsh
18th
doing
personality
##osis
actually
##change
lad
fruit
treatment
##more
##enge
ends
##aled
nep
scientist
hotel
mind
pron
solid
composed
federation
philosophy
muslim
salt
##zen
ow
##iance
arn
widely
##cycl
ku
##eman
divor
##hammad
mi
guide
younger
nickn
intellig
jord
quarter
##po
mars
3rd
##rus
subur
architecture
maur
kennedy
representative
##esis
##ighter
scale
bag
exhib
clev
##fort
##14
poll
aer
physicist
dim
oak
##box
oxy
##iba
governors
wins
##ify
bulgar
launched
mythology
##ras
flows
##ashi
corporation
shah
evidence
labour
cambridge
hindu
romania
hind
detail
##16
dj
##cha
specific
pierre
sang
##gers
brad
conservative
##xim
flow
##iful
remains
cartoon
nik
##ti
denmark
thin
160
completed
comics
label
##ills
##osaurus
drugs
neighbor
speech
##fc
##arters
##itation
conditions
##oli
arms
organizations
raw
##down
madrid
paintings
mort
defin
whether
conductor
extra
patrick
kl
##inary
creation
glass
buried
##house
##asing
electronic
##hold
bio
samp
##onde
danish
kelly
##pe
##osen
significan
##athan
bright
confirmed
ell
vocal
gord
lam
nearby
##book
painting
antonio
volleyball
strength
objects
removed
##oper
bak
copies
ukraine
drive
##iology
##13
succe
##chi
resour
punk
ker
##olas
contain
influence
manipur
dinosaur
pink
##uay
archae
numer
yam
##usion
dol
daily
winds
likely
bible
##hu
adam
referred
cleveland
##ises
lewis
prevent
##tles
gods
confl
pig
guy
afghanistan
pir
comment
##ensity
finish
buddh
therefore
christopher
operating
polo
arrest
colleges
##igen
automob
threat
##soft
property
##wal
taught
##met
##lets
jenn
hang
johann
attract
appears
##dam
illness
academic
bound
hou
##jab
ones
karl
dat
economics
surg
rate
ton
##ione
cher
associated
activities
anthony
pok
easily
tamil
defense
##rane
##iva
##ardo
170
universal
paralympics
fix
rud
##ager
##under
veget
cow
##enz
issues
##ares
maps
dc
dragon
belief
emmy
practice
marine
crim
1908
vel
bundesliga
##alo
sha
alaska
allows
giving
globe
aisne
score
vienna
penins
twice
rapid
172
victory
needs
##eastern
confeder
serving
##iat
voiced
discography
alan
##enburg
hex
senior
sequel
simon
cu
memory
##onse
coming
gene
microsoft
venez
##sl
ward
##oria
##vis
conflict
##olis
prepar
bros
happens
alphab
trying
opening
chosen
persian
hungary
bought
agency
fried
instruments
dall
mammals
ka
sed
pilot
hip
##iders
##duction
laur
oxygen
matter
journalists
ale
really
contro
approxim
ukrainian
beautiful
previously
hers
##ikh
pho
malays
computers
##ding
##tery
kon
##aro
articles
romance
recip
novels
##onder
nazi
wave
reference
diet
doct
missing
##17
creek
asp
entered
helps
bodies
grass
volume
beng
168
##iform
anna
wy
reve
sides
plate
arrested
indonesia
##light
roger
despite
controvers
fern
##state
##cules
##iop
##ws
knight
##ledge
levels
titles
prisoners
category
philip
attacked
transit
punjab
nich
acts
saying
spect
ye
##iden
overall
direction
dna
policy
course
bun
athlete
prec
alexand
##onent
##arus
bou
bart
howard
physician
ski
##erved
theor
refers
vs
##ista
longest
giant
sons
##ivity
priest
jordan
reasons
consist
drums
sain
##ration
##ulation
owner
sixth
puer
prote
regard
kam
alfred
lyr
ages
speaking
##con
##eda
##otte
print
convention
sie
materials
via
pitts
lic
ded
desert
quant
races
yout
cricket
push
wed
rober
images
rhin
##medi
cass
yet
##asion
##oca
sell
happy
jay
arrondissements
quite
##bed
salv
ronald
controlled
##mo
diagn
##ault
growing
1940s
cape
##rig
bure
wants
##orts
finnish
shir
cloth
crow
wings
##rad
trust
173
##iang
21st
rangers
mes
1930s
restaur
assass
motion
ry
##ray
sugar
##ects
adams
warner
calv
graduated
tyr
thus
bey
##phone
##encies
##oral
serious
else
1903
pin
##olved
neur
guine
recognized
juan
declared
transfer
looks
dick
##cyclop
churches
1905
habit
alumn
coal
sympt
orbit
column
replace
send
##ging
connected
shin
##ante
allen
violin
brid
address
davis
hamilton
bottom
colony
ranked
mouth
margar
managers
percent
evil
##ening
consists
virt
exact
##eing
edge
departement
muslims
fear
agent
remained
gulf
##ety
##where
fields
1907
discovery
normally
defence
captured
enemy
##dorf
trip
puerto
##arl
##ayer
explos
protection
##town
wit
reagan
##anced
illeg
prix
##anks
cardinal
males
easy
lakes
encyclop
##pool
vert
somme
##enne
syl
##oses
buff
rick
##lyn
songwriters
##fish
##40
ip
barcel
myst
libert
osc
stu
mps
##feld
##road
##fff
growth
theme
jump
##yth
##sk
females
jess
##isms
leaving
centuries
hands
sweet
dub
##hatt
##ingen
planned
##porary
nebr
concent
traff
condition
##die
maxim
sri
##tha
indic
baltim
nebraska
##enh
poetry
earthquake
tan
##lan
166
earned
sard
whit
mention
##orney
##iko
headquarters
##char
chlor
spin
magic
covers
bruce
##zh
peninsula
legs
rural
calcul
authority
financial
##avia
variety
venezuel
romanian
duch
passengers
##ocol
bene
##mouth
alone
issue
hamp
##put
defeat
domest
significant
bureau
alumni
baltimore
##ando
##oster
herb
buy
personnel
looking
flying
scor
##inth
aired
hp
atlanta
grey
gray
##aceous
walt
nepal
fit
nfl
neut
sched
##anny
device
reaction
##ello
officers
criminal
##eline
annual
dogs
##do
parks
diseases
hugh
##uct
users
sense
bry
eag
votes
unlike
alphabet
lion
1906
##wart
poets
soldier
femin
borders
properties
ny
##alem
##iti
purpose
frederick
toy
display
geograph
attorney
classification
perman
carn
barcelona
1909
clean
cryst
##otes
4th
exchange
arrang
cum
warm
miller
directly
melbourne
alcohol
##cano
calvados
sor
brun
completely
behavior
eleven
responsible
sod
##ester
forests
circuit
shop
provide
russell
kevin
holds
summ
satell
sr
##pton
liquid
lyrics
eric
hyp
capit
dangerous
orthod
adopted
selling
activity
hits
##je
lev
singing
pianist
studios
dancer
hollywood
pays
##haw
orle
##osphere
torn
leaf
carib
tribut
houston
dallas
fresh
colors
carried
comedians
historians
##ception
##oration
occurr
pittsburgh
##ruck
broke
1904
gon
##imb
##aho
underground
pitch
distribution
##uz
naval
billy
flower
safety
hors
ober
##cia
decision
wrong
##inia
strip
supporting
franklin
constitu
electricity
favor
##udi
tries
everyone
experience
vent
##ido
question
orleans
nut
##time
ability
designer
phoen
clo
120
orthodox
##omm
playwr
hosted
##kes
##wall
twin
pattern
jerry
##div
munich
armenian
couple
symptoms
worth
engines
meeting
sounds
##hattan
aar
sick
##arily
discuss
lav
pakistani
approach
hid
##bre
##adesh
metro
invented
##omy
whom
jimmy
##oshi
lots
rice
repro
goog
agreement
price
correct
molec
user
rare
##ao
pull
##atar
animation
biology
renamed
mong
##eless
##utional
catch
sah
##illes
guest
harris
squad
vik
zh
ign
bann
alliance
escape
negative
dh
paid
territories
datab
1902
##bean
learning
gordon
vinc
##car
floor
extrem
17th
##wich
##eded
buck
pow
##oa
sales
increase
youtube
nit
dvd
shel
manhattan
##sky
milan
response
circle
immigr
##gas
1800
clay
waters
save
thousands
hawaii
johnny
analysis
##uits
remember
semi
cuba
nak
grav
tracks
rise
boeing
roads
tol
atm
carter
claimed
##ping
increased
ss
##oro
crimes
repe
share
norman
recently
##25
nev
bath
bacteria
luxemb
##ibility
bigger
concern
galaxy
##zburg
knowledge
##elli
##usalem
cord
file
uncle
brief
christians
cert
resc
operations
ballet
sv
sao
kills
aviation
employ
jerusalem
methods
diamond
guinea
trou
margaret
arc
ordered
describe
principal
##tered
description
##iber
forward
##agen
matthe
ghost
##eller
google
5th
tib
##elson
wonder
managed
cret
##kee
normand
chanc
banks
choice
cabinet
density
scene
twel
symph
shut
##ogen
16th
##asia
##obi
rocks
faith
dir
tob
plans
genetic
opposite
osaka
##iano
##aph
contact
lies
warri
armed
socialist
bour
##tv
clark
core
demon
gam
##usc
treas
huge
anderson
167
percy
theater
impact
listing
wikip
##mission
##cles
164
fuel
pp
anything
construct
ambassador
caribbean
##23
diego
environmental
utah
lank
##enue
serve
lack
trin
jobs
agreed
##bl
##tm
dress
synd
##ascular
fab
zo
worship
lasted
matt
everything
interact
classic
insects
intelligence
hampshire
fans
sulf
chain
##aware
miam
##mat
debuted
moves
compared
trav
##ascar
straight
dates
rav
##ifer
##di
milk
1899
custom
emerg
##urg
height
ted
holland
##izing
fro
##fe
partner
arabic
alternative
miami
##eme
##emia
samuel
stated
##aver
archb
flowers
speaker
combined
##oku
##anthrop
twelve
breath
entry
applied
resources
scar
finals
volcano
butter
desc
attended
perfect
uns
hydro
focus
rene
tools
shad
##sters
content
expand
bapt
novelist
gib
##uda
household
##holm
estimated
##sequ
relat
organized
anat
meite
##iph
retire
##unk
cris
officials
doub
guns
##xual
acted
neck
adapt
pronoun
##atherine
fan
chrom
jacob
boat
broken
appearances
cbs
rif
phill
throne
harm
script
thick
begin
southwestern
iceland
technical
bes
##alle
hug
##ni
cretaceous
eu
idaho
follows
incumb
instrument
maz
##rat
ecu
earliest
coron
wrestlers
##gi
rid
##hel
sure
translated
yug
amend
##umin
##ods
imag
failed
executed
ryan
highly
maine
divisions
corps
shooting
cem
##26
##ighth
muhammad
montana
##iley
monte
rapper
learned
fossil
rough
determ
difference
slavery
chancell
##mund
##uri
##24
##racy
pret
surviv
influenced
defined
hunt
kashmir
coc
rena
61
jama
gran
moore
dominican
teaching
birthday
eug
mit
param
cycle
##nia
##ocard
bran
metres
detect
revolutionary
disorder
equip
incumbent
yok
##cht
##angel
amaz
tourism
proposed
continu
gamb
panc
sty
163
emot
##ontin
palest
meitei
robinson
synth
scen
ruler
vit
pel
thro
medals
provided
string
advis
##heimer
##rees
##ferences
nba
meg
commonwe
ethiop
hydrogen
lud
vas
ending
infant
reality
walls
sens
ministry
titled
mental
sult
##assic
1895
##uku
rhyth
christianity
##wig
township
jefferson
commonwealth
infar
explorer
##iya
settlement
##lement
cantons
dave
kra
attention
1896
camer
violence
suffolk
infarction
counter
visual
peng
vic
##28
##ailand
accepted
mm
##sec
##27
meat
##oba
rgb
trail
archive
##oir
##stad
departments
documentary
surgery
conver
baron
delaware
presented
alger
demand
peters
zero
##esar
##rops
plus
##uma
quality
clinton
equipment
hur
##leman
sarah
immedi
runner
gironde
##fri
165
poison
virus
lan
heb
1890
shaped
items
defend
hunter
##aling
screenwriters
candidates
phoenix
acqu
cooper
myocard
benj
saturn
##adi
franch
coff
tribe
illegal
remain
continue
ivan
database
thunder
joint
sul
personalities
featuring
adventures
journey
install
carlos
jason
heard
169
nbc
##wald
stayed
ll
##incorporated
liked
formation
##bro
satur
emergency
##hen
throw
door
poems
tribes
##rom
alz
unincorporated
extended
colombia
myocardial
achiev
gained
zur
respir
diplomat
ecuador
sau
vehicles
##mitted
crashes
##yt
domestic
ain
mist
ni
occurs
autonom
thailand
unc
barry
trophy
congressional
electrical
cot
##opes
austin
sets
1898
lanc
##apolis
wikipedia
napole
6th
##igg
soph
##leton
risk
mans
attach
cad
sess
wet
##ovic
adults
register
purple
barbara
agriculture
##ered
nevada
audio
resistance
clothing
vlad
ft
murr
##iven
invasion
battles
victims
divorced
hope
surn
tab
truck
nothing
159
videos
required
tox
800
cere
flash
switch
creating
separated
particularly
philanthrop
standing
fleet
slaves
1897
nelson
##dale
##ouver
leban
##iki
saxony
##ctic
oliver
productions
moment
benjamin
j2
dod
stream
luxembourg
lig
tang
soil
photos
lap
##enberg
ens
singh
noble
sunday
maintain
##rene
zoo
teeth
##via
abc
scholar
seventh
resigned
oz
shared
fine
kang
pont
##page
nomination
presid
extinct
eating
sword
mediter
senators
injured
armenia
codes
debuts
costa
vincent
nasa
advert
patri
scholars
600
kit
1893
experien
##ranean
archbishop
jar
##ask
filip
typically
essex
grown
pair
marin
heavyweight
##ilia
gust
um
disapp
positions
functions
kin
##bing
##yd
moroc
infection
##esco
alice
withd
110
bald
anime
wayne
literary
approximately
malaysia
kids
pav
medium
michel
opposition
gate
mig
presenter
movements
rhone
##ieval
yugosl
rum
##no
##ovich
##agues
actions
155
charlotte
ri
xbox
drivers
appe
terr
biograph
massac
marshall
##mes
liverpool
##itis
shortly
mitch
##tr
economist
tunis
affected
matthew
##haus
##cker
pruss
1889
survey
ech
vanc
##thal
alle
belarus
luther
hurt
##urer
syria
publishing
morgan
ottoman
aw
alive
reserve
painters
performing
7th
rou
charlie
denn
rush
intel
critical
bernard
onto
colonial
pip
##29
spy
gary
1920s
punish
safe
doctors
pengu
##oni
##atch
pole
stev
heads
advance
cous
fellow
lingu
occur
mrs
##oz
communication
##osa
particles
##66
##nie
guil
accomp
harvard
inspired
bibli
neighborhood
traffic
ov
slight
phone
behavi
sultan
painted
insee
selena
mediterranean
mall
partners
residents
dram
vancouver
migr
##ente
##stan
prel
saudi
##born
secondary
##onym
advanced
roberts
cemet
identity
pyren
spider
symbols
##etime
ble
arrived
changing
require
kath
phr
moz
revol
transform
cemetery
kiss
pale
pyrenees
gender
fossils
clock
ian
kaw
medieval
filmography
transportation
700
treated
benn
yu
##athers
hitler
herself
##enos
strik
##illo
nash
##iens
##emen
##akia
##erne
weigh
slave
experim
chilean
oscar
##mun
orders
##ourt
1892
convicted
stor
##aceae
finds
hud
calls
automobiles
dedicated
mentioned
tibet
##olo
radiation
ja
wag
158
temp
coastal
cats
##eno
13th
classes
copper
##achi
##cla
eleph
##mingham
croatian
waves
##gau
##roph
heav
cardiov
##lication
translation
permanent
faster
##mi
arena
walker
bones
##imir
##ogne
##auc
cathol
afc
cardiovascular
haz
orb
birmingham
##eva
##rell
beauty
##bir
hab
monster
showing
reflect
grace
narrow
rein
comune
##ibly
seattle
worst
compar
constitutional
target
gur
wur
noted
rhythm
interp
wright
joan
devices
robin
brooklyn
##inals
turns
diction
alzheimer
kap
stores
##amo
dean
plain
abra
contem
pregn
electoral
rhine
por
##rome
shark
founding
presidency
##agu
outer
subdiv
degrees
vehicle
urug
250
statist
florence
##iere
##arians
hein
remaining
causing
##wise
##itors
##ogy
##ichi
serge
larry
signs
promoted
springs
provides
tong
##phal
flav
uruguay
catholics
batman
##asaki
isa
##umes
serial
provinc
fishing
##ls
##wers
153
queensland
##orig
1861
ultim
seem
feed
nigeria
##rates
anch
atoms
remix
stockholm
htm
heaven
tehs
knights
courts
continental
hyper
magnetic
chance
necess
elimin
stein
protected
layer
satellite
indigen
inventor
retirement
chancellor
bin
##21
##utt
breast
##iable
admir
1891
honours
##oxide
diagnosed
stick
flo
##bul
##ele
suffered
boss
nas
pione
sung
blind
##ruption
pokemon
gather
##pur
adap
occas
damaged
facult
ral
income
1888
##omot
shall
legislative
aborig
scand
poem
chron
youngest
visited
franchise
kum
frances
indigenous
mystery
##issance
depending
passes
campus
leadership
rah
compil
carp
choose
##berry
kick
democracy
ske
prey
baker
ich
##lem
##ivia
revealed
supply
tourist
check
figures
gone
suz
discover
easier
committed
ig
##ogue
murray
goth
##amese
colonies
##uster
wol
##eh
##rap
seb
spot
serbian
fully
gym
homes
##orph
##imed
8th
15th
democrat
hole
##riel
knock
astronaut
amph
149
angl
jacques
divers
mul
##rh
theod
130
1887
looked
mercury
sisters
##stre
##room
nickel
mate
cyp
##ivals
knew
voted
parishes
sardinia
##othy
ferr
dish
values
physiology
purch
pent
##joy
##emony
drummer
##force
sak
##organ
yorkshire
barn
##iji
##igo
subt
useful
##atsu
martial
hebrew
tat
steam
1885
issued
opin
##hard
internal
goods
clothes
encyclopedia
mail
ist
chose
##aco
limit
machines
##ei
##king
pradesh
154
governments
newspapers
styles
1863
benef
amendment
hend
liz
felt
vaud
##oda
compound
1894
naturalized
message
thor
talking
settled
answer
bone
avoid
guer
capac
foods
anthrop
cha
stewart
composition
railroad
psychology
tornado
respiratory
gain
mine
none
##ju
didn
##rain
##ously
smart
owners
##load
mud
seconds
##resp
warren
mongol
abraham
##erc
##eston
##pson
##anic
athletics
unique
arsen
##lie
blog
156
killer
mck
##kan
##chem
##igi
##clus
subs
views
##standing
wine
##kir
unus
##rah
therm
arnold
occurred
##ture
chick
marit
##enson
##ollo
1883
elder
bug
ms
##uge
playoff
joy
expected
achie
alongside
##asm
marry
hundreds
overs
##etics
##ibr
operated
tap
##ulu
shell
triple
recon
aires
honey
gardens
extreme
croatia
playwright
##aza
represents
academics
##oven
prior
experiment
severe
buffalo
hub
veter
leo
horiz
hunting
till
##aws
educator
jonathan
venezuela
##fa
##oux
##bria
##aurus
factory
firm
berg
tiss
wound
##otic
reserv
organic
##cript
holding
cn
anyone
holiday
fisher
##mel
interested
obl
salzburg
thompson
occupied
##life
##rim
##father
descent
describes
molecules
hob
##opter
paralle
combat
closely
individuals
mouse
1882
conservation
dancing
challeng
kob
##vo
strug
proph
finding
rebell
audience
pc
forb
broadcasting
##friend
bog
mond
##uls
##ption
format
steven
columbus
narr
gross
lenn
##rol
palm
zurich
hann
##ivore
##oker
agree
1000
honour
reports
rib
chat
##izu
103
angry
beyond
cote
##bell
##yer
termin
recordings
sharp
beatles
extremely
##uff
##fs
spons
mathematical
slowly
tomb
##uman
10th
1873
hav
##lies
brig
157
capture
12th
ceremony
numerous
sort
1865
julian
symphony
kab
provence
sacr
tiger
luis
selection
filipino
provincial
##ifying
1862
##aug
##amoto
obtain
luck
persons
gabriel
mack
bobby
https
diab
hond
lah
tort
griff
meets
branches
kle
rach
sic
abbre
atomic
bibliography
1864
nan
##bal
##istol
upd
charged
##cious
obama
1880
eaten
succeeded
cardiac
judges
kidney
bridges
##gie
fired
depend
supposed
speakers
crisis
slightly
##eta
weekly
abbey
##iser
seeds
newton
estate
breed
1879
planning
bil
nest
vul
deliver
dust
1860
surrounded
gol
##icial
##ache
chemist
guitarists
broadway
escap
electrons
bowl
##hawks
napoleon
arabia
tod
reject
smallest
passenger
confederate
##burn
##ici
##iri
stands
inner
buenos
guilty
tend
##rum
index
regul
astero
multi
wish
##ivan
##aste
partly
exped
organisation
vend
shim
organisms
chand
valle
portra
cards
murdered
sloven
terrorist
##alty
##ector
monkey
1886
receive
survive
saints
##isch
distingu
pancre
cod
##cing
##eto
minute
serbia
ds
##vian
leagues
peop
14th
finance
##agne
##owski
adapted
tig
abol
wealth
gi
josh
basis
1870
photo
nicholas
##bar
##rance
##aku
disaster
coord
decide
##oshima
keyboard
participated
offered
##ternal
camps
indonesian
aj
iw
##imp
basin
madison
atmosphere
lose
harrison
haute
kyoto
cort
suggested
peoples
cloud
childhood
louise
sag
tip
witch
server
101
##onents
drag
delhi
distinct
thinking
linux
tet
##ebra
soap
outstanding
cuban
situation
dropped
aur
lis
tube
vision
##kar
manga
blo
compete
baden
enemies
spiritual
bulgaria
fighter
lect
truth
applications
geomet
refused
definition
rar
wii
##ithm
catherine
##antine
differences
mete
burns
##etes
##aging
##akers
rocket
silent
autobi
potter
kun
##rix
1868
soundtra
saturday
formal
landsc
1881
aquit
demonstr
##su
gren
##text
eddie
11th
oxid
inher
filled
##icient
suit
epic
thirty
claims
declar
maced
rit
tank
##iant
harold
1871
orient
survived
immediately
jet
##agh
enjoy
##boards
##uka
connection
dinosaurs
gent
##uv
##omer
moh
graham
athens
nur
yonne
##gio
##uto
emir
decre
publisher
opponent
mant
mick
chel
paulo
cable
edin
trouble
pied
reception
canal
allies
breaking
pronounced
contemporary
statistical
ralph
ng
mayors
gymn
roots
leads
cyclone
integr
lanka
dennis
dictionary
perc
camera
challenge
pure
printed
protestant
aude
va
ingr
grad
operas
duck
weapon
exhibition
shock
##lington
daughters
dwar
##ea
##anne
##ographer
##ielder
signal
documents
plastic
loop
stuart
ps
solution
##elor
tri
##inner
educational
sudden
yosh
##anes
##ears
appar
thirteen
industries
kilometers
##helm
faculty
##iago
##rot
serves
strike
performances
autonomous
3d
1867
walking
vladimir
sib
tick
relative
125
raf
caught
danny
burg
essay
laboratory
rings
##rod
collab
mask
interpret
allied
nova
evening
talent
teachers
papers
360
cinc
##lon
byz
corresp
engineers
encour
assassin
eagle
instruct
sind
##donald
rival
apollo
protests
pupp
details
correspond
##set
##ipped
chapter
belt
1884
aquitaine
wire
##zer
##orus
##omi
##rep
sheep
##place
injury
celebrated
friedrich
bengal
shakes
actual
perh
140
stef
sequence
sentence
pancreatic
mik
##aba
voting
##gov
##ierra
jup
##ieties
expensive
files
representing
##etta
hammer
fixed
parallel
rating
vin
##bu
##fam
andy
ready
southeastern
importance
motors
picard
sop
stal
perry
coat
locomot
perhaps
##anni
introduction
leop
marks
##acing
resident
superh
popularity
links
exactly
aid
lamb
tub
romans
losing
oxide
involving
##ohama
astronomer
aboriginal
##fully
1872
projects
surrounding
concentration
edinburgh
##jar
accused
parker
convers
photographer
otto
900
kos
##ader
beck
##yler
1878
raymond
altitude
beliefs
yokohama
coffee
disab
##ublin
absor
##ocaust
shore
advant
bened
ferdin
concerts
lisa
canc
constell
grande
francois
investigation
aub
lob
rico
sig
ordin
athletes
massacre
cincinn
golf
stages
phyl
##igny
sentenced
toxic
behaviour
##33
##urance
holocaust
##80
##oned
nee
virtual
unesco
mini
basil
portray
cincinnati
eighth
nok
##unity
##sea
##60
usd
mode
nazis
##aman
stress
promin
ard
##ahl
skull
possibly
questions
ernest
maurice
9th
lil
##45
##fta
conducted
nickname
friday
adj
avenue
continues
##bow
##gate
stom
chocol
arist
trained
barr
1857
horses
renaissance
lem
shan
1875
sovere
jupiter
ibn
sovereign
commons
blackhawks
paras
vermont
housing
drop
hut
##uke
##ographic
honorary
##prise
crystal
porn
##furt
##elia
chal
##ieres
cousin
hamm
lag
##eed
##uy
geneva
religions
kg
nerv
loy
surname
geoff
airpl
citizen
##ns
##ario
cream
wilhelm
networks
temperatures
existed
hugo
bic
og
##anche
keith
darwin
dict
chan
chase
uss
##oki
boh
minim
voy
decor
shadow
ein
backing
anglo
assign
biological
potential
##encer
##velt
volcan
commerce
lt
len
sale
##gra
##opa
overview
rulers
pi
tin
##vent
rear
luke
adding
##etti
tommy
broadcasters
kilometres
##sch
##ridge
##22
1869
planets
curt
linked
gosp
##agi
##uled
congo
meteor
ki
arde
amy
landing
hurricanes
##pear
##idi
##izz
gill
giov
##eton
vietn
laz
ug
##geon
roose
marked
streets
choir
telesc
fib
##gom
##wi
profit
##minster
museums
eis
terry
typical
snake
vess
##bus
##iations
philosophers
petersburg
vietnamese
amp
mend
reich
competitions
random
lloy
tok
prague
1876
tests
kurd
bachelor
jennifer
eb
sap
santiago
crypt
shakespear
lane
inches
##esse
##oga
devil
reduced
abu
root
increasing
##greg
##elles
maximum
gw
pere
ridge
##nik
predators
marvel
##aca
helen
##48
105
##boy
assault
roosevelt
dy
ion
genre
interior
annivers
wallace
corner
##rin
deer
##hips
visitors
syndrome
tamp
##ui
claude
garcia
kazakh
bub
##xx
offices
belongs
kre
##enders
creator
rocky
mcm
mile
thorn
##rac
amster
measured
identified
rolling
mitchell
lun
pup
##sm
##rate
##isph
larg
skills
sitcom
##borough
feeling
bosnia
gn
kay
tir
ori
spong
smok
interstate
cultures
situ
tallest
unusual
shakespeare
jail
##35
##ionally
equation
false
amsterdam
gand
##esa
tea
tales
possess
boxer
graduate
stomach
amounts
manuel
147
merch
collins
rescue
descend
jum
pod
yank
stones
neil
artific
attend
novelists
combination
pine
##sole
latter
molecular
cotton
britt
airline
refuge
paralympic
ride
145
incorporated
camb
legislature
sharks
bafta
rodrig
herbert
induct
mining
simpson
cosm
anniversary
dublin
hed
developing
wwf
morocco
bish
cave
jin
##maker
##iring
denver
cyclist
##inned
strange
statue
patients
parkinson
cattle
communications
lac
##umi
phen
grandm
1877
1859
stronger
algor
bac
beet
##ishi
nigerian
attached
##olph
107
retrie
rogers
jurassic
hauts
eliminated
soundtrack
nokia
masters
talks
sebast
lon
isab
##landers
turner
nominations
capacity
bold
##raction
delta
murphy
restr
1848
gregory
wyoming
relatively
##fly
franz
glas
venice
dialect
suburb
superhero
foster
horm
##iling
forg
##ensis
angle
burned
caesar
progressive
scenes
ost
##hn
##asts
publications
ceo
pedro
lloyd
yang
##away
##osexual
fi
##oping
##imar
produces
antar
doesn
sanders
ottawa
bulgarian
ardeche
kel
##ige
##estone
massive
sz
##roid
##apy
particle
metals
democrats
existence
cec
##oly
copy
colonel
aber
##fare
##ingham
chop
console
obit
krist
commissioner
duchess
expedition
##come
##99
endings
opport
elementary
respectively
marath
phase
murders
factors
##ymph
subjects
ric
tusc
abuse
crimin
statement
cinema
sample
font
##ering
genes
craig
kidn
##si
##fia
reun
##berto
grows
chemicals
improve
pyr
sony
##gne
##uh
##atra
seal
cler
piedmont
jav
##cod
beij
unable
apost
constituency
biographical
##agre
prefer
115
sussex
athletic
sacred
pleas
dame
##erse
mann
returns
heroes
ferdinand
##oons
##gal
theolog
##amps
sierra
##ppe
##works
ruth
bangladeshi
picardie
finger
##gow
##omon
##neth
farming
characteristics
sodium
fuku
##atin
##ality
##oust
##irus
##uez
monaster
gif
mull
proof
pep
campbell
montgom
disorders
tool
northeastern
laure
indians
##arth
worn
##manuel
evans
necessary
##low
bears
warsaw
hudson
kor
##otyp
bever
##overs
pearl
cock
lomb
##usa
exerc
germans
1850
primarily
salvador
habitat
dad
nin
##sburg
classified
auto
injuries
skiing
favorite
ethiopia
chocolate
montgomery
charges
standards
programme
tyrol
##net
disasters
businesses
pse
##arin
allier
148
sculptor
hearing
coordin
hide
##idad
application
granted
restaurant
cash
lope
ment
##yo
##lock
##inum
##itus
bread
cricketer
dating
analy
bee
dioxide
haiti
rebu
fluid
ladies
##bb
##zi
##aking
brom
setting
stops
violent
focused
writes
##ussion
periods
giants
html
fung
grade
##endorf
##ahn
franco
buddhist
utt
##37
reactions
gilbert
criminals
beijing
nancy
##night
##ateur
techniques
hidden
ou
##van
exam
128
valent
incident
vii
swimming
initially
vacc
botan
regarded
yugoslavia
##stream
morris
banned
vern
##ski
currency
ranking
guardian
kate
##kov
##inus
tot
chest
##illon
trig
##ifications
patient
rhode
nadu
##icia
toward
##idel
##ogo
studying
helping
duty
falling
cheese
neighbour
roof
glac
hosts
hemisph
##ieu
##anto
residence
crist
traded
mixing
alpine
roughly
##stadt
declaration
pseud
sean
edwards
consult
fourteen
texts
isaac
portland
illustrated
phrase
pon
airways
vegas
collected
magazines
reduce
thinks
survivor
loud
1858
tehsil
bast
fruits
##cese
evolved
1874
##oslov
##fcfff
##38
pries
##iolet
127
presenters
disappear
bam
dio
remove
1866
testament
##uchi
farmers
mechanics
wagner
admiral
wes
polar
expans
lightning
keyboards
burning
capitals
forever
westminster
ports
budget
chapel
witness
##47
northwestern
advoc
nico
rey
##uro
chate
marg
containing
smo
accur
raid
equival
atlantiques
withdra
storage
tul
##caster
parad
substance
keral
##nell
##contin
stret
purposes
aube
lions
pill
##46
##onso
heir
alberta
##world
baptist
legacy
ceremon
spacecraft
sarthe
cair
helic
literal
headed
relationships
loan
empress
giovanni
lopez
##inction
eve
czechoslov
tributary
##pers
##asi
emplo
protein
quantum
##aire
beth
producing
downtown
factor
crossing
recognition
##gart
##iled
##umed
edited
fairy
tasman
cameron
##icas
##rete
##ete
##ection
moons
armies
atlas
henri
vamp
##emberg
driving
leonard
harvey
nicknamed
ud
improv
kerala
gast
##ched
aband
origins
liberation
kop
pm
##mers
institutions
tiny
evangel
1854
vary
minority
rebellion
artificial
##49
chore
##outs
guild
mainland
collections
cooking
lebanon
##umental
##estyle
plains
statesman
##psons
occitan
authors
bullet
hiroshima
miy
##acher
##enses
routes
typh
eugene
drew
mold
##ictions
berke
ml
wien
butler
volun
institution
sudan
frequency
nomine
jak
##ining
##ication
cheap
petro
lifetime
##rine
##amas
##arta
authorities
susan
ranges
telephone
infin
passing
##atoes
mechanical
infantry
##ht
isol
##ebo
para
funeral
tum
##aa
prost
strat
expos
volt
picked
drinking
gonz
inaug
reed
##abe
##ials
adolf
##ologies
imprison
surrender
flanders
##ses
##fo
##anian
exists
parag
angels
##apped
planes
wearing
lip
nun
##wing
##abi
presence
simpsons
aux
resulted
graduating
cruz
understanding
largely
##uania
##fielder
##ilo
##iah
parent
elli
villa
keys
allowing
closer
loved
writings
1851
derived
##rising
homer
task
berkeley
kas
kurt
riv
frag
kirk
frequently
agricultural
controversial
hog
##fast
dee
fires
##ttemberg
resulting
diameter
lithuania
precip
liberty
nort
##amer
indo
empt
scheduled
tuscany
nascar
##gs
fever
auver
richmond
woods
tale
##rik
anarch
##aments
knows
visible
byzantine
fold
rus
##oj
##erd
disk
keeping
opens
siege
neutral
cauc
wiz
##oted
chad
adela
##issa
courage
maple
punishment
##pat
deuts
cliff
viii
kenneth
grammar
celtic
##isha
gameplay
technique
absol
excell
buddhism
##aks
afterwards
rifle
wurttemberg
ninet
##eon
##lying
tru
emperors
effective
anthem
percussion
##woman
marx
exclus
successor
##ienne
caval
rachel
wool
ya
compl
miner
albania
fifteen
watson
ahmed
dum
vast
sees
##odia
infl
myster
storms
##encia
ancestry
amphib
auvergne
cul
jor
##folk
chi
spoke
offers
subsequ
designs
crops
viv
##eim
##mad
##ilis
stable
seems
109
1856
measures
philanthropist
iz
rept
entrep
insurance
restaurants
temples
benedict
rated
##dles
##ocene
cole
##ails
chromos
paramount
cp
##36
neph
laura
fertil
wildlife
nix
ply
##atem
##cket
pray
discip
sans
forum
##grade
alpha
mim
brah
boris
lowest
prisoner
premiered
logic
##ovision
asc
102
circum
generals
suffering
graphics
tributaries
##family
bent
fitz
sull
vil
hisp
##active
135
##rett
##ipping
computing
claud
astronomy
hughes
dw
riding
tyler
##rano
frame
chen
trek
decisions
occupation
warriors
expanded
hired
##atics
##ovo
quart
linear
trading
psychiat
electronics
algeria
rica
seoul
colored
processes
abdul
brooks
controversy
bid
##child
shield
arctic
monsters
gerald
pool
infr
uran
diesel
johannes
##iformes
thai
centen
depos
138
skill
terminal
jamaica
##orous
monument
grandfather
controls
boxing
ace
##itter
testing
drawn
prussia
rarely
mtv
##alt
##uba
coins
surf
##lett
maker
##cription
panama
anchor
ordinary
dia
##jani
mineral
imposs
elis
grave
suggests
##rill
breaks
cornwall
dimens
gravity
prominent
sut
##edd
waste
spend
genera
canadiens
defensive
##apping
cardinals
channels
qualified
rising
linda
##eenth
accompan
caf
edu
##pm
dement
##odon
recomm
meter
researchers
organs
carrying
hemisphere
nose
pam
ord
blow
releases
locations
dawn
cyprus
expansion
entreprene
rip
wheat
philippe
improved
suburbs
summers
chicken
diabetes
##opl
newly
tested
dancers
steps
swimmer
elephant
beer
eurovision
holes
km2
navig
odd
pirates
explosion
normandy
opinion
jag
tic
##etical
##aye
##ortion
##ocent
estonian
1855
todd
volcanic
rig
tut
##gang
##uil
junction
simpl
sight
guatem
harmon
rainfall
chuck
strateg
wells
##itarian
festivals
tunnel
repeated
ced
##ozo
##raine
usual
destruction
facilities
saxoph
amazon
sebastian
##ading
consp
arrow
intended
tourists
promote
observed
entirely
ludwig
ultimate
shaw
trent
##aha
influential
approved
settlers
threatened
wedding
crowd
toul
##ovsky
uniform
pharm
volunte
vow
##esp
##lee
depends
taxes
bruins
constructed
pioneer
oc
##cott
ree
##ching
##ayan
prostate
##phalia
edmund
wooden
successfully
janeiro
eco
##zon
##most
fract
##enda
revenge
wounded
gem
##hof
##enzo
137
explain
jsl
nou
##agua
129
##asha
supports
execution
##oi
alien
meth
norfolk
basse
amateur
reaching
recipients
landscape
isle
shorter
seed
spaces
glen
ruling
returning
cdp
dolph
##pro
crus
hamburg
mixture
sandy
experiments
precipitation
marion
##ressed
crust
##hran
bryan
reprodu
brittany
manus
##hausen
tissue
gum
hack
civilization
parliamentary
vor
stored
warning
##bek
subtropical
playoffs
ninth
##elin
manit
108
##insky
expression
nikol
advantage
nurs
alto
worker
publication
boundary
vegetables
gospel
##emy
craw
bombing
magnitude
saved
fernando
mg
##kt
sections
colours
euro
attempts
bats
ing
unter
herze
westphalia
millions
supern
skeleton
kom
##lings
##aran
chamb
boats
brab
michelle
hardware
locality
anglican
wake
anto
smack
photography
multip
1815
ghana
julia
propos
criticism
traditionally
portrait
impossible
##essa
educated
succession
expert
platinum
recipient
occitanie
##bn
##coming
##anie
bristol
proteins
gustav
baldwin
adelaide
a3
furn
gates
nice
##acle
##tons
106
strings
instrumental
oakland
anatomy
dementia
gaz
mild
decade
archives
convent
axis
biochem
##keeper
gott
ville
##recht
118
efforts
surviving
normandie
wang
##amic
##amics
##amental
spencer
sixteen
silk
glasgow
wick
resort
populations
117
landfall
talked
737
prelate
wend
heath
monten
104
edgar
moder
accel
homepage
antib
lesb
friendly
photographs
nashville
herzegov
jury
sust
°c
##umer
##rib
pete
processing
criticized
warrior
uz
##ned
##iper
galaxies
tigers
##erm
##erts
##roe
##ibi
charity
hood
scope
calling
mats
##aji
healthy
qualification
lennon
tampa
##yon
download
ranger
##39
##rec
proced
decades
summit
##odeon
##body
##pie
justin
1812
miguel
##db
##ective
crocod
derby
goalt
pilgr
coalition
sank
##erg
##uter
##udes
##auer
invited
argument
converted
aus
gy
##eness
ald
##esty
guar
sonic
##monary
ions
##eri
##ulate
shops
context
seeing
opposed
nickelodeon
jaw
sara
disability
window
handed
administrator
masc
tou
##dot
otherwise
##inae
139
entrance
##monton
transferred
aaron
herzegovina
daw
gel
##eo
##cop
##atus
##star
chiba
worse
cargo
raise
equivalent
dos
stim
primera
##licated
julie
hanging
mph
struck
asks
centers
edmonton
decides
chloride
dwarf
nixon
mam
##ben
##cs
##andez
medalist
cumbria
determined
ff
joins
proved
##unda
malta
taxonom
distinguished
retrieved
rican
taste
##orian
##itals
item
agents
##aukee
accidental
penguins
##idal
span
##ilda
##ennes
listen
olympians
azur
physicists
initial
principles
credits
constellation
eg
##inations
##ebob
bless
implement
strict
titan
initi
wu
external
fewer
ernst
pyram
manitoba
##nan
beau
##ipts
flour
principle
bishops
biden
pist
##ctional
genetics
runners
saxon
license
calvin
sitting
geometry
faces
##adors
americas
spelled
laid
consort
involves
schedule
sophie
##cra
##core
##imet
lex
brows
##brid
confed
lyon
naples
achievement
xi
zimb
##agawa
prayer
harbor
lights
1836
penalty
arranged
session
gul
sik
creates
humid
1852
bordered
throat
hipp
iod
java
theories
muscle
reporter
verb
felix
evolutionary
smackdown
taj
##olith
##urai
##ardy
##pping
directory
crush
146
bert
continent
coaches
julius
istan
wis
unf
pros
exile
schw
swan
betty
feud
milw
powered
reaches
yas
##itic
alumin
##crib
drafted
istanbul
cay
gers
deleg
variable
stanford
existing
dreams
owen
plymouth
cs
das
dup
##rical
##isf
##oko
germ
1821
colombian
confederation
ned
spar
formally
##inters
malay
1853
1837
santos
affair
hinduism
milwaukee
mason
fifty
hindi
lug
##riet
ana
stab
##ifically
battery
strait
fastest
springfield
capitol
renew
literally
nipp
estonia
charter
forming
legends
1843
utc
##ords
bruss
extension
erik
tours
turning
airports
##orate
##ifa
creative
solve
putting
1844
hawks
lords
homosexual
andrea
peaked
algebra
substit
intellect
gav
sized
##isted
trian
##quin
phones
glenn
traditions
##amba
domain
rabbit
jub
tied
##rose
tehran
syrian
##osaurs
geoffrey
850
hier
lak
piet
qur
rhe
##ulated
##berger
usage
adrian
associate
enters
broadcaster
flights
celebrity
shrine
households
##asis
emma
camero
devon
badly
denis
venus
legendary
scoring
uttar
##zan
##oney
##uta
carlo
batter
##yll
##colm
pulitzer
monarchy
archaeological
heavily
obtained
##imo
clan
##icts
viruses
attempted
rays
##cat
signals
historically
jackie
1849
ecl
kem
notably
consum
loves
monday
spongebob
gp
tie
##enko
##istle
119
servant
sulfur
sicily
dale
palestine
priests
brussels
dated
ras
complicated
##onds
recre
subpre
buses
malcolm
confess
temporary
1845
somers
immune
casual
promotion
joining
prepared
pitcher
##gary
neb
resolution
balance
lotus
keeps
##commun
feelings
credited
alexandria
herbivore
subprefect
ek
##itary
ster
portion
followers
nicolas
fuj
immigrants
assigned
##uaries
oral
relatives
creatures
##ullah
contrast
confused
snakes
1830
digest
appeal
nominee
ahead
telling
##hra
alberto
seas
believes
mosque
##break
reproduction
phenom
kham
acids
offensive
feathers
skier
automobile
summary
bourbon
pregnant
ritual
smooth
126
castile
facts
limits
blocks
hypoth
sullivan
triangle
nad
##rons
##ampton
##illery
debate
messages
fellows
molecule
nathan
riot
monk
invaded
reds
supplies
patent
manufacturing
feminist
employe
mou
ore
trick
dix
genres
##aughter
1847
girlfriend
regularly
ravens
heinrich
pepper
employees
ranch
##inks
##andro
notice
farms
civilian
explan
purs
dollars
minerals
jamm
##zig
orland
agencies
layers
bolivia
credit
##iar
##oric
twins
minne
##ographers
##ographics
##keep
supporters
1846
clement
defeating
travels
##bat
##uni
leap
spots
trio
georges
protocol
connects
1838
azerbaijani
mathematicians
tibetan
gm
yale
##oan
##lar
##aru
aragon
abst
1840
ultra
chelsea
paraguay
##hill
spa
martha
tril
morph
khal
bloom
kazakhstan
phosph
calgary
lucy
juda
goddesses
sidney
divorce
mast
##ailles
##rated
##esia
##ede
alk
demographics
delay
leslie
struggle
conspir
pump
unless
preserv
emil
midfielder
rhodes
assassination
powder
vendee
nac
##arr
styl
##chw
##enger
radical
##ushima
preparation
abbrevi
leopold
disabilities
ura
##umber
companion
luigi
fundamental
commentator
patterns
##rent
alv
shog
sector
##avian
enforce
monica
frankfurt
covering
cairo
##noon
contained
116
buddy
entertainers
requires
mirror
interesting
apartment
scandal
fing
idol
1841
sindh
##here
anders
##opp
seine
error
##ipei
conquered
cancelled
fasc
lod
##dp
##34
leeds
circul
destro
width
plateau
ingred
vall
##rams
##izer
inters
1819
babies
suzuki
entrepreneur
tone
wides
yemen
itv
acoust
themes
equations
explained
robot
crazy
kenya
tournaments
telescope
ticino
jas
vag
wer
##rest
towers
monuments
mines
##olds
wait
trials
indicate
experiences
bennett
elisabeth
aids
nem
##tz
afternoon
blu
output
submar
##going
drown
constantin
fukuoka
faced
##chang
heights
##iman
##anga
britann
skys
hearts
##ija
taipei
graphic
catalonia
monastery
fis
hok
lets
##aser
##omagn
##utation
##avirus
rooms
hercules
endanger
##agonist
measurement
theoretical
subdivisions
gig
pdf
##bruck
quiet
subway
landed
georgian
nicar
shopping
brabant
koch
##phis
##acles
bras
organism
latvia
savoy
lucas
carroll
riots
binary
pall
##hem
##arte
leuk
##oks
##ahan
announce
traveled
ltd
hollow
1500
quad
##ciation
##ynth
olive
tribute
costs
sculpture
oblast
diocese
orlando
minneapolis
##gender
jungle
argued
scotia
geographic
lamp
##fb
##mare
##icz
##imal
neither
norse
resemb
doors
everyday
closest
adaptation
tad
##bles
##mill
reef
repr
genoc
cultiv
1839
##flower
psychological
crowned
jesse
acquired
judaism
cun
##isse
##icus
consequ
farmer
##iii
dissol
asteroid
cogn
hod
kot
##hd
chip
artillery
instance
aviv
turb
victim
automatic
transition
sainte
registered
compilation
theodore
inducted
##fr
##mish
nept
##pert
guards
duo
dances
soprano
thanks
specifically
roma
effort
strongly
cornell
ambassadors
tunisia
horizont
nephew
intellectual
gc
##miss
marqu
honors
harder
phillips
##lemania
gymnast
dong
hij
rag
flew
essential
siber
guatemala
##apest
penis
mccart
gut
gap
##mus
##uru
preserved
quint
budapest
arabian
likes
categories
namib
lithuan
peruvian
ellen
diana
rol
editions
breeding
variations
screenplay
jeremy
princeton
negot
policies
randy
mozart
empty
dying
##eric
##aters
##asian
##apse
wore
manila
barber
harper
turin
autumn
marcus
kart
wc
##dal
forty
canon
carson
equator
troy
drawing
remembered
vat
emily
rash
##07
##enza
##oves
schm
smash
metall
greatly
profession
wrestlemania
increases
infectious
substances
shapes
##claimed
suddenly
theologian
##ulus
marketing
instructions
airplane
endangered
gases
tooth
stol
mayenne
feeding
servants
easter
artistic
windsor
kawasaki
overseas
bj
jp
mcl
pix
##zing
##rist
thames
boot
##assium
attraction
subsp
##yla
filmed
fights
nervous
pover
sask
util
##san
##dr
##fi
##vet
ish
##akov
muscles
cohen
barack
expect
societies
potassium
teenage
dorothy
##eli
warfare
palae
##oyd
facebook
centenarians
hak
chester
strate
sporting
defeats
grove
##while
weakened
printing
wess
##tor
##icon
##istere
136
1789
dialects
stevens
maritime
hull
##sson
##ku
##32
##iane
diag
aggress
soci
legion
passage
crashed
waiting
lynn
gothic
tape
##enstein
##atically
sole
avatar
receiving
copa
architects
ahmad
ji
yes
##wyn
prohib
##ondo
twitter
relief
sox
berm
##eshire
secretaries
inqu
##isons
beings
##bery
##ecies
mohammad
skater
railways
350
therapy
oriental
mlb
yo
##rors
##cal
##pass
barrel
grandson
chev
ratio
dalmat
achieved
escaped
mickey
cou
kdot
mumb
clause
providing
hoff
1801
qualifying
bringing
##rimination
strategy
kane
moll
mikh
##gard
##idays
##anton
colin
depth
emph
divine
retail
##unden
mills
libya
wolfgang
slovakia
rodriguez
chateau
kara
##roll
##fried
shak
clou
shares
republicans
widow
platforms
ancestors
##point
opportunity
bip
saving
tact
winters
##aming
##agar
neu
perp
##plays
##castle
fortune
electromagn
abandoned
##bie
##onna
##igar
##agers
##apa
components
skating
owns
roller
veloc
nitrogen
lahore
absolute
stall
floyd
##igne
ferry
survival
##pread
krish
eagles
poverty
ik
vector
iso
orn
marcel
roth
carey
solomon
appearing
1790
sherman
diamonds
travelled
advertising
##olithic
aim
dil
gius
##gon
##inter
##olar
##ashire
merit
markets
memphis
embass
duchy
vampire
##enter
shiva
nationalist
geology
discrimination
advice
madag
hardy
monthly
rebel
briefly
lancashire
hondur
widespread
##oire
cox
regent
highness
missions
transgender
karen
zeus
princes
investment
dollar
pushed
detective
lithuanian
pairs
##cill
communists
matters
rosen
clarke
iraqi
inaugur
genocide
erupt
lymph
ank
##abwe
tech
surrey
finistere
territorial
persp
##uccess
unsuccess
kobe
bism
hain
nass
caps
latest
feder
experts
oslo
1813
philippine
generations
lungs
giuse
erect
##kre
##rant
##fire
plates
neo
##acco
##strom
carrier
bend
bits
fol
rut
##yu
patron
attacking
mcdonald
rape
##boro
friendship
wiki
contributions
palestinian
vessels
fay
tight
##iner
##uns
quit
collaps
vertical
strikes
czechoslovakia
madagascar
jos
wich
##09
##kshire
indianapolis
refere
celebration
bahamas
gradually
##zel
##iso
##rets
chu
carries
allan
blake
specim
athe
1832
weekend
crack
descendants
sas
##hall
##hyd
##itled
alc
fled
##cium
operates
moral
sexually
1831
bayern
shangh
somerset
##stood
plural
##avi
peas
repair
smoke
oceania
bombs
originated
efcfff
##kel
##wana
##isie
##etch
deck
##awi
flies
hels
chronic
corp
entering
duties
functional
cinemat
replacement
saskat
roc
rockef
255
shortened
economists
innov
bonds
determine
penguin
nig
sizes
##chair
##usters
adr
joel
valu
operate
cycling
shooter
bicy
ios
tens
wo
##sd
isot
##otten
##eback
canter
marian
##ahu
regiment
corruption
topics
woody
replacing
1835
tsun
cartoonist
dug
prosec
##ubs
##ahi
1818
libraries
logo
##egro
indicates
rejected
mb
##case
shear
extensive
donkey
pretty
reptiles
jen
lover
inject
client
##chez
councils
caroline
1842
candy
abbott
##strong
eldest
finishing
survivors
urawa
mumbai
karn
laugh
nc
##found
input
##acht
drives
##ettes
verdy
strongest
1814
mccartney
##bral
##mate
##alus
##ebrates
engaged
bris
dock
tract
salam
puzz
resignation
manufacturer
forbes
emirates
diver
haven
lub
noun
tune
##hart
##eer
reward
chak
monaco
nato
tenth
flags
bhut
jessica
coronavirus
montenegro
rockefeller
##44
leather
##erner
##aze
##otted
patric
voters
hil
kad
ti
##storm
plague
swing
naked
zimbabwe
dere
fen
zones
##unes
##inda
##riers
midnight
councill
shoes
homo
treasure
slovenia
dent
zar
##asse
##urb
spelling
tram
##anca
doug
1820
aargau
alleged
gandhi
algorithm
bm
dion
rna
##alis
hey
conson
meh
prove
harbour
remake
nights
nobody
identify
concrete
expressed
macedonia
giuseppe
dys
stur
clif
scales
drinks
schles
airbus
superv
crossed
deputies
watched
astronomers
assassinated
fbi
wre
##enbach
##derland
bark
sensit
respond
guitars
esper
aspects
delivered
loyal
voltage
##vich
##orrh
##aken
edwin
##cycle
valencia
merced
1824
bavarian
citizenship
elevation
innocent
slovak
flooding
volcanoes
exercise
toulouse
fraud
##athy
incidents
restored
magnet
quarterback
attractions
arsenal
tasmania
shanghai
gest
##kers
toys
##olan
gram
establishment
attrib
exposed
##istances
lesser
processor
hopkins
powell
##ytes
dramatic
distances
pag
qatar
##dum
beeth
chir
europeans
signature
##tingham
meanings
##ucker
##aja
measuring
lorenzo
bedford
dispute
consisting
venezuelan
geographical
gad
rams
theology
phon
berry
pointed
happening
collapse
##ihara
watching
jets
lok
piz
violet
xia
##wil
stem
##quer
matrix
denomin
administer
essays
shirley
trinity
cambodia
canterbury
cc
wak
##ych
##mons
##rea
##urst
chains
chorus
transmission
1833
boroughs
moss
##nu
##omo
reh
##etz
##ogs
driven
motorcycle
physicians
arrangement
bruns
pulled
comparison
acoustic
tanz
yuk
##lif
##iture
orph
##cca
##isexual
wald
graves
greeks
melod
falcon
##uting
armstrong
millenn
kingdoms
graub
visiting
conquest
doubles
besides
cerebral
pomp
welf
stamp
beating
alps
evac
practical
dissolved
guerr
jammu
leukemia
kyr
##ean
reorgan
bea
teleg
phara
brass
ecology
##ucks
streams
balls
promised
performer
ranks
legislators
constantine
juris
reconst
graubunden
hos
rates
##clusion
flames
symmet
flowering
advisor
abbreviated
wals
sheph
helm
organis
turbo
visc
firearm
puts
rainfor
celebrate
observatory
shuttle
thrown
obituaries
mikhail
ved
##alu
##icate
congest
blair
belize
epid
superior
extinction
copyr
oceanic
beaches
fluor
leafs
voyage
rebuilt
trilogy
mum
oss
##55
##arez
annie
compositions
nucleus
typhoon
chambers
kok
zen
zamb
shi
plum
prep
saur
bars
sally
holmes
##loo
versus
tomatoes
tenor
tribal
determin
marathon
mog
raz
wav
##gel
##cus
alleg
centres
##ausen
maya
permission
apply
villain
motorway
rubber
shawn
spectrum
prostit
beethoven
dome
tons
xx
##zzo
anj
sco
monroe
detailed
yamag
tobacco
breathing
occasionally
gift
mice
pour
rope
##hand
##krit
##mm
unp
##cester
amar
noah
explains
factories
1803
rotten
sevent
rabb
icelandic
einstein
kron
och
##08
##ctica
consec
milton
verse
burton
morrison
duncan
infections
tables
##aton
comfort
cancel
herm
##ensen
##ugu
glory
affects
pulmonary
mammal
trinidad
achievements
experienced
doming
hesse
nwa
##var
rect
##ird
admitted
emmanuel
biologist
urdu
panel
hospitals
translator
losses
samples
rapidly
hag
kern
##mu
regime
europa
batt
publishers
technologies
funk
oliv
1829
racer
introdu
marshal
responsibility
wheelchair
vocalist
interactive
sessions
wichita
mits
##fts
##atively
##orne
##ropri
azte
accounts
patriarch
fiv
fate
ming
##rt
##anmar
##arts
terra
114
defender
passion
memoir
1806
rainbow
facing
cherry
violinist
griffith
klein
dip
dors
gan
rats
##gets
##esi
##uli
pear
pride
twinned
112
chef
fighters
adopt
flowing
installed
orbital
pharaoh
cure
dorm
dash
pound
rust
rex
##osy
guad
venom
affili
andrews
bradley
stalin
curtis
##otype
lesbian
aunt
ci
##dia
##ilian
prizes
referendum
castro
papua
identical
sleeping
knockout
kitch
##lain
##dan
thy
##alay
mang
manual
scores
beta
electro
##anco
instruction
holidays
meanwhile
cannon
fortress
celeb
hautes
shogun
neptune
dow
dans
##erver
##ande
spiders
preced
internationally
christine
##ructure
enterprise
readers
haj
rider
ves
##rina
reyn
unified
##allow
outl
winston
periodic
lessons
bassist
practices
prophet
minimum
welfare
gear
kol
rent
##iad
##iration
component
blade
coral
tsar
gim
lich
##mal
android
##imate
##unciation
##avan
newfound
compact
blank
perth
instant
dayton
obst
competing
drain
trucks
trigger
uzbek
subspecies
dual
heter
jura
##eres
##alam
##reh
##ules
sait
multipl
1793
declares
emeritus
valuable
eats
##jun
monitor
basel
revenue
holstein
fallen
1792
sediment
oxidation
lying
##nut
##lis
als
swift
understood
##lette
##inki
##flies
##ipeg
uruguayan
situations
antarctica
conspiracy
dess
fusion
##anta
nottingham
modified
turtles
timber
1795
goalkeeper
mahar
collabor
portrayed
sanskrit
brunswick
consecutive
bisexual
fm
lp
mau
##uve
inch
anast
##utor
atlet
##onda
trap
augustus
avi
##kaido
receives
naturally
pianists
request
fairly
participants
belonged
terrorism
earthquakes
manipuri
mongolia
clouds
telegraph
wander
##rite
newcastle
##ahon
volumes
gibson
beverly
hort
kul
pab
shif
prices
marina
bases
pref
seneg
persia
cnn
ticket
yard
##arium
##osing
claus
calcium
holder
hotels
psychologist
circus
##harmon
praised
taiwanese
nurse
stefan
450
holl
pounds
vie
manner
releg
burial
climbing
mrt
participate
bacter
ussr
ninja
sue
##jing
##stown
stood
1600
grain
racial
timothy
freshwater
##opods
whale
marne
hash
##iza
surgeon
portal
specialized
handle
restoration
##affe
somalia
##what
henderson
fivb
aes
fog
sack
##lag
proport
clara
coop
##ffield
##azi
overth
victorian
1900s
ratings
eugen
kurdish
saitama
dais
ling
##mates
##enon
conclud
scat
scout
mead
dominant
cutting
atlantique
focuses
eruption
##bane
##atural
tosh
##osta
rook
conscious
purchased
autobiography
grandmother
iphone
nile
##atel
leip
peer
marco
diary
partial
janet
openly
superman
1791
naming
dirty
continuous
lebanese
refugees
paradise
horizontal
ub
##anor
##elt
##ieth
hermann
deport
cran
1822
prair
bengali
sauce
revolt
infrast
atletico
boul
fuk
gau
vish
vest
##horn
##ław
##reen
ears
##alez
underwater
battal
designers
burrow
martine
1834
viewers
facility
hatch
##chaft
frost
tongue
kumar
cavalry
bermuda
dag
fritz
herald
coy
natal
dukes
courses
flora
sno
bombings
lyric
benefits
merchant
fingers
patricia
bout
cork
hiv
nih
##lore
2020s
eva
scheme
ecw
filmmaker
penny
1810
##ucing
architectural
concerto
lorraine
clearly
stripes
experimental
##anas
##imer
twent
managing
radioactive
grounds
partnership
excellent
ered
##kow
shells
somewhat
infected
benz
connecting
miranda
customs
pollution
nutri
butterfly
koppen
bourg
hul
##eff
##aches
brick
angola
angela
connor
mighty
appoint
suspected
wizard
copyright
##bank
##rag
##card
##alan
dew
bills
graf
honored
rosa
sailor
customers
helicopter
##ozoic
ecole
fug
##xide
##thy
leak
dischar
desire
winnipeg
biologists
sanchez
civilians
probability
tao
jumping
jamaican
mv
rally
tav
yun
##onaut
##isi
sega
indu
parade
governing
belle
gloria
decay
middles
professionally
firef
drake
##ymes
microsc
jeffrey
kenny
1800s
emotions
gonzalez
senegal
##vic
infer
forth
##ovan
comet
##orship
calder
##ennial
##anning
verde
flemish
pregnancy
shallow
basilica
bard
flex
misc
pf
pia
##oque
##31
frib
shift
sup
##ango
highways
slip
brew
properly
beetles
exclusive
ink
##olia
##ogan
grim
herman
evan
relation
seek
thoughts
astronomical
bruno
discussion
locomotives
##now
##atur
##bern
##angers
##quet
reputation
gerard
helena
editors
classics
counsel
1828
##rises
meetings
cabin
buddha
consisted
immigration
##bird
narrator
valleys
ix
nh
xv
##bes
pocket
##quez
##ushu
##chewan
conductors
algae
ancestor
inherited
abstract
##gus
##rice
##inas
##urers
##using
##ourse
##redited
palmer
1827
deadly
conquer
##borne
perez
taxonomy
saskatchewan
##lia
##imi
sings
subfamily
humanity
jewel
timeline
contestant
rudolf
belarusian
acceler
wcw
hes
nure
tah
isbn
wei
myanmar
breeds
variation
chemists
1825
pilots
surgical
alexandra
roberto
monkeys
mia
til
tough
##eus
##tes
##isible
chit
unic
abel
indus
warwick
berne
translations
saxe
fatal
concepts
laurent
theorem
veteran
##iciency
lunar
laureate
ceremonies
pilgrim
aph
dul
zam
##lio
willie
provision
freeman
climb
observer
asking
jamie
certified
nicole
enforcement
##kreis
fribourg
cip
tac
##hist
##cz
##cio
##cup
##vor
##unct
##rities
##ernal
laf
diving
organised
arrives
##lingen
palatin
burma
mccl
bonus
cuis
maintained
achieve
newfoundland
rw
##06
pla
abroad
##ibal
disco
moist
consumer
jef
interests
interface
membership
publicly
labels
kirby
rafael
norton
namibia
bhar
f1
##ische
##aders
partially
worlds
smell
feels
begun
hamlet
prefectures
babyl
icon
diplomatic
resource
golfer
mercedes
celebrities
bce
vibr
beast
corb
discontin
representation
##ushi
satisf
santo
reacts
coverage
##enhagen
palatinate
cater
hate
kub
anx
whales
unity
undert
armour
differently
everybody
teachings
1826
liege
aquatics
baku
tonight
aberde
guadal
gael
##57
stern
shizu
unoff
belgrade
intent
traveling
homeland
hartford
bind
bail
lup
##order
upgr
##cessor
##mberg
curse
stafford
kuwa
bleeding
francesco
puppet
infrastructure
sends
wider
##court
##vious
##onist
bean
##emann
##ipel
sheffield
##rup
brings
flint
1700
noise
geological
getty
barbados
rises
annex
boundaries
malaysian
abolished
embassy
dud
kak
kyle
tanks
##olin
carmen
indie
glou
speaks
claire
pulse
suspended
travelling
reservoir
nicaragua
cly
tus
##200
##eni
forec
beans
notation
musk
schwar
##ront
versailles
hym
circular
corporate
cruel
emotional
linguistics
fungi
helsinki
organisations
leipzig
dot
mt
tent
vista
##uing
ants
##thus
##ivisie
comte
plaza
##aby
poles
creature
hardcore
judg
postal
dhaka
velocity
honduras
eredivisie
gale
pud
##stra
##adeus
mayer
cob
eps
rounds
interviews
belonging
pronunciation
intelligent
attracted
playwrights
ligue
sink
##gia
##cor
##ener
inland
newman
counts
founders
christina
operator
brandon
carniv
prussian
ferrari
nago
vine
##anti
gramp
joey
populated
angles
developer
variant
samurai
##flix
1809
nicol
exploration
equality
maurit
constantinople
hi
rita
saga
##jara
##mb
##sten
##opy
valid
berger
entitled
moses
wheels
habitats
schleswig
hik
raced
sending
trop
##eries
##enas
##icing
##ilder
prest
##antes
abortion
remote
topic
khy
hybrid
reader
oceans
cyclones
recognised
bom
yards
##pin
##ellar
doo
secure
populous
emigr
impression
animator
netflix
hook
1817
1804
mechanism
clarinet
illustrator
ae
vig
##lav
##idt
##alla
polyn
germanic
interv
##riages
patt
judicial
aquatic
frozen
cameroon
ingredients
millennium
cake
hd
sikh
##iwa
##uous
##px
##imony
##abited
willis
124
arrival
liu
maxwell
bailey
conflicts
withdrew
maritimes
nebula
derek
##yard
##right
##inity
mugh
mali
efficient
sendai
forbid
accurate
spending
meiji
bankrupt
borrow
difficulty
mandela
folklore
mcmahon
nagoya
bik
##oibi
heated
spark
notre
warn
cups
pierce
suicides
bahrain
andreas
aleks
ero
fet
nes
##aso
##thum
stutt
##raid
##auf
johnston
reducing
anywhere
aval
copenhagen
lima
sharing
sailing
sheriff
bradford
ellis
stuff
phillip
dependent
##harmonic
eh
qing
##unn
##acio
knife
parth
upcoming
genesis
recru
amanda
outbreak
kingston
revival
irving
davies
squir
lithium
amazing
ethiopian
advertis
lisbon
jorge
ahl
cors
ole
tup
toler
##ayama
perm
emin
##eneuve
hyder
bronx
spiral
spirits
##zhou
adjust
vernon
ora
sach
stere
##idian
muss
capable
valais
garonne
tasks
reformed
catalan
rahman
subsequently
pyramid
cooperation
shizuoka
pant
wise
##sv
##fu
##alom
##oline
proce
manage
funny
decline
cooked
encry
please
libertarian
joshua
collaboration
aluminium
df
kee
lent
pbs
##jay
##eros
##adh
##rov
buzz
1807
##osystem
nie
vid
##aise
##jin
thread
spart
recover
##otta
obvious
##gyz
##eroy
destination
##yeong
harvest
trumpet
dimensional
wessex
congestive
bess
jake
koh
omar
pwi
##des
##omorph
##cho
presents
##irect
113
organist
shoulder
1808
juliet
hawk
homeless
dishes
lucky
administered
pets
##vas
##chet
##angu
##amma
archipel
##afa
##hammed
interpretation
antibiot
kyrgyz
fake
higg
kend
yan
##atha
directions
240
raising
solutions
richest
turtle
##archy
##borg
concord
segunda
updated
lenin
referee
lum
md
tues
##alf
##orno
roh
drunk
guess
##urring
whereas
##undy
##ungs
stopping
structural
mahm
legislation
hemorrh
cameras
elephants
discoveries
stolen
erit
mys
##len
##enov
deals
afraid
##spring
##icking
amber
governed
baroque
divide
arrive
##icester
hunger
cartoons
anthropology
disappeared
crawford
submarine
gior
##notes
seth
traged
commod
genome
crom
##obia
reverse
1870s
1823
separation
accidentally
regarding
sustain
vatican
espan
lens
##thon
##amine
##igs
##odyn
basque
##ammy
1798
pastor
clarence
tunisian
pest
##hed
##agus
shon
##ckland
cluster
abilities
sheet
adri
disagre
##actic
glad
micha
salem
berkshire
richardson
##centen
requirements
veterans
wesley
##continent
nippon
##cin
##apor
sperm
sportsc
straw
lynch
hindus
coronation
##rahim
residential
brisbane
aka
lighter
sous
vau
##eaux
##mail
dear
knox
recovered
timor
bernie
stadiums
package
brigade
abbrev
nuremberg
bamb
hast
nir
pter
##nas
##days
##stop
wasn
##opus
conce
button
coin
edit
edges
1910s
##ylan
greenland
memories
ult
##elda
segment
contributed
syll
vitamin
guru
strugg
khyber
cesar
##edo
fris
enh
encl
marines
grid
popes
soy
##inski
albany
quin
supercenten
1880s
speeds
karachi
shinto
terrest
orbits
benefit
integrated
hormones
imprisoned
nacional
wax
yar
rever
beef
##illing
clown
yearly
##gradu
brave
archie
varies
sanct
talib
knowing
analog
vikings
synthesis
appeals
purchase
explanation
iber
lj
##chu
fork
heating
##rab
dres
mature
amongst
##iffe
embry
disputed
viking
chromosomes
oy
##nian
##yg
thumb
##adays
##idan
mank
noticed
##rys
sofia
info
milky
skiers
magical
antwer
judy
1805
accessed
arcade
asteroids
siblings
strategic
moderate
prairie
ai
##master
sta
shre
sham
marse
##sein
##tenham
##ilyn
quot
export
##engths
humor
nowadays
pawn
ducks
squid
limestone
1788
campaigns
logan
boliv
optim
contribution
treasury
shepherd
nt
tj
ties
##vae
##asma
stir
stuck
##otam
leicester
##ipse
blast
edo
wellington
##cheon
josef
recognize
vacu
shirt
percentage
whitney
elliott
lal
zinc
##nar
##cos
thurs
toad
##amy
##chten
##adder
##idd
##terdam
somewhere
saff
legally
loses
hof
jacqu
exception
reforms
relativity
##brook
lancaster
shimizu
aure
kann
lance
##zin
##leen
whis
##okes
grun
##ibe
saar
mainstream
malt
researcher
1816
gros
observations
dictators
abbreviation
ses
tack
##jat
##onica
beam
##emp
##ifies
##phones
mush
slide
invention
anymore
connections
persu
nobility
congressman
viewed
durham
elsewhere
slovenian
martinez
hence
vand
toled
fraser
##ulum
preston
agn
acute
111
slam
surprise
mya
hyde
ideal
darkness
prede
neighb
celest
smoking
accompanied
browser
##ropriate
jol
nerve
##jor
conrad
sheikh
##eryl
##elyn
madonna
entertainer
programmes
assistance
drawings
wednes
migration
bicycle
terrestrial
caves
jab
mug
yah
zu
##fit
##anu
##stead
##etto
##see
allah
schl
directing
##ierre
traits
lasting
martyr
1811
abolition
locomotive
electromagnetic
antwerp
##atan
##etown
heather
##lywood
silence
cameo
hallow
##yev
galile
gardner
cubs
propag
commanded
alternate
columns
doubt
griffin
enjoyed
yankees
mysterious
supernatural
fount
kof
zomb
##ivo
plac
abdom
brut
swallow
skir
##boys
announcer
roses
odys
communicate
wears
floods
pablo
dinner
jelly
lily
sne
##05
##chio
bride
monet
highland
landmark
sunlight
judith
jerome
influences
lifestyle
##optera
kidnapped
hypothesis
sensitive
flet
gly
hbo
lago
pagan
riley
##gent
##orgh
inten
##roc
##opod
##igata
exclud
amor
weimar
elvis
eleanor
romeo
1776
hayes
philanthropists
boc
gog
kai
nud
tarn
##pes
##itian
##leum
isles
##opic
bei
##ebe
crater
portable
filming
antlers
macdonald
antiqu
slavic
hedge
neighbouring
bis
cia
hank
##ithms
##ebody
worm
indies
phant
overl
134
philharmonic
nearest
villeneuve
flyers
rebec
estimates
diversity
subprefecture
toledo
della
nab
pend
##eka
##cock
##sted
##chel
alder
chenn
seals
##illion
cologne
prehist
baltic
journalism
temperate
ruby
monarchs
gamba
suitable
preservation
britannica
stuttgart
##aan
##bound
##coms
##cube
##wang
##eny
##urrect
arlington
caliph
##azar
posthum
governorate
hosting
espn
bullets
1797
medicines
reacting
sprint
segreg
##enzie
fernandez
concerns
encouraged
##jee
sect
peg
boom
hered
acres
wein
milano
retiring
avo
churchill
crab
happiness
##bourg
rotterdam
hello
columnist
fitness
constituencies
goaltender
cac
##gae
##cu
##imedia
uncer
##ako
commem
adm
##idea
guests
apoc
explo
sociology
ruins
banking
ethics
ashley
teenager
toll
lombardy
circumst
germain
ioc
pond
werner
exit
doom
jung
##ambig
approval
boxes
ownership
gentle
furniture
khamba
perspective
walsh
reynolds
twentieth
##chus
##okee
waterloo
remark
tempor
antip
1850s
sitcoms
distant
theatrical
predict
kanagawa
aerosp
doctrine
punjabi
satellites
archipelago
dell
ongoing
unh
convert
##ardi
##velle
missile
ecosystem
sanf
##atti
drove
chlorine
barrier
tsunami
jurisd
cuts
##asso
spo
triang
parma
artem
grab
pakht
sharon
waltz
sergei
infinite
prosper
unofficial
cb
sams
tud
zagre
##iate
##koping
##utz
suite
newark
scots
##cluse
greene
strand
consoles
statues
cros
##cripts
##ombe
chiefs
promise
fault
tuber
synthes
##iveness
marinos
##onymous
sergeant
sponsored
craft
dylan
hms
sits
##hor
##mith
##icit
##iments
shane
marble
##ibo
brent
recovery
mao
editing
armor
retro
decoration
burke
cyan
debt
##beck
brandenburg
favou
algerian
occasions
aristoc
uganda
##smith
jill
rost
sass
##gir
##once
fran
##unkh
##tering
marilyn
121
impress
barnes
load
assess
auckland
1890s
teaches
collision
cello
sequels
contestants
nutrit
mohamed
##cribed
chennai
zagreb
gond
porter
##ulia
counted
worksh
interc
castles
torres
logical
navar
automatically
hawaiian
fabric
niigata
wavel
uzbekistan
tuesday
burr
##oard
##py
##annon
samoa
announces
primitive
theaters
somebody
alfonso
3000
concerned
accomplish
sacrament
antoine
fischer
pizza
tanzania
cott
katherine
##esian
##apur
ley
spell
##ifest
##issel
relay
starr
defended
porto
premiere
coached
curve
costume
medici
hospitalized
sailors
pigs
licens
evangelical
petroleum
tajik
jal
##bons
##onn
deity
lever
worms
clergy
guang
anger
patrol
realized
devils
melody
fergus
atmosph
continuing
wolves
kosovo
cecil
##keepers
kuwait
hyderabad
intense
##unkhwa
yak
##entin
##ivery
##immer
shrew
##oco
##acks
phd
offspring
##uga
secrets
swamp
##cius
230
silva
toured
frequent
breathe
mansion
exposure
auxili
pakhtunkhwa
gos
gome
glands
lemon
lift
rous
stap
##opotam
proud
marl
brush
larvae
squar
protects
digit
brands
oilers
estimate
neighboring
tornadoes
jed
ns
wimb
##equ
andes
##sts
##iry
disambig
mayflower
uprising
releasing
interchange
defending
suppl
madh
##iences
cyclists
manufacturers
hutch
cafe
cena
ding
pasc
##atas
sting
bees
##iku
sworn
trapped
metre
makers
mercy
graz
paying
controller
inherit
wisdom
bhutan
cuisine
nied
##86
##bage
##kk
##olism
hector
##icho
##endra
hert
feast
antig
similarly
describing
1775
horns
rhineland
rouge
gomez
crop
fathers
ile
kamp
sapp
##nn
##lich
centimet
coleman
upset
greens
metaph
delivery
verd
camel
garfield
turkmen
1799
optical
alcoh
michaels
ket
miz
ome
raven
##gun
##arms
deaf
meps
disl
displays
trace
belly
eden
##ashtra
##engo
grover
747
apparent
choreographer
zambia
vacuum
casc
rode
ratt
sok
##chur
##adian
##cesters
rochester
harsh
intensity
specialist
continents
hunters
learns
practiced
piper
recommended
##chwitz
fletcher
##cestershire
pard
vince
zel
°f
##run
##word
ally
unex
marvin
##quel
144
##oby
accidents
runway
madame
posts
premiers
boyfriend
toyota
subsidi
disambiguation
eph
fah
kais
oath
xiv
yours
##elius
##ctive
preserve
secular
austen
brock
filed
developers
##bye
everywhere
templ
motiv
urs
danube
##marks
predator
chapman
ranging
loving
inspector
vegetation
opinions
triassic
kurdistan
dough
##jev
beak
sep
ate
pars
overd
albanian
johns
italia
##otti
rockets
demol
##ledon
limburg
50°
##ofen
okin
##caa
qualify
renal
coloured
igor
isolated
cz
ef
jh
##onte
##atz
##iler
beats
##esset
carm
knee
stras
revers
supporter
burk
frontier
1796
observation
scandin
diverse
tatto
preferred
##graduate
jong
lill
mitt
##atops
##ikovsky
consul
assumed
radar
1860s
##beth
etienne
gallen
selen
ez
vick
vale
##atro
##itta
##itudes
herz
##eca
schne
elite
coaching
semic
ambul
disestablished
carbonate
conducting
uncredited
hokkaido
kitchen
discontinued
hemorrhage
cigar
dai
fiji
##kok
##erie
threw
heal
chau
spears
bois
noct
belfast
##inness
gamecube
##ometer
radi
freestyle
latvian
1794
1802
welcome
commissioned
encoun
shelter
certific
gifts
circulation
relegated
ces
eul
wives
##list
##escent
hepat
shab
como
leh
schum
nationalism
##ieri
metab
signing
turks
cardiff
oswald
dominated
falc
employed
sulfate
lutheran
seemed
hannah
dart
kiev
rim
sg
##lov
##vement
##atu
##rove
##emi
mangan
abund
##000
recurring
este
moor
maiden
##yson
rivera
##ussia
steal
##aek
handball
aston
viola
chapters
harmony
navigation
roland
rebecca
##ов
##orrow
##idon
##bergh
proto
enz
agu
##gren
hara
brack
25th
royalty
crosses
audiences
rebels
speedway
container
floors
iwata
fellowship
siberia
maharashtra
anxiety
forbidden
halloween
homet
jug
mash
sells
yuan
##0e
##aic
##nels
##oning
##atist
##alp
##reats
##andra
worried
hern
knesset
schiz
gujar
outd
impe
redd
bret
discovers
baloch
bunny
displayed
##adeshiko
momentum
pornographic
withdrawal
dolphins
##craper
aimed
dhar
ely
nadeshiko
oita
tes
##wear
stays
shipping
carac
##ouses
parody
flesh
dried
feather
edith
##aires
donna
scholarship
cedar
prepare
rookie
marseille
winger
##bone
##itational
anah
##iani
##iants
trench
communism
mafia
creed
juvent
harp
##ophy
socialism
tomas
involve
inspiration
observances
baghd
lankan
rifles
challenges
terminology
aberdeen
jacqueline
wednesday
qa
vital
yus
##yar
##aren
##reuth
asth
##illed
brill
##tenberg
juven
quinn
intermedi
obso
##aea
##loaded
sexuality
nordic
wimbledon
pom
##urus
booth
aggreg
soup
goat
220
lasts
mounted
standings
arguments
utrecht
funds
headquar
nineteenth
bing
kag
ncaa
##yen
##icious
##olid
spotted
##ende
brien
amadeus
overt
retreat
confusion
eras
autism
visits
destiny
hitting
tribune
missionary
switched
mozamb
wealthy
750
hare
##iors
##worm
##etically
arte
bladder
monks
varieties
cyber
tomorrow
philosophical
predicted
hemings
sieg
bolog
niel
pose
toile
reid
spher
fee
maid
slim
fuller
antony
negro
##oslav
omn
scorer
honda
mgm
announcement
kell
##bin
##itone
newer
roch
dismiss
brady
apar
##linder
collecting
rapids
rankings
jeanne
1787
measurements
integer
lauren
robertson
vulner
muller
uranium
battalion
auxiliary
hr
##fred
##care
##itiba
whites
##raf
##umont
##akk
usb
afford
allison
flute
moth
juice
mainten
##obe
humph
farther
motto
mandarin
lucerne
buckingham
cerezo
chronicles
collapsed
grampus
thursday
cage
dfff
diane
rup
vy
##kas
aless
##ulin
shiv
unt
indoor
monter
mohammed
corinth
extens
##aldi
sandwich
moroccan
##kirchen
lonely
sterling
hometown
obsolete
cerv
##bel
##oes
##entially
countess
serp
flam
surin
maggie
salmon
titans
touring
breakfast
layout
kapoor
dictator
iodine
dfffdf
bant
hitch
lass
zach
theft
##theless
##agement
##oso
orth
##ifice
firing
fool
bred
resurrect
apprent
##yss
trevor
midlands
bergen
centered
cylinder
competitive
opponents
ivory
conservatives
peaceful
rotation
bibl
torture
orientation
bohemia
valentine
ust
xvi
##org
##asu
##ceae
##apo
canyon
##space
contra
crane
slang
210
jules
bonnie
favour
peaks
vegetable
isabella
diaz
##recce
esperanto
canceled
cipher
squirrel
aerospace
##bard
##say
##chin
whate
congreg
canucks
aboard
##erness
murd
satan
petr
holden
blocked
inns
souls
gregorian
konst
sylvia
crystall
synthetic
arsenic
nutrients
taliban
sanfrecce
mk
rapp
##kinson
unfort
##rak
orton
neill
protons
conven
##ifax
carne
flame
buch
howe
##shine
characteristic
hotsp
bordeaux
declined
leonardo
explorers
antarctic
krishna
sapporo
tier
tna
zoe
##xi
##erted
##aroo
##itable
##elo
##avier
##ignon
##sha
halifax
sentences
denied
laser
##escu
cherokee
cromwell
whatever
ges
jaws
lund
##mor
##inos
chips
##imov
helium
teresa
shorts
cannab
lawsuit
ramon
fuji
additionally
eisenh
quartet
reproductive
cognitive
domingo
mughal
unfortun
dmit
feld
pach
andor
##amation
##eling
##adt
##ums
enri
##ustion
##oked
boots
herr
##ancing
busy
performs
deriv
candidacy
commentary
dodgers
phrases
dragons
pleasure
nouvelle
mascot
ack
cbe
cube
dana
fow
nd
vom
wra
##bf
##math
##odies
pean
hassan
maybe
saul
addiction
merger
##fordshire
##appa
birthplace
literacy
kilog
sailed
aeronaut
seriously
distinguish
##arthy
hispanic
aggressive
lymphoma
vaucluse
bore
gia
hale
nina
pts
##ilst
chern
##illac
clash
##auss
evol
reggae
barth
differential
russians
statements
taluk
groß
broadcasts
teenagers
hanover
tailed
renault
flavor
elliot
quran
ornith
atmospheric
pipe
wah
##erman
##leader
spike
resid
relax
symp
##shan
variab
squares
telecommun
succeeds
linguist
ultimately
astronauts
botanical
upgraded
bots
zelda
##etr
##ritic
abe
buying
verses
dense
familiar
participating
underne
viktor
dressed
glacier
##continental
destroying
reconstruction
##jatjara
squarep
impeach
biblical
underneath
bury
cic
eros
hague
pens
wies
##aul
##git
##vana
seiz
neust
##arya
webster
##ecy
##acts
recall
saone
mock
##atories
##araj
bihar
sunshine
covent
performers
panic
faust
##eldon
cathedrals
reserves
conversion
bacon
ricardo
vowel
auschwitz
discharge
provisional
ngu
ria
riders
tann
##ono
##asus
neal
##ieux
boog
emble
mupp
mcg
immunity
rodents
1777
dealing
rabbi
frederic
answers
commentators
pharmac
##ktop
fey
naw
nuts
vr
zion
##56
anten
seab
sphere
##acker
daytime
annabeth
variants
curry
##eldorf
jacksonville
abbas
pitt
tunnels
bundest
spreading
ibrahim
gaul
pornography
##chtenstein
anaheim
awar
eternal
kov
ner
tian
yi
##ycl
plasma
compreh
italians
protagonist
involvement
tunes
##antha
kyiv
excav
molly
adaptations
eclipse
schmidt
unsuccessful
schwarz
hanna
nim
##lant
##pi
##wy
##stock
##ersdorf
leigh
##atham
##acan
endors
mating
goldwyn
##appy
liechtenstein
messenger
jurist
mistake
chronicle
decorated
manuscript
dawson
batteries
maintenance
squarepants
bundestag
##arat
##atore
##rock
plug
##odo
adject
laos
defunct
shrines
mutual
pirate
sovereignty
tottenham
portsmouth
uranus
delayed
circumstances
alcoholic
baghdad
fier
gyp
ning
rak
##enes
##iland
shy
basically
median
##cience
augusta
invisible
soloth
explore
penal
integers
mortal
cowboys
beyonce
vertebrates
scorp
correctly
tehsils
autobiographers
decreased
burgundy
coordinates
puzzle
hepatitis
solothurn
650
bie
hons
irene
lime
##cion
threats
chun
##alliga
pluto
##odor
tromb
##istress
slalom
voiv
presentation
balt
hamlets
banker
racism
walked
immort
orchestras
assisted
feminism
carnivore
havana
airplanes
cheaper
dwight
manuscripts
chevro
gains
wille
##hog
##xy
##edon
anh
##agic
cong
boards
##cession
richards
magnus
bonap
kashima
gravitational
update
clifford
orphan
fins
lava
mell
pes
pau
##iu
##rador
##orious
##lemy
chow
##oded
##apes
truman
##azaki
johan
123
volks
posted
##ihu
lucia
praise
surnames
terrible
sacrifice
parasites
proposal
anjou
middlesex
eisenhower
dae
pius
zee
##mg
peach
##uddin
##cliffe
coaster
miniser
##erald
steep
ethan
environments
removing
abdullah
klaus
sylv
sahara
customer
advisory
ensemb
olivier
dresden
ecc
nish
oster
tension
##hurst
shen
##ckl
##abl
meyer
sergio
mood
accent
raiders
masses
sunny
digits
circuits
zhang
hydroxide
miniseries
bian
hail
hiding
j3
morm
sagan
##hy
##nt
##anam
##amura
sticks
shor
marino
##acion
carriers
cray
crem
champagne
loos
incor
viral
obsess
hoped
offering
segments
immediate
decrease
##grave
reunion
advocate
tadp
clyde
erotic
sportscaster
pik
##uana
##mese
thistle
##ionale
seam
byr
plata
##asses
dob
sof
tracy
carefully
confidence
freud
devoted
hoch
raph
1783
sanga
employee
subdivision
floating
gathering
carpenter
bugs
tissues
imprisonment
tragedy
bust
biss
dund
lia
vaugh
wyn
##jon
##jiang
##42
thief
##cephal
alam
clip
disgu
amn
metam
##engers
annually
incred
militia
##alypt
venues
bombers
terrorists
sculptures
cleaning
##rophys
algorithms
drops
gag
tate
vissel
##oise
revel
comments
webpage
airing
emi
transmit
##ajo
memor
reporting
persec
inventors
casino
bulls
constantly
reformation
resistant
lambert
neighborhoods
apparently
hormone
wendy
drainage
dino
kav
nests
tast
tina
##eet
##oit
##rang
chee
trium
acron
appropriate
##olls
braun
numbered
obe
titanic
mccarthy
sweat
bosnian
cinem
option
applies
suburban
exhibitions
approximate
regulations
situated
obituary
fitzg
sociologist
bb
lb
pto
##ᅥᆫ
thuring
##inh
chant
shots
byron
##aved
arb
##gee
newport
##ikawa
##oughton
disband
brat
artwork
laun
##aeus
goodbye
associations
beaten
hydra
closing
stephanie
##zyme
suspension
archaeology
eleventh
discussed
repeat
tobago
gaming
harmful
wireless
vessel
nikolai
hierarchy
evacu
phantom
sacramento
cuc
cache
dau
fare
sought
tb
##bad
##mings
##chy
##rosc
bez
##action
formats
landkreis
landmarks
##loid
##axter
satir
prevention
sandra
bangkok
referring
bollywood
princesses
integ
trailer
throwing
ceremonial
vorarl
procedure
casualties
asthma
awareness
chevrolet
duss
kah
koll
nara
oman
sq
wen
yog
thank
thes
##ataka
toads
##umps
##ieg
manages
mothers
122
maori
emm
gluc
##aneous
membrane
posit
secretly
processors
treaties
tarzan
savage
townships
aristot
crusade
professionals
gaelic
jah
lach
niss
##itimate
##thou
##thood
pepp
click
meal
offs
schwe
registr
weas
guinness
waterfall
##boo
revised
greenwich
shoots
strauss
##aptor
manufactured
succeed
dubai
cpu
seventeen
supercentenarian
bonaparte
a1
cet
dove
ej
tart
vog
##yst
toes
##thr
##ctal
cheng
roche
##acon
presby
bash
dozen
##ussy
underworld
islanders
assum
mosqu
baba
##iyah
synch
tails
suspect
marsup
wonderful
cocon
chaos
portraits
tubes
possession
vorarlberg
aware
hc
tik
##pill
##olini
whilst
marries
abh
webb
counting
##ikon
##eye
##pta
engra
regulation
apples
noel
deserts
grouped
archdu
##burger
solving
angelo
victories
320
macmill
##encing
cruise
liquids
extraord
feminists
employment
dirt
lecture
moldova
wreck
cull
gb
gis
hess
kus
naj
qin
tucker
##had
##tail
##las
stam
shu
margin
##assis
aftermath
agnes
loose
protecting
panthers
treatments
murderer
owl
barton
witches
ipod
imaginary
lizards
lamborgh
consciousness
nah
nxt
sis
##oys
##fur
##code
##isan
onwards
##ayev
forget
footage
##ssel
extends
publishes
paula
1784
tellur
nagasaki
disputes
explosive
beneath
eduardo
bologna
fitzgerald
##fin
##olt
stunt
ort
polym
colore
designation
astrophys
separately
rubin
luxury
interaction
thermal
pleasant
rainforest
avalanche
predecessor
dover
luna
mama
osh
wi
##edge
inver
##emer
lep
leone
tears
carth
##sport
blaz
##ilding
desk
outs
airb
highlands
metric
##otting
##ophys
thomson
borussia
lester
doctorate
1785
agrees
ronnie
certifications
subsequent
samsung
juventus
macmillan
gat
##zilla
##lay
##uya
##makers
##alous
##rooms
unre
##pps
schu
thrash
missed
radius
respected
hubert
goalkeepers
bellmare
eyed
removal
sprinter
aliens
bottle
catalog
nomen
initiative
intermediate
headquartered
bould
kens
sque
##hal
##pox
recept
fries
enlight
glam
demons
decimal
halo
competitors
circles
immun
dimension
challenged
nursing
artemis
metamorph
lamborghini
colorectal
kry
mie
pang
ال
##far
stating
franche
##abul
canary
excess
##ilde
apes
slope
matth
define
array
burmese
ruther
robots
hampton
arabs
hillary
##adox
flee
sabha
nagar
euph
beetle
saxophone
phenomenon
burkina
biz
faso
hath
hilton
jagu
vib
yong
##aid
##uo
##jav
##eses
incl
deities
chung
##osc
##estrian
spd
compass
joa
contents
relating
132
wanting
naturalist
olga
potato
condem
targets
sequences
1763
katie
venture
sponsor
conversation
cryptography
surrendered
volunteers
vagina
euk
henn
kung
##uj
sts
beard
##soon
syph
slayer
listening
obsc
26th
robb
keynes
ensure
patriots
gathered
mantle
disabled
nassau
honshu
incorrect
hig
jou
lut
nl
pork
rc
zap
##opol
cheshire
shire
##odont
##eba
mega
quentin
daylight
216
totally
watt
melissa
catholicism
payment
casey
principality
bubble
surfaces
rectang
raphael
dair
hick
##rand
itunes
##ogl
southampton
genius
ammun
slower
matilda
demo
22nd
paolo
extent
equally
convection
panther
##theid
flynn
pageant
poisonous
deutsche
discipline
omega
deng
nost
pike
##eur
##atom
##alism
alma
##icians
goose
guam
invade
everett
remn
myel
myers
brett
supermark
sharma
primaries
citation
bowling
explosions
ngc
skyscraper
jenkins
karnataka
tubercul
dora
lump
sf
tired
##bee
##jet
thur
andalus
sto
proclaimed
usher
nationale
mae
mori
cyt
mcdon
ballad
psychologists
cocaine
ajax
absorbed
botanist
favourite
##cklenburg
ammunition
baz
nong
##hop
##wen
thal
##orc
##orah
##ications
##adier
spinning
tradem
whenever
casting
businesswoman
seeking
vez
facto
fleming
dunn
mercia
strengthened
distinctive
restricted
crocodile
delegates
bourgogne
strasbourg
variables
eure
foll
##vy
##elic
##olulu
##adan
alain
miners
travis
muj
bremen
sixty
camden
finale
sunset
collector
reigning
jenny
thunderstorm
outdoor
apartheid
presbyter
cush
gould
lc
mih
nm
##nis
##iem
##orio
##arck
##isition
healing
unst
probe
enroll
mare
mane
trunk
##ocation
adds
simmons
honolulu
privy
vicente
defenders
fukushima
mvp
##hou
##liest
##rington
##part
fres
neuch
northum
calm
133
myths
##brian
##uko
superst
cataly
possibility
##ucn
wilderness
protestants
diplomats
lionel
##ommod
pipes
##claim
wolver
chromosome
simplified
kyrgyzstan
ferguson
dill
ffff
nue
wagon
xii
##cula
##enau
##itches
hew
unw
tej
manifest
##izations
cald
accommod
trem
23rd
280
fars
varied
extract
sunderland
azad
olivia
esther
gasoline
##forced
archaeologists
laurence
restrictions
vaccine
consumption
caterpill
prehistoric
mozambique
botswana
tuberculosis
neuchatel
dort
dend
fou
fior
tcha
xavier
##tw
##fel
chrys
##ectors
twil
paradox
coburg
131
##ype
slash
##eshi
lighting
humanitarian
##ructive
cyrill
protective
independently
1780
dynasties
1778
fantastic
generated
funded
calculated
herbiv
inflamm
nigel
tara
uter
wan
wade
witt
##cie
##roft
partition
twist
warming
buk
amm
preach
##ropods
##undi
locally
lego
vera
benin
1840s
attempting
funding
kashiwa
clinical
##books
mesopotam
granada
oxidizing
oriented
dimensions
scattered
eminem
innsbruck
cus
gilles
lus
mcle
pash
rational
rij
tiff
xen
##uer
##crap
invert
205
unemp
##alli
mecklenburg
indicated
##ormal
gew
proven
subcontinent
sketch
##tym
##elfth
castell
donated
humanities
ballets
punished
damages
packers
guyana
rescued
nobleman
swords
amphibians
judgment
dusseldorf
twilight
unemploy
benson
cdu
het
io
kru
lau
mab
nakh
##bath
##cut
##omed
toe
topped
##ongo
trips
compat
##endium
indeed
twelfth
parana
amino
weber
eds
booker
elena
##iewicz
raja
transmitted
bertr
cyrus
franconia
nightcl
fert
curved
dialogue
aspect
##birds
witnesses
caucasus
consequences
prefix
rutherford
tchaikovsky
aosta
bates
gore
mistress
##bh
##amous
##add
##itya
##ifier
tear
gru
jock
earning
##anka
imdb
duet
malaria
##zek
institut
machin
lovers
kirch
ryuk
ricky
levy
rumble
stevie
essayist
jubilo
##music
subsidiary
aristotle
##crapers
gle
lighth
tuc
wart
##zt
##oris
##than
##thor
##tham
##uti
shannon
cone
scared
cron
emilia
corrupt
empires
bayer
semif
bonn
speeches
searching
brighton
quantity
shadows
lizard
##foot
lexington
recreation
dixon
skyscrapers
aztec
emblem
voivodes
cyrillic
boun
cis
hs
ily
rains
rides
##hot
##itely
reys
##irang
beaver
shia
pratt
doz
143
##ulla
intest
civic
sunni
garage
rounded
miracle
liberia
taxi
controlling
kanji
numerical
bunker
neutrons
narrative
hijack
fountain
okinawa
aggregate
gland
mish
poul
vip
zhu
##hang
##fus
##mia
##ingly
hect
##andan
tect
bandy
irrig
topeka
associates
specially
labrador
ballot
trainer
theatres
bhag
diagnosis
weighed
pupils
neighbourhood
reproduce
tactics
multiplayer
mankind
shrek
eukary
bench
dah
hai
nude
nils
pants
##rish
##wara
##jak
##arp
##itted
##amon
##aryn
comprom
indirect
1750
syrac
augsburg
archer
avis
parking
##esha
needle
darling
aquarium
couples
nationwide
occupations
lindsay
reduction
flooded
paleont
striker
clerk
##piece
pietro
anastasia
concluded
ambulance
schizoph
andorra
integral
bite
cited
nay
##estown
##berra
##ieve
spear
ups
##ulture
1200
##urnal
config
vega
haun
medications
burnt
photographers
absence
bitter
geneal
concentrated
isabel
consultant
saxophonist
sparrow
renewed
daisy
oracle
eritrea
giorgio
odyssey
certificate
dord
hanc
iq
yv
##lord
##pot
##vd
##ml
isis
enzyme
exce
gron
herbs
agr
perce
resol
drought
buchan
majesty
midway
castel
aster
robbery
torped
garland
mixt
707
renown
savo
1786
978
deposits
balochistan
ensemble
aims
cody
dic
pots
rfc
td
##ør
##enta
##adic
frat
##igible
shik
##ostic
exchang
##ikes
acet
barra
takah
passer
errors
devot
hunted
futur
locked
##wright
owens
bouches
banner
ecuadorian
heinz
aurora
enzymes
carnegie
syracuse
schizophren
saves
##onge
##entric
shores
placing
##ocated
clusters
livingstone
interim
30th
assets
downs
grains
characterized
developmental
chamberlain
definitions
calculate
carnival
kathleen
##hardt
thermodyn
horizon
bamboo
diagram
specimens
bambi
nutrition
neustadt
ebert
pace
##isle
##opters
##imon
unn
unix
##illas
canberra
adul
##ignan
##eps
surge
filter
##letter
##ylum
antimony
devast
melan
moselle
prompt
audition
commanders
claiming
commercials
neuros
crystals
##angelo
dodge
heavier
encourage
hammond
extraordinary
cels
dante
gin
iucn
mn
ness
nath
zak
##has
thie
##arina
dex
spinal
grades
registry
stark
careful
grandchild
receiver
mcd
330
effectively
haitian
eighteen
colonists
conservatory
emerged
kurds
tobias
anthropologist
voyager
improvements
dissolve
bomber
nguyen
comprehensive
3ds
cory
joke
rik
sino
##tys
##onen
alter
##imoto
##andr
unions
marriages
examin
##ryn
mons
servers
email
##itsu
260
vienne
antio
descript
melt
browns
separates
venue
savann
rolls
snowboard
lyndon
prevented
alexandre
butterflies
opportun
prayers
reelect
fluoride
temporarily
etym
tamb
wink
##58
andr
shine
##umen
##umar
orion
brend
presley
##onscious
elm
collegi
winchester
safely
hussein
python
cruc
sinks
accounting
poker
cowboy
permanently
remainder
helicopters
volunteer
babylon
hereditary
pt
zack
##lake
##vant
anc
##osi
uncom
##uder
##sei
claws
##anges
##eyer
bram
##inders
alba
crescent
24th
##writing
erin
argue
entity
informal
planted
pottery
1782
participation
promoting
##zzi
kerry
1707
velvet
joyce
recommend
councillors
semicond
eccentric
np
rivals
tau
xin
##iq
##fil
fra
conclusion
sheets
##ouss
blamed
genoa
1620
artif
jealous
interval
arranger
sometime
latitude
beginn
convicts
coastline
wilm
##islav
bolt
marcos
shrubs
omaha
cordoba
ghosts
yugoslav
utility
guerrero
antibiotics
saffron
unexp
manganese
willem
reysol
gou
lumin
poc
paw
##hin
##cular
##59
##inen
##isk
stoke
forcing
##iston
nec
tek
boo
carved
minds
drom
interrupt
volta
##parents
ideology
behalf
inhabited
orchestral
1770
ibm
carrie
illnesses
shaft
echo
truly
inauguration
reorganisation
higgins
tudor
syphilis
dz
kand
moul
nj
pistol
##atta
##agram
uncon
conway
thatcher
spies
##techn
elim
intercontinental
braves
villains
developments
malik
montp
reads
egyptians
mountainous
bombard
bolsh
landsl
significance
thorough
gymnastics
consonants
symmetry
telecommunications
tadpoles
collegiate
dive
hust
kod
tl
wounds
##dig
##inced
##raeh
seaw
##fering
boiling
##qui
##lectric
airs
belfort
##ocks
extend
gotten
scream
musicals
republics
renov
ashes
tablet
dolls
buffy
shelley
mazraeh
examination
folded
vishnu
serpent
unfortunately
cag
dd
dams
fiber
hyl
lips
oasis
uly
vort
vass
##hara
##bys
##eras
##inte
##itas
chord
aside
##athi
grants
##acent
perkins
providence
##liner
harriet
stealing
##itsch
remar
marty
restore
distinction
turkic
combine
julio
somali
methodist
1781
synonym
charleston
theresa
jonkoping
pyg
randolph
freddie
cooling
pollen
mystic
neutron
lavender
kangaroo
ichihara
sacrific
fibers
attributed
viscount
natalie
patterson
cows
ips
panda
##bies
##itory
anita
##esti
neville
peck
mari
exha
clients
boone
##weed
##azu
imam
develops
physi
richter
journals
louisville
painful
medication
fauna
padd
aerial
boulev
poisoning
##kirk
##ithmetic
forgotten
improvement
cliffs
substitute
jurisdiction
pascal
nissan
dairy
hancock
kant
nymph
sins
viva
xiii
##hov
##vey
##ilion
##roads
fry
arithmetic
dias
nationality
depicted
smile
152
albire
barrow
##ainty
entr
bulld
anthology
kyushu
telugu
##dfdf
rudolph
clayton
sophia
pentec
giul
macedonian
fragments
norte
dolphin
renewable
yamagata
hymn
dfdfdf
bella
lone
oval
wards
##wind
##jack
##stones
levi
manip
flip
trails
undergraduate
iris
flores
battlefield
joseon
punch
convinced
opposing
dunham
confederations
bryant
photosynth
nanjing
grandmaster
fourteenth
##eboard
hogan
deeper
deutsch
exclusively
bmw
encryption
overdose
spherical
cannabis
avispa
fon
fond
kush
niz
tiber
##rage
##mand
##orum
relev
##rob
chor
chol
##estan
singular
gerry
basal
##iera
bare
everg
myspace
assists
freely
veronica
astur
fails
soviets
hunts
transpar
boyd
programmer
narc
gabon
options
hansen
baked
phillies
stevenson
weighs
thornton
biochemist
dudley
forecast
hernandez
acknow
disbanded
dumb
gus
kut
rt
tc
yuri
##geme
##rise
##vre
##vik
##mium
clade
##achim
carriage
adele
##aceans
coeff
mets
lois
dividing
backup
missiles
physically
shortest
halle
latino
explored
halls
cheer
watches
jonas
polymer
salvation
nepalese
phylogen
telescopes
gauge
flexible
enrique
thuringia
##through
elimination
aks
dl
lied
wong
##igl
ches
##agna
##emes
shields
lea
allig
##ffy
##azzo
quarters
walks
irreg
incarn
##erville
firearms
criteria
coven
curitiba
choices
cellular
planetary
dissip
padma
kabul
podcast
conventions
bacterial
bankruptcy
pentecost
biel
fulf
gamma
hild
kow
kish
kolk
rp
ramp
tips
za
zip
##km
##ayashi
condom
spur
##ilee
swab
##grass
sims
rememb
countryside
occasion
episcop
50th
arrangements
sulfide
##balt
constellations
sankt
cunning
abundant
beds
eun
nair
pim
neolithic
cola
butt
noon
italics
simone
skip
bandleader
gloves
christie
28th
labyr
copied
hoover
cephal
samantha
toro
trojan
simpler
protesters
significantly
krakow
chandler
bismuth
hastings
dauph
bertrand
schizophrenia
irregular
aang
bisc
##gil
##76
thurg
##asan
stack
##irk
##iped
tric
clive
norwich
##ensburg
flux
lax
weston
patch
sonny
occident
equil
astr
collective
willy
corners
draws
addresses
trafficking
concerning
mansfield
corpus
outlaw
maltese
vulnerable
trademark
unexpected
aal
cen
gong
naut
##nitz
##ratic
andres
##stro
stems
##adle
prosp
aryan
cannes
manning
##mans
blizz
perception
geo
##group
elias
makeup
obey
takeoff
settings
botany
adjacent
procedures
destroys
bipolar
snooker
hertfordshire
schneider
410
gaga
gdp
nr
tand
##olome
204
stup
chim
##ulates
pollin
carb
gob
regency
buchar
strang
##sheim
builds
##ijuana
execut
puy
ethel
combustion
privile
banana
alej
unconscious
umb
isolation
rituals
inquiry
specimen
lyricist
licensed
albirex
nero
##zone
##gor
##fields
##person
##prises
##ædia
##atl
##amel
##ulator
shang
##akura
conse
##arde
##anted
playable
monts
desktop
invas
treating
silicon
##afar
vegal
efficiency
garner
papal
1774
editorial
custody
dreaming
polytechn
imagine
benny
habsburg
hubble
lecturer
lagos
ugly
apostles
jakarta
coconut
dortmund
bucharest
vegalta
fury
gop
laus
lunch
##iw
##iated
##frey
##arine
##alysis
##asco
206
##agos
unders
suk
##ibilities
brune
blanc
himalay
elf
assyr
avon
##loe
deliber
##uckle
pueb
bloody
plantation
dynamic
masks
namely
confirm
clinic
wyatt
descended
clocks
wishes
jumper
daddy
shonan
workshop
gujarat
humphrey
dens
nets
viz
##100
##anza
dei
chav
##agher
##ithec
##oder
arter
##ornis
charente
162
attending
burt
woodland
curs
identification
rodney
falk
jennings
lobby
tulsa
khalifa
hodg
inaugurated
appointment
propaganda
unhappy
glucose
kensington
lid
nij
##iol
##lat
##ulas
manor
clap
poit
lars
expelled
backwards
##ophone
treason
goodman
##hei
realm
authent
##maid
##vester
garrett
nevertheless
vanessa
smithson
completing
vacation
filling
kerr
theodor
increasingly
cecilia
pseudonym
vastra
drowning
segregation
northumbria
renowned
mourn
pact
rovers
teng
##ech
##won
##eratops
##arie
##leigh
tow
enthus
sparta
##ogens
##ppen
##ugawa
amelia
guided
metac
ecological
midwest
designing
verlag
1830s
breakthrough
magnific
contracts
mutant
##untary
touchdown
gateway
grossing
escapes
strictly
isotopes
scooby
murdoch
mosquito
voivodeship
boulevard
episcopal
aa
cough
fidel
goss
linn
rs
##kus
##elong
chil
lean
tricks
compens
adolph
256
companions
270
capitalism
petrol
balloon
hopes
staying
jacobs
demands
tumor
homosexuality
lodge
rwanda
falcons
resurrection
##abulary
cout
lays
pint
##front
##ан
andhra
toh
##igraph
pey
grind
boost
##endale
##izers
##clamation
appre
eli
ida
irrit
antagonist
balk
##ijk
objective
crafts
weightlif
hanged
alfredo
explosives
transformed
demonstration
integration
blessed
tattoo
anhalt
ffffbf
cfcfff
kv
sars
##cell
##went
##jant
##°c
##alach
ching
##allgau
plato
spiel
##uben
##qual
brenn
reserved
mint
reliable
consado
defines
olympian
merry
310
mcn
karate
troph
nobles
sandstone
inhib
difficulties
touched
morton
cumber
eucl
demanded
correspondent
infrared
coyotes
ptolemy
consadole
dign
homin
jing
jinn
nos
sd
zor
##jud
androm
##inge
heidel
suck
hasan
livest
disks
cobalt
reginal
weaver
crest
smallpox
##look
##ippers
tops
peterson
raped
strain
kenyan
reportedly
respective
##walk
pushing
ssr
hazel
wurzburg
fraction
goaltenders
councillor
boulder
faw
pony
sinn
wires
##xley
##43
##sta
stole
stability
##adia
unification
energ
compuls
##ibu
engel
##ologically
edible
organize
caste
silv
storyline
etat
petit
ferment
racecar
##baum
boarding
hawkins
bombay
leonid
celebrations
##hrer
hellen
ipad
jumbo
jumps
sutton
biochemistry
sedimentary
proceed
sanctuary
hedgehog
siegfried
etymology
bows
cope
cyl
dab
hoss
vad
wester
zah
##rous
##wl
##enk
ismail
##elope
##stick
##etian
orator
nect
worcester
engagement
##clair
##tex
##ugg
minh
willing
creators
142
stranger
##ropshire
gloss
greenhouse
screens
hoh
galicia
holdings
##hao
modeling
hungry
seminary
meetei
pitjant
1779
unlock
substant
sufficient
illustrations
rivalry
skilled
wanderers
cynth
gour
tidal
vitt
weld
##fun
##vier
##9f
##aten
##ombo
##chat
##eti
chimp
shout
shropshire
##ikov
##eyn
herod
mai
edmond
baritone
salis
##rico
##brand
protoc
royals
samar
melanie
dracula
distributions
potatoes
frontale
julien
payne
riverside
danielle
poorly
abdel
##criptions
burgess
bromide
cinematographer
rabbits
tajikistan
konstant
bells
bunch
cyn
hue
kro
pena
rih
fright
una
prints
##ansson
parach
famine
backs
muk
macbeth
crossover
protector
combines
boxers
insult
##guard
photographic
##print
archaeologist
reveals
##wski
calculus
occurring
troubles
lantern
striking
kumamoto
dalmatia
bismarck
denominations
pilgrimage
undertaker
abdomen
suriname
hotspur
labyrinth
himalayas
bree
cw
coul
dus
oro
pog
rama
vl
##rics
##power
##90
thou
##inho
##ioni
isn
alley
##abria
hera
##ppard
hades
acre
greet
##obar
everton
rede
blacks
holt
composing
##brunn
destinations
eighty
reactor
rosem
akh
scripts
1772
swimmers
cricketers
nitrate
pontiac
awak
atheists
inheritance
dexter
heidelberg
cement
lol
nil
nog
rolf
##nay
##dor
##wagen
stain
##chlor
##urities
##ulous
proton
prat
spices
guin
betray
establishing
endemic
augustine
loth
killers
myr
olympia
godzilla
thirds
3166
jewell
urine
darker
certainly
exceptions
moments
touching
anglia
vowels
firefight
crosby
qaeda
reginald
pitjantjatjara
vu
##hak
##zu
##omiya
frau
##opf
altar
leis
spice
##ikan
php
coch
guides
lai
quotes
emile
prototype
colorless
gotaland
sami
choosing
drummers
5000
logar
synt
1768
reduces
locks
defencemen
teddy
necessarily
reeves
kernel
monetary
turkmenistan
bain
garn
h2
##pard
##post
##watch
##77
##ormer
##aret
ono
forwards
alten
whitt
##iao
seym
rox
##ibald
joachim
##inde
amir
noir
##ollah
lateral
regionalliga
27th
goldberg
militant
hooker
watts
frankie
osborne
transplant
murderers
insane
citizendium
##iosis
rajas
cooler
finishes
mentor
consonant
cynthia
512
cern
dru
euth
haf
maus
nolan
pug
rage
tide
vapor
##puts
##asio
stanton
##adena
##ayana
##ulating
ariel
rooney
bloss
append
guys
##ankton
moths
##inny
terrain
##shore
bushr
politically
resting
knowles
bowie
telenov
defendant
vaccines
weiß
acronym
mcdonnell
fertile
opportunities
eich
sina
##yder
##riz
##oram
carmel
##anson
sche
ammon
travers
modes
epstein
michele
billie
graff
alexis
aziz
perseus
newsletter
promises
commands
felipe
nicola
##utenberg
wheeler
napoleonic
tickets
stretch
implementation
innovation
abbottabad
shrews
juvenile
registration
ceb
jod
nk
rack
ruk
render
vaux
##zman
##rs
##violet
seville
##therland
exiled
afro
aden
indy
eddy
1400
barker
module
245
helpful
##heit
popularly
conviction
influenza
textile
predomin
1773
pulp
cummings
constituent
##iggs
psychiatrist
yourself
loosely
doping
eus
foul
pomer
sark
##nic
##yah
209
##owitz
atari
##ipa
exo
flown
medina
214
225
severely
##chev
macro
deadliest
ghaz
microbi
shootings
49ers
##backs
hannibal
gnu
chopin
guarant
nathaniel
overthrow
dictatorship
buchanan
celsius
emanuel
fy
kou
rin
tome
##oot
##frog
ane
reop
##oved
##antly
clare
grams
##assa
##qua
##icki
workplace
141
canadians
##sses
eccles
olympique
heading
moreno
freight
cycles
ratified
saddam
axe
approaches
corresponding
leopard
repeatedly
spawn
dorset
staffordshire
coventry
launches
presbyterian
mesopotamia
aq
eust
kats
mersey
pamp
piny
vander
##cence
##itate
##thitta
##otr
alison
alvin
chili
asylum
##osity
##mere
##esta
conferences
sutherland
clint
ware
minsk
builder
guid
##obic
departmental
215
valign
static
incorpor
sonata
##auri
##plus
handel
##arno
halluc
karab
melting
##luor
macau
baller
panels
citrus
crabs
beatrice
elevated
gilgit
dreamworks
domesticated
expanding
granite
streaming
elderly
auburn
bamberg
mimic
jasper
enlighten
joaquin
smithsonian
kins
mord
tire
##rats
##78
##eson
##orr
##atio
##atism
##icist
##andi
##pha
##aceut
regina
weaker
highlight
surpr
##unga
magdal
raul
bali
nightmare
troop
chapelle
tablets
accessible
occupy
frequencies
investigate
kinder
transformation
brigadier
mackenzie
lectures
absorb
decorations
excellence
ordained
malayalam
injection
salisbury
awa
bount
baj
gull
##bold
##kl
##icity
##isto
##andar
sheldon
##cki
nex
lethal
prisons
ars
##antan
mez
foundations
rows
##intosh
harlem
##yna
solved
29th
palme
realizes
erl
handling
zepp
letting
panch
365
##theim
dynamo
cornish
captivity
480
sabbath
fuels
cinder
bearing
ladder
lamar
confederates
1660
vinyl
laurel
arrows
ultraviolet
sustainable
commemor
##church
irrigation
kolkata
enlightenment
ao
gaining
haus
huss
lust
tones
vhs
##dh
##dn
##cas
##erl
##inga
##athlon
scouts
carbo
retain
governmental
salad
superstar
##ethe
distur
primetime
considerable
jericho
esk
graduation
committees
quarks
feminine
beside
ingrid
mollusc
pinyin
bump
fus
fang
pou
##70
##atum
##aline
##stag
shank
une
neander
##site
scann
mein
joao
mona
weiss
smur
attitude
harass
loir
valve
walton
##coe
gettys
deborah
##ijah
franks
##ucci
costumes
wwii
cao
absent
cosmon
embedd
1759
sculptors
ethnicity
lincolnshire
landscapes
orioles
cosmic
czechoslovak
jakob
ffdf
pixar
prostitution
sesame
intercourse
triumph
seymour
gettysburg
mbe
pis
##zes
##lights
##daughter
##ᅡᆼ
thall
##rem
##thouse
heis
prol
##abh
exter
##awar
nationals
apps
trauma
barney
##obox
malawi
erich
##afi
eleg
tenure
semen
##untu
immigrant
faithful
senses
witchcraft
analyst
drowned
toilet
jockey
euthan
cosmonaut
damp
dump
oph
xp
##uco
##pan
##alist
##icide
stella
##uria
##oden
aren
spit
##uble
cane
suv
##adeh
amus
barrett
operational
irwin
justices
mald
bodybu
technological
similarities
puff
microp
rosario
##guer
strokes
missionaries
theorist
regardless
gothenburg
demonstrations
motorsport
reunited
infinity
uniforms
recreational
niece
remarkable
endorsed
byrne
dundee
covenant
ffdf9f
cf
korn
lv
turing
xu
##hun
##yang
##iard
##got
##kowski
##words
##ouk
##agger
whip
unrel
canoe
bela
consent
interf
##ophage
assam
revived
inca
williamson
paler
devi
climates
nepali
oscars
trinita
throws
mongolian
methane
peggy
satirical
wilmington
brunei
livestock
550
lys
mh
tyson
##lace
##pow
##wat
coma
##raj
marge
##issions
pooh
##aleigh
irv
raff
snyder
macc
combining
privately
navajo
laboratories
1765
freddy
gorilla
interactions
lazio
beech
marquis
peasants
introduce
mitsub
mussolini
erosion
surprised
embedded
cv
ffe
ping
zimmer
##lass
##geb
##mart
##enheim
##ameral
wasps
##ivism
chill
##cke
afl
compose
gerhard
##onshire
himal
departure
slopes
simult
simulation
##ungen
arche
patton
##nais
refuses
georgetown
libyan
galactic
racist
orbiting
worshipped
gambling
adviser
flavour
occasional
reyk
ghanaian
subprefectures
turbine
gloucester
nirvana
wavelength
poseidon
airbender
##ppsala
ulysses
##aceutical
aki
coca
tatar
uppsala
##bra
##listed
##cially
##alon
##stru
##ulam
##osition
enorm
enjo
birch
herak
permit
recipe
weird
151
lawn
elbow
strips
maternal
discs
burlington
clever
huang
galleries
gallagher
healthcare
vocabulary
##erback
caul
jesuit
pathanam
katrina
1755
dimit
licence
unclear
habits
baptiste
framework
dissolves
stirling
reddish
mormon
andromeda
mitsubishi
pathanamthitta
igu
lille
lena
nast
sich
saus
veto
wigg
yere
##aute
##oja
##ersch
ada
buttons
flick
communion
estates
##iero
apolog
maure
juno
internaz
##ometric
operators
godfather
##psis
rhy
##afe
governorates
putin
athena
networking
derbys
bulb
##rella
paths
1758
tyne
questioned
patriot
michelangelo
advantages
tokugawa
anarchist
fertility
touches
cultivated
hoffman
apprentice
peppers
cakes
ego
fk
hats
jade
joker
kik
vault
##nor
##tel
##gage
##arna
##ilation
##owe
##iae
##rav
pras
supers
disag
##uala
pert
warmer
dole
brooke
##ups
myc
walters
portions
magistr
operative
luft
curric
currents
burials
enterprises
rupert
athen
punct
territoire
640
danced
commercially
improving
sabres
##iability
sickness
amendments
sultanate
dramas
transformers
phylum
ponte
volkswagen
unstable
lighthouse
internazionale
derbyshire
fats
fuck
hated
lama
sights
yon
##yama
##zac
##iqu
##los
##fal
tosu
##ilon
##uno
maroon
clone
scler
##acular
bricks
austro
emerson
suborder
harps
angu
busiest
235
gravel
henrik
urb
hostage
convict
##opsis
micron
chooses
collar
wilde
privacy
pasadena
##holder
daniels
consistent
quantities
shelby
mistakes
hazard
knocked
prophecy
##iciary
pursuit
fascist
emphas
zombie
executives
420
aman
nail
pg
yoga
##bot
##cur
##leep
##idy
chah
sew
##onga
polk
compare
##awan
footnotes
schon
genev
helmet
auguste
##ophil
midland
donau
pauline
camou
handled
woodward
petition
olaf
shoe
akira
documented
billionaire
pedal
shrub
sioux
gorge
jamestown
1723
confederacy
laurie
tyrann
feared
constructors
kitty
nerves
meteorological
spaniel
equatorial
##ablanca
yerevan
eta
riz
wir
##hes
##kick
##dc
##pian
##arity
##asim
##oule
##iras
##optery
##iak
##alling
##estar
plast
prok
##mental
exeter
grig
bloc
blades
precious
pools
seasonal
247
socialists
davidson
torre
lifted
dalton
aspx
corey
doubled
wetlands
disappo
cortex
benton
negotiations
##apuram
nocturnal
##javik
aig
cah
gyeong
ij
kitt
senna
uh
yeast
##dio
##jas
##inians
##olly
##aden
##ianism
whedon
shri
plut
##abo
##abar
marijuana
abused
colts
##ateral
desper
moirang
eligible
##ophyll
##after
ruff
karak
cleop
primates
gunpow
tarant
observe
akbar
promotional
kimber
ernie
treasurer
gibral
autonomy
tetrap
chalk
apostolic
##garten
mclaren
rattles
grandchildren
asturias
carbohyd
reykjavik
gunpowder
ave
ks
wond
xona
yash
##kal
##dar
##vill
##vide
stiff
chassis
##osse
seism
ornam
##akis
##ieur
trend
##oken
permitted
minas
drift
scha
geologist
1300
barium
interference
glow
hume
confident
henriet
believing
mustafa
disturb
osman
ulster
bolton
04°
illustrative
##worthy
nagano
exhibit
jessie
dubbed
levant
focusing
wiener
johannesburg
eduard
gelderland
memoirs
lafay
posthumously
alejandro
metacritic
euc
hm
mound
sb
tach
##88
##yers
##oge
##sberg
##cad
##onies
##thest
##ovna
lech
##asta
##ellers
diaries
flank
amin
##olla
elsa
loch
##shaw
##boat
constance
##bris
burst
washing
traders
findings
mcph
detected
limbs
340
1764
katy
emotion
gwen
theologians
pamela
yamaguchi
demolished
brilliant
carthage
compromise
blizzard
rihanna
lafayette
hone
kinn
lom
mous
viper
##gins
##rians
##anos
##aris
##edias
stamps
forts
alicia
alonso
chong
##iances
shat
shun
clans
boyle
carc
reson
1714
communaute
##onson
guill
##link
##unders
archibald
##retto
##heed
critically
gunn
josephine
synag
chaplin
##emption
corporations
1757
tanaka
sorry
catching
subdivided
compiled
pharmaceutical
laksh
phenomena
hainaut
mauritius
thurgau
protocols
cbc
kost
kep
oj
oils
pinned
yaz
##hyn
##wolf
##mod
##oring
togo
##olit
fron
forrest
beir
sepsis
##oding
prose
arid
##ocial
compression
coinc
##leville
poe
themed
elastic
australians
loaded
actresses
auction
marking
sunk
horr
bayreuth
##ascus
huxley
naruto
carlisle
generator
randall
1740
attractive
hypn
ignored
nineteen
unsuccessfully
jewelry
lagoon
assessment
uterus
equilibr
camoufl
bau
bose
cact
hire
jiang
kud
##ng
##web
##jana
thess
comets
conj
##illera
##endish
mayo
##indy
outcome
elaine
backed
##inkle
intens
composite
haley
verdi
camille
socialite
horace
nonstop
wilder
candle
warships
scratch
nicknames
addressed
calculations
chromium
mistaken
acceleration
pilgrims
crushed
phosphorus
gloucestershire
dismissed
savoie
710
fia
liam
paz
wand
yen
##tics
##erjee
##orca
##enay
anonymous
##eles
##imeter
comun
##sev
manfred
sumer
claw
carver
##erna
warned
cobb
accus
##berty
natives
transist
downhill
academie
copp
planck
wilts
furious
dynam
nuclei
princely
deeply
essen
ayat
encyclopædia
cordillera
cousins
bubbles
mentions
jubilee
pursue
advertisements
neighbors
jedi
alessandro
configur
syntax
amusement
720
eman
fanny
gaut
kall
kip
lager
lengths
mok
pv
pah
vascular
##oin
##fax
##ск
##anus
##leine
whal
##iege
##orted
##ikal
norr
adoles
resorts
intention
solids
superc
supervis
visitor
1820s
condens
saxons
legislatures
weakness
linguistic
pioneers
1492
keyboardist
marxist
skeletons
digestive
eruptions
isotope
affiliated
shogunate
kofu
antiquity
ursula
nielsen
thesis
gewog
unemployment
baxter
cary
dahl
giles
henson
jain
kc
pins
woo
xl
yor
##iast
##41
##qi
##oue
stig
stake
##aghan
##race
enab
##ebrate
newest
allmusic
mina
##iversity
genetically
euros
accum
magician
verbs
francaise
explodes
explicit
hawth
agreements
1771
generic
axel
cavendish
ancestral
pigment
##metics
neurons
shining
treasures
steinburg
unfair
siberian
##girl
bissau
cunningham
gibraltar
510
lapt
seng
tant
wig
##zai
##making
##ᅡᆫ
##esy
##omac
##elas
reck
sten
##etten
chh
plenty
conan
peps
##achal
serbs
slender
##shi
salts
avant
##otherapy
filmfare
##heads
##hampton
reformer
washed
freezing
benoit
damascus
puberty
requested
bombed
##iyama
cables
generate
bahia
##chenko
1754
dvds
##ulsion
updates
monasteries
##ilisi
crocodiles
allegedly
aviator
ultram
antigua
acknowled
spielberg
##video
wiltshire
cid
gd
hl
kass
kris
raleigh
trit
ufc
yev
##75
##aram
ante
##rown
##otrop
shed
##osto
complement
##ensky
##eco
evalu
depot
fein
traps
1100
subd
instinct
consens
remind
supplement
extending
granddaughter
tribun
risks
suprem
fluids
doris
spectrosc
reflected
reinforce
bohem
nouns
myself
groningen
lausanne
rajasthan
beirut
cfb
gt
hound
yield
##ska
##cam
##cover
##79
anand
##stit
stun
ascle
shade
sealed
leuc
mariana
marguer
trim
goats
moody
juniors
quoted
metz
##obal
##obact
modest
harb
consolid
skat
skaters
realize
harding
judiciary
stadt
kras
bronch
affecting
cruiser
fulk
steelers
quarterf
installation
prelimin
float
dyke
stratford
consumers
shifted
carnivorous
mahmud
condemned
jinnah
aneury
bounty
rattlesn
b2
boll
ei
gug
hau
iro
rov
rans
rover
sint
tilt
##lene
##wo
hep
##tera
##rach
neh
neum
arbit
polling
meals
herd
##ansk
disqual
monty
coats
caled
specified
eurasia
elijah
landes
##ylus
keen
burundi
seaf
occult
entities
robbie
ballroom
projection
disneyland
casa
slee
seventy
bottles
gorbach
investigated
sylvester
gonna
rhein
sturm
deportivo
supplied
##ophageal
bai
ginger
gutenberg
sot
sart
##zed
##sar
##vinsky
inac
##ouard
##iona
toch
rejo
##idis
shake
##ishing
atp
##odles
##abil
##ichord
teatro
marm
##izo
twain
1730
evelyn
stripe
divides
salary
sumo
31st
cease
boycott
semitic
##utsu
messier
wikimedia
dealer
1760
1769
omiya
nomadic
jointly
aluminum
responded
celestial
tbilisi
ammonia
karabakh
dm
gom
kes
rms
tain
zag
##uctor
##anium
enlar
aria
##usted
##erno
aggl
##ileen
livingston
depict
traces
longtime
##riot
archdio
avignon
midfield
##aneously
intra
hyogo
vanilla
reactive
dominic
inventions
660
kohl
spray
naomi
linden
1603
maximilian
massacres
thirteenth
mendel
kidnapping
javier
complain
brahms
hispani
intersection
zarago
adoption
nieder
haunted
occidental
thallium
palermo
lans
null
rott
rca
siam
tern
waff
yuc
##bred
##lop
##park
##journ
203
stitch
wass
##addin
mecca
seren
nora
overcome
formations
els
retre
bandico
olympus
entries
garrison
##ochond
430
shrimp
threatening
recipes
adaptive
montevideo
##hofen
algebraic
guerrilla
venomous
kaiser
wrapped
kollam
tiffany
nightclub
520
cuck
dye
eury
mw
taur
##rada
##ße
##anim
##ischer
##iste
debris
compress
scal
scro
norris
##adec
warrant
madeleine
amal
elector
albion
careers
retained
##shot
animators
##isei
##coon
decomp
confuc
poster
petty
sharif
ballads
##bao
completion
concertos
preventing
matthews
fishermen
gabrielle
merchants
glaciers
withdraw
inaugural
psychiatric
metallic
helmut
pearson
aesth
dewey
annexed
metabolism
baltistan
torpedo
##luoride
zaragoza
411
ett
hides
ike
icc
lakers
rai
##will
##на
thang
##itated
##itative
##ilies
frie
unde
byrd
trich
phel
flats
##ignac
syrup
##ysz
barre
##areth
loans
221
##heart
frey
cambrian
exploded
cleared
torch
institutes
eighteenth
rainy
spokes
baha
catalogue
continuously
dramatist
suzanne
hammers
ampl
attendance
iodide
gavin
andersen
burrows
hulk
cottage
nectar
cinderella
cleopatra
archdiocese
caffe
cindy
gaza
hiber
tyn
##iom
##sium
##rier
##may
##cheng
##ritis
suce
clair
colt
##ernity
britney
arturo
rowing
bari
barons
infobox
slogan
busan
croix
takeshi
sanam
mermaid
campuses
advances
tempo
antis
khor
murcia
##uela
replaces
persist
translators
stravinsky
mahab
printer
cubic
injuring
##atiya
atlantis
##foret
picks
calendars
reigned
fulton
investigations
precision
pulling
##iferous
ichthy
challenger
grenada
crustaceans
multiplication
kronos
intervention
##jevo
impeachment
machinery
enormous
disagree
glee
oth
tm
vectors
##alk
##omial
##entina
heian
alarm
##igious
ung
##umoto
playboy
manson
tristan
##aci
phases
acclaimed
gotha
minus
syed
##indi
socks
bett
safer
steele
212
254
decis
duel
downloaded
extrat
sonn
palat
catches
debates
visa
macos
processed
climbed
charted
breakdown
figur
orchid
abbot
akron
accepts
reveal
seller
oblig
sorted
##rodite
##otypes
russo
horton
emigrated
warnings
iberian
evergreen
cumberland
extratropical
aero
bp
corm
dach
mister
##zzy
##prising
##ер
ingen
##amins
stats
##usz
asleep
##avers
joints
scho
northampton
guiana
1621
octopus
steady
##ossa
royale
finalist
##otechn
failing
woodlands
323
halfway
mountaineer
##mingway
rosal
liefering
graduates
exploring
mutiny
gangster
yamamoto
zhong
targeted
bloggers
##arthur
wizards
dorsal
borrowed
aleksandr
encounter
euler
adjective
semifinals
herakles
bony
dand
dok
hahn
kaf
ler
sage
tung
ure
##kaya
##mie
##arg
##lea
##idium
chatham
##agara
comuni
sey
##ongs
1713
recycl
guilla
saud
edison
romney
sket
muh
##atorial
professors
grandparents
ceramic
##umba
authorized
bullying
cornelius
daim
hydr
investors
rotating
siem
4000
industrialist
lockheed
preparing
defenceman
approached
gambia
##rophic
shocked
loyalty
kreis
miyamoto
claudio
conventional
sustained
pyramids
rainforests
binding
adriatic
robbins
andalusia
invertebrates
zeppelin
equilibrium
bok
hib
kahn
lour
mj
mens
siv
tends
tires
uph
woj
yel
##hock
##hoven
##uen
##pu
##itism
##amar
spends
##acey
deposed
albat
moose
lawson
##lined
harald
angus
magma
##aldo
dynamics
bordering
chairperson
audrey
mirrors
captures
rodgers
heroin
promotes
##zyg
trumpeter
andrei
dolj
bridget
vulcan
##bridg
kemp
rasp
allegations
microscope
warwickshire
galileo
uncertain
navarre
fist
kuala
lange
sall
uci
vod
##botten
##anity
##ayat
shing
neon
##aky
prud
teens
##very
coloss
##quist
paren
coined
161
intercept
skyl
everest
##ophobia
deciding
salon
raids
tito
histories
burger
activism
cambridg
erd
handbook
equals
clem
325
##uca
cartridge
furthermore
minorities
responses
resigns
ryu
catchment
converts
sticky
hendrix
chandra
fontaine
claudia
epidemic
derivative
boogie
dozens
artifacts
photosynthesis
preliminary
cambridgeshire
dorn
geb
kis
pich
##non
##fold
##ented
##olles
##iris
##advant
forens
aly
abig
mep
norma
prejud
charlem
##vez
skane
skinner
numbering
vald
##onyms
##zej
conflu
grands
antique
finalists
##bez
oxides
huff
##ihan
chairs
interviewed
##rosse
dealt
mechanisms
excited
polls
warmest
tombs
talented
frisian
vaughan
thunderstorms
ryukyu
thieves
brendan
eucalypt
marguerite
charlemagne
cds
dice
fok
jae
lenses
nod
rss
roster
samb
##65
##dong
##combe
##anov
##ersion
hemingway
##emin
##utors
##rae
##mani
abram
notorious
##ibar
meade
adler
##class
disadvant
brag
##igned
guern
meditation
belmont
showa
interling
christchurch
##ometry
238
censorship
morales
grapes
balkan
competitor
snap
ivy
otter
polyph
locke
shaun
1737
virtue
geographer
caucus
inflation
reefs
determination
affiliate
cascade
bianca
hydraul
thermodynamics
bolshev
maldives
aneurysm
2d
bans
bae
eck
kyl
kwan
uc
yoshi
##bet
##giving
##cats
##pop
##icy
##opathy
heil
aladdin
##imus
##emar
##emaker
ares
##icher
sheila
carcin
joanna
blanch
periph
doyle
feeds
thrust
impressed
##aius
ska
253
finest
voluntary
313
315
##beat
criter
etrus
frankenstein
administrators
ethical
##theus
370
ambush
scrip
hiroshi
organizing
1766
grasses
terrier
interpreted
harmonica
sarajevo
espana
fowler
devotion
dromae
magnificent
trophies
suceava
abigail
ditch
jokes
kiy
pank
pemb
ritch
u2
wahl
yves
##held
##nav
##lund
##dog
##erre
##itat
forsy
##ianus
shelf
leiden
ensl
##eburg
##ikk
carly
indre
##irez
estuary
edouard
impair
romero
##aira
deform
statute
luci
##araja
sumatra
antilles
erie
veins
squash
screw
behave
bangal
bernhard
ulrich
paso
380
billionaires
acidic
owls
toni
gifu
fragment
gazette
grunge
caracas
buckinghamshire
corinthians
ejac
synchron
gorbachev
511
bum
dung
kuk
nails
tigr
vitor
##89
##hey
##nard
##pad
##iten
##reck
reza
deux
chatt
##emont
unite
nevis
nebul
##ifers
##antz
exams
clips
adel
allerg
blown
coel
deploy
alban
profits
213
mukh
imphal
winnie
blackburn
##ippe
berries
menstru
palau
greenwood
sniper
coasts
faction
olm
mariah
caspian
introducing
lovely
expressions
memorials
containers
dolly
1724
printers
squadron
perfectly
anatom
imagination
prelude
anchors
bergman
tokushima
stretched
emilio
proportion
induced
mauritania
bolivar
mushroom
hutchinson
congregation
riaa
tejano
inflammation
stupid
guillaume
bike
fff
hott
kans
laps
leroy
nand
vans
wad
##bol
##uce
##pit
##oros
##aring
##aluation
##omeration
friction
alert
chis
chitt
##akar
##ichte
##oges
trends
scra
##eyron
##quil
perl
regen
britten
eurasian
exponent
##letic
222
patty
specials
ceramics
fireworks
destructive
macle
paints
##colo
ull
##oulos
probable
ramirez
criticised
therap
mutation
1748
1743
exhibited
jenner
grasslands
nichols
vertebra
ventforet
zoology
##birth
mckin
ribbon
fungus
accuracy
fayette
ipswich
cain
fiat
rue
renn
wadi
wacker
yad
yates
##zia
##gger
##sf
##cies
##ст
##isp
207
stairs
##igue
leima
##esses
##ogly
sued
##angi
##acia
mei
admission
twisted
##ologue
overij
crete
munch
undergo
jeop
211
avengers
##ombeh
palaces
angelica
franconian
##pora
ruiz
mustard
survives
vener
opium
ambros
##married
taller
eliza
armenians
acceptance
kazan
ellipt
sellers
zhou
tolombeh
mitochond
tango
terminus
claudius
beaumont
thyroid
uncert
hectares
relevant
tohoku
wage
xena
##nau
##fires
##puff
##vall
theological
##arius
inequ
##amus
##sty
staged
##chool
##rots
##illation
enrico
peel
peab
exod
suarez
troll
clot
diagon
roe
perennial
monsoon
rely
1066
appalach
weaving
guiller
invaders
demig
anyway
breton
pais
duct
olympiad
transc
goldman
vijay
tense
##osha
papa
##flow
bulk
##ihad
375
payments
##2012
reno
dominica
mccall
lindsey
alternating
baking
nichol
huntington
vasco
cortez
superheroes
##patrick
rigid
yukon
reverend
scandinavia
##worms
agglomeration
711
a2
bov
bia
gund
lh
pern
rory
rae
sos
##nius
##jong
##ен
tha
##onium
##aras
##isen
##esters
sufi
triv
trout
gras
musket
adobe
##oupe
creole
bests
corre
incom
bias
imported
transf
meridian
314
realistic
badge
urinary
samson
##ariat
haifa
declare
renee
cosmetics
wingers
celine
1749
numerals
soda
pitched
acquisition
kitts
reichstag
conqueror
yahoo
selenium
seizures
ningthou
enrolled
dordogne
transparent
alligator
nexus
asclep
peabody
bair
dros
fag
nib
pinn
rie
sorts
zw
##69
##cot
##cery
##cci
##von
##inational
##arro
##oum
stair
##opia
alike
chey
shet
##ansky
thereafter
##isson
crude
##urya
munster
bravo
romano
operatic
arriving
malone
titus
campeon
burbank
astro
snack
benito
damaging
ferm
cellul
darren
mirza
magnets
##rosis
koz
dropping
singaporean
complexity
hartley
sheridan
aeros
pigeon
syndicated
pentagon
##kirch
msn
##nikov
consulting
simplest
alvarez
neighbours
rappers
vezina
savannah
consensus
bandicoot
overijssel
baja
dillon
ged
jog
pisa
rosh
uber
##hole
##yz
##vili
##mant
##oura
##etus
##opolis
hears
##imat
unve
##este
##odle
prodig
canvas
clad
abn
dieter
polyp
##endon
##iker
##outi
##izen
engage
brie
171
1715
schul
esta
willow
terence
quito
##obo
westward
surprising
corrid
contrad
buren
silly
santana
tracking
sands
groove
semin
reviewed
qualities
dominion
goalscor
quarry
banjo
sedan
metroid
mariner
byzant
sapph
apostle
ascension
fetus
tolerance
kilograms
immortal
caldwell
hispaniola
albatross
bion
gs
kato
lilly
nell
ngo
pett
puck
sip
tae
yer
##how
##hika
##kien
##das
##vard
##esth
##orp
##oug
##ingh
styr
degen
chia
whist
leaven
peac
spill
sheppard
commuter
alla
1711
nationalists
munchen
##annes
submitted
surpass
default
218
##ophus
massif
royce
ruined
checks
lowered
travelers
maharaj
taxon
domen
icons
elevator
linking
pleist
surroundings
mp3
1745
pushes
nakamura
geneticist
tortured
regulate
clifton
collaborated
ubuntu
brewster
sinking
aurel
leisure
molluscs
aort
e3
kard
niet
rath
vos
##buch
##game
##itious
toby
##staff
waseda
##owl
##allo
##umo
sponge
##udo
##sohn
##ellan
scary
##ibles
carinth
disrupt
1720
lara
rao
wrist
312
##naissance
humanist
koreans
starship
damon
shoulders
mosaic
brotherhood
avery
islamabad
babergh
captive
##como
prediction
foreigners
nazism
celebrating
ruben
hayden
bananas
1741
oaks
brightest
strengthen
alec
controversies
certification
sulaw
llc
maintaining
rumors
tipton
geometric
gentleman
aubin
gwyn
merchand
marginal
comfortable
nhc
advertisement
beginnings
landslide
aik
gok
kame
##64
##jah
##mot
##arf
208
stub
##otine
##oway
deh
comeback
unmarried
artery
##arden
##achen
hermes
##ruz
upside
weights
marching
##obu
slot
loz
batista
solvent
##hea
100th
##ushan
argues
##arnia
##yrus
madras
detach
robson
##yeh
okayama
viewing
combinations
bernstein
transported
venge
commissioners
promotions
metropolis
alcoholism
wonderland
cadmium
kangle
gastro
humidity
stabbed
styled
emphasis
bolivian
schumann
cinematic
descriptions
tekken
yucatan
pleistocene
sulawesi
bly
mow
mott
naur
nantes
rd
ropes
##names
##witz
##ان
##alyp
##stage
##chuk
##ayy
ala
chich
##emed
seych
lept
arbor
sper
trol
colbert
scare
##anski
broom
##gram
strata
considers
217
magnes
epile
epoch
nowhere
vars
presenting
reflex
balanced
snout
horst
sentai
watan
photon
considering
saras
insulin
opus
essentially
shirts
lavigne
respiration
kinetic
comparative
chronology
carpet
essayists
gospels
coordinate
vilnius
##oplasm
lugano
bacterium
proportional
corbyn
quincy
centimeters
genealogy
semiconductor
euthanasia
skateboard
confluence
jeopardy
uncertainty
bison
maver
pence
pott
rko
sj
xxx
##hm
##gars
##para
##onal
##atri
##irs
hemp
sear
conjun
##abilities
excer
##avez
grip
##ansen
bla
offshore
basement
##aille
greco
johansson
elk
subc
stepped
redemption
##ometers
##ynski
colorful
sounded
pressed
hamid
pointing
prevents
esophageal
psychoan
##islava
mccain
emerging
controllers
sinclair
mi²
buddhists
rudd
1729
1689
fears
symphonies
hydrocar
vitamins
megal
breasts
barnum
smartphones
reconnaissance
rebellions
tackle
skirt
triangular
evacuated
tellurium
lumpur
consecr
cebu
bolshevik
ct
fide
kj
keb
keller
nurn
pesh
wanna
zed
##croft
##wala
##ativity
##lel
reims
##oped
##oplan
shand
##odz
tres
##ocar
##acus
##ptic
##erney
goa
evaluation
trait
##ographical
elab
landform
244
unionist
actively
explaining
competes
ceph
ceased
multimedia
40th
garry
curtain
anthems
venetian
capturing
linz
iconic
bruck
spreads
diplomacy
graphical
##ranos
solidarity
precise
salvia
gibbs
anatolia
pavel
reflection
parasitic
minimal
##childnames
strategies
resembles
stallone
vomiting
fierce
compatible
a4
buster
cey
faz
jared
kite
mito
zab
##fol
##wari
##jam
##omatic
##thel
##chl
##anders
unrest
##gean
trash
polly
repos
bluff
dray
gregg
swamps
beloved
mata
matsu
angular
natasha
protested
mered
courtney
ceiling
lesson
screenplays
browne
cellist
mahler
welch
cookie
diploma
lorenz
1762
1751
kuz
nikki
dickinson
fitted
ventura
zoos
gustaf
nasal
muddy
chopra
gcmg
aggression
unpop
induction
embryo
metaphor
crayola
marsupials
antioch
firefighters
ritchie
##alypse
dental
fals
jaff
kits
kaj
lined
lamps
sse
tender
ump
wanda
##xton
##inished
##arb
##alent
##omen
##olta
##adish
##oti
choral
##agana
shades
##rack
plankton
tec
aditya
securities
airplay
brains
eastwood
epist
avril
finite
berber
palma
millionaire
labs
erwin
madness
denise
wilbur
persians
coldplay
##uchs
commanding
innoc
hanja
molina
bagh
1685
virtually
clarkson
lanes
kidneys
supposedly
demonstrated
ritter
ardija
rodrigo
valentin
varying
quartz
pistols
thanksgiving
dalmatian
pfaff
kendall
reversed
hitchcock
caterpillar
wonders
kepler
quarterfinals
tochigi
phelps
hicks
mla
tiles
##85
##games
##upp
##sley
##kim
##kill
##wah
##arak
##enton
##olus
##adio
ito
deuter
asex
conde
leb
lear
trams
boise
brant
##ahua
guan
universidad
sai
##ismo
remade
303
brewer
243
duc
biod
transcription
menu
hardly
##garh
southernmost
tomato
coasters
protectorate
libretto
haem
cannons
digging
##comed
999
777
540
splits
oxfordshire
manufacture
splitting
saharan
shelters
watershed
svens
scarlet
behaviors
feedback
##street
sponsorship
instructor
pupil
lacrosse
cameroonian
##garden
rectangular
unnamed
irvine
excerpt
820
cau
pino
##busters
##tas
##grove
##whe
##천
reiss
reilly
fram
##unya
##iaceae
byte
##odian
spat
spac
##ellen
##ococ
boiled
compton
##endron
blanco
drif
16v
traum
personally
stead
##ophile
232
saldiv
transcript
##bride
275
openings
rhet
jackets
connie
arguing
spacex
cirsium
convince
curie
potomac
##bonne
baum
kramer
facial
##uxe
welcomed
taft
odessa
deepest
630
##zzle
bags
rhinoc
sensation
sensory
ligature
reflects
vinci
disciplines
psychiatry
batsman
unfinished
oliveira
resemble
atheist
docklands
dessert
nottinghamshire
meadows
caliphate
maneu
sclerosis
nicholson
saldivar
412
bains
gama
lening
m1
pus
ponds
vaster
vida
yuki
##hay
##houn
##ор
##ᅵᆫ
##inomiya
##algo
##icides
##omir
frames
fraz
##ulo
arj
##ocy
colombo
##acao
muscular
##activity
popeye
buena
preacher
charm
desmond
outdo
smugg
saunders
distress
provider
internationale
##ylene
textil
bertha
tempt
civilizations
giro
khmer
athel
punt
torah
multinational
holders
mosques
carlton
recognizes
lineback
bonif
mastering
bowler
1746
1609
tripoli
ipc
conditioning
dhabi
cooperative
biographies
kobayashi
coding
nurses
explanations
commodore
template
schumacher
peanut
proceedings
midfielders
incomple
712
bere
bint
fid
ie
ries
wain
##nl
##yk
##kat
##jid
##inium
##olese
##etia
alchem
chok
sek
spouse
##ellular
abyss
##eys
monop
##ologic
desired
1640
albrecht
ape
marche
elton
barely
infants
recorder
slug
##unde
humbold
solst
radhika
mercer
lineage
jacket
wrestled
equestrian
museo
url
galap
nobi
audi
symbolic
cabr
blockade
##canal
accessories
jurgen
1767
unlik
suffers
liberalism
dissolution
cavity
contribute
exhibits
installment
clockwise
anthropologists
liszt
marxism
aviators
guadalcanal
alderman
jaguar
konstantin
ballerina
seafood
asclepias
meredith
aix
dare
gina
js
ksh
neder
pile
ried
sided
tides
taek
uv
vuel
##bled
##ythe
##rush
##pal
##93
##erick
##erton
thee
##urgy
itanium
chihu
asi
asch
##agong
##osuke
##illin
exits
colder
boz
knives
repet
popp
prequel
##alsa
airliner
capita
rowan
sura
interpre
busch
inverse
honore
martini
sato
mcgu
karim
macon
olsen
lowe
##asca
hui
timb
travelcard
darfur
broncos
ashton
ramsey
therese
bhatt
suffix
optics
patriotic
linguists
comparing
hyperb
igne
tapes
descendant
##keeping
barbera
evacuation
dansband
prestigious
jellyfish
sgt
substantial
bangalore
mckinley
leningrad
911
cinn
ery
eind
hach
kau
nw
rana
##yi
##kell
##press
##esville
##arc
##atre
##iton
##urd
##robe
##usions
altered
seap
##ifiers
##iche
trun
clues
grays
##iked
blas
acclaim
prescott
##ugi
mono
evap
bucc
ella
submit
invading
romanized
magenta
luisa
blackpool
duff
louie
##loads
deluxe
montre
technically
readings
plantations
viewer
selective
texture
stephens
shotgun
pandora
occupies
727
waist
abdicated
mortimer
commented
behavioral
occurrence
migrated
##asmus
absolut
bentley
prosecutor
disagreed
nudity
clergyman
brug
dn
hing
lact
mates
nana
vint
zay
zod
##kawa
##mass
##anj
##isaurus
##icion
##ento
chords
chavez
shame
leah
##oreg
scan
agust
brenda
blink
upright
janata
overhead
helene
rower
mainz
longitude
slaughter
legitimate
romana
builders
transact
colleagues
freeze
##oyama
fielding
crimea
garde
colonization
psyched
darius
differs
barbuda
carrion
haydn
exciting
nagorno
rudy
discussions
hidalgo
rhythmic
tonga
clermont
spaceship
hoffmann
denomination
rehears
pharaohs
nihon
aegean
ehime
revelation
logarithm
mausole
guidance
sichuan
unpopular
unlikely
bourn
dit
houghton
jy
kosh
kauf
lumber
mould
oed
sine
##het
##rimin
##mic
##eran
##enthal
##aty
##amu
##ersen
bye
canals
scala
alloy
butch
flaming
outfit
lauder
endow
societ
backl
##undai
valois
##inka
246
249
paterson
##owska
castillo
290
realism
khuman
verona
catast
handheld
cheet
borg
illusion
veneto
taxation
crying
charlton
##viol
reigns
1756
##ranes
djib
yamato
tonnes
columnists
counterpart
migraine
barnard
coordination
ardern
lazy
rebuild
advocacy
dixie
rashid
hilary
tavern
prosperity
madhya
tiberius
umbrella
bowser
camouflage
buss
boca
hj
jok
kicks
mere
sly
sake
ting
yum
##hoff
##blad
##long
##dings
##rio
##pet
##ар
thier
##atile
chet
chiang
univ
uninh
seized
arun
##ifs
##ichiro
boomer
knot
regensburg
sob
strath
sledge
skins
251
humming
lucius
revision
irc
arches
transylvania
farthest
refuse
hyundai
martins
coptic
circa
##otho
karel
doubs
believers
limb
testicles
premium
garbage
panth
lowland
paperback
pencil
victorious
burnett
darm
destroyer
brandy
fairfield
ringo
460
mythical
sevilla
cosby
otis
definite
grasshop
scenic
jaime
hobby
miniature
##american
complained
harmonic
mascul
holloway
jpg
ciud
monitoring
synthesizer
bantu
muppet
incredible
friesland
sinai
exodus
apt
bale
daph
umar
vh
vita
##dl
##ος
##inated
##arov
inmates
##reich
##sticks
frs
chances
asym
##emouth
##ulmonary
##osia
spores
shepard
grub
##endent
megan
##awat
aguil
blond
minnie
amo
amid
amos
applying
geisha
subcom
##ophila
biosphere
virgil
reporters
olig
lowell
crimean
##gli
fairb
tallinn
policeman
1761
monarchies
gardening
landschaft
brightness
yaman
vegetarian
1736
dickens
calculation
awake
kicked
unusually
cristobal
mysteries
amphibia
beauv
browsers
prohibition
introduces
moisture
sectors
gypsy
mahabhar
sketches
watanabe
humboldt
eindhoven
bites
c1
hatt
jov
jem
jard
kale
mls
naugh
rye
rios
##electric
##name
##lach
##ии
##anese
##isy
##itra
tosc
##oton
delet
##agin
##avis
comprises
##endi
indoch
##ruk
1718
baseman
upgrade
amour
preference
secured
edna
lao
armored
housew
villars
litoria
227
richie
refr
cardiop
##ijo
browning
curious
babe
dogg
bangla
paste
akita
exceptional
aligned
mccorm
mutations
cooled
nominal
cartoonists
##tiary
1688
trustees
##hawk
journeys
marathi
redskins
epidem
armoured
kannada
nawab
trombone
persecution
weasel
andrzej
##film
diaspora
reopened
unrelated
maureen
harpsichord
raspberry
textiles
cheetah
ayr
c2
nal
tess
umber
##01
##mach
##icates
##ream
##olm
stero
fresco
##idia
##opithec
alias
chicks
platt
ariege
spess
exotic
##clan
blunt
blonde
guido
universite
novak
traced
medley
tertiary
##aean
decree
patches
farn
historia
##eshoe
burgh
verbal
explode
32nd
memes
bluegrass
reactors
auditor
carla
automot
winged
hatred
sidd
crimson
1725
1683
scorers
employer
##ogenic
regulated
pamph
ingredient
submarines
federico
daytona
desserts
brewery
enclosed
rousse
overturn
dmitry
archduke
takahashi
dissipated
arteries
tribunal
vitoria
guillermo
solstice
igneous
cardiopulmonary
ease
fais
gail
ia
kib
lm
pelle
sver
tatsu
##gos
##rays
##cans
##moor
##71
##inette
##oran
##arra
##ags
##ithe
##ogram
##ellier
tragic
##ocytes
grin
boer
##ibes
mek
brest
gerais
cale
traction
quill
milo
slate
defects
locals
batting
sala
camping
donnell
donovan
gunther
approve
liberals
affir
ashik
##hoe
kalmar
paddy
bathroom
employers
1644
##emiah
chancellors
switching
requirement
mateo
subscrib
hutton
deposit
barrels
cinematography
timberlake
ezra
penalties
bratislava
fresno
mclean
varsity
incomplete
galapagos
feng
fiona
g8
jma
lur
lash
rishi
yur
##61
##nick
##gles
##gara
##fan
##wulf
##alke
##statt
shaf
##itha
##arted
prisc
spont
spurs
marjor
sukh
bres
brighter
flamm
##irel
willard
weil
1623
##grad
marched
infamous
deceased
##etsu
valpara
##ccio
litre
london2012
intensive
##lof
titular
mening
daven
markings
##psy
lightweight
honest
handic
debian
debbie
socially
visions
equity
##othe
watkins
##ajima
hospice
collide
translate
##zoa
##verse
surrounds
splash
fatty
categor
packages
celtics
picasso
duration
bounded
mesozoic
illegally
##skaya
concentr
zheng
zoologist
coco
poisoned
maintains
reiner
##asmine
sponsors
accurately
gaston
pistons
cayman
stabil
dionys
schubert
nakhch
tectonic
iqbal
mourning
scrooge
caffeine
pembro
carinthia
outdoors
valparaiso
020
gf
nug
ramb
##haven
##houses
##bas
##tc
##try
##uber
##ᅥᆼ
##ın
##ᅩᆼ
thalia
theo
##atos
##isans
stellar
##ayo
##akawa
spine
roan
caret
##asser
parv
maynard
relate
schwart
genital
northam
switches
moe
maize
underwent
killings
glarus
valerie
307
corros
luca
irina
blacksmith
patr
patents
merely
palazzo
famously
astros
judah
hohen
##udeau
sharia
wilkes
34th
translates
kidd
mandate
mandatory
sinatra
glasses
herschel
dietrich
aspir
1732
levine
databases
thickness
cadet
remixes
answered
macedon
portrayal
glacial
disciples
gottfried
implemented
puzzles
miscar
corsica
sachs
syllable
posthumous
impressive
parsons
cigarettes
dmitri
dengue
frauen
himalayan
carbohydrates
mausoleum
refriger
automotive
arose
cess
coss
cove
eil
hairs
lulu
lrt
mest
mendo
oste
woll
zulu
##hir
##hai
##bay
##jer
tott
stade
##adur
##aday
##opoulos
chloe
shib
ork
neoc
arv
##icht
diarr
roast
##ibur
borneo
foley
presum
relocated
albu
##enny
starch
octave
surreal
matte
gladi
##aev
litter
auf
##minton
northernmost
successes
horus
##ijn
chew
macarthur
gunter
condorc
requiem
housed
1744
rossi
miser
kamakura
alphabetical
ravi
sulz
sauber
paired
mariners
mallorca
discovering
ogden
##gregor
kristen
evangelist
bulletin
antoinette
stimulus
##umberland
sacked
cobra
strawberry
lepid
reelection
compensation
simultaneously
synagogue
hydraulic
biodiversity
condorcet
diac
maw
pesc
rift
sammy
tash
##zza
##law
##mother
##53
##54
##alm
##omys
##elis
##avar
##akin
pee
trivia
newcom
##acha
##duct
blum
1710
regier
depress
songwriting
australasia
241
seneca
226
constable
231
paternal
merrill
topology
copd
benf
alexei
hostile
panj
microw
requests
closure
encount
documentaries
##sexual
sadie
1680
salvatore
pinoc
pulls
salesman
revolver
carpent
##fsr
bilbao
coden
stefani
yankee
advocates
reyes
metallica
fluorine
dormouse
hiking
impressionist
excluded
muppets
remnants
huston
balkans
csi
dian
dots
eileen
fina
gud
iee
nate
nelly
pills
rer
sæ
uch
yomi
zac
£1
##87
##range
##parts
##vale
##inius
##aray
##stetten
reut
stard
bele
##igu
##isho
##estra
##akan
peers
pry
spines
worry
##uban
##ibus
##ansa
repairs
prescription
##weiler
regis
amrit
cradle
romagna
exports
subgen
banda
valence
301
saline
##brough
malaga
attacker
davy
mora
stiller
##meister
badminton
woodstock
torino
climber
##gaard
ambrose
liner
tuna
barbie
flagship
guardians
packed
sundays
coolest
djs
succeeding
attracts
knighted
cassette
ronaldo
1676
scriptures
instrumentation
weighing
gotham
fibres
cockato
amphibian
crowded
sixteenth
matsumoto
cultivation
marianne
inferior
exploitation
ecosystems
scandinavian
peanuts
cholera
deliberately
rosemary
magistrate
configuration
ultraman
hepburn
peripheral
campeonato
seychelles
uninhabited
ciudad
encounters
aul
fx
fak
nub
pors
rend
zeb
##67
##aedia
##bull
##oids
##fell
##ол
thoibi
anus
##oland
ston
##eters
seated
##aper
enact
pri
##orte
countdown
firms
footh
knut
1717
bask
schro
swear
gubern
medusa
providers
##inker
corv
luz
comedienne
aveyron
keel
delph
hyun
africans
fallout
nonviol
arachn
panor
violations
scotts
requiring
principe
investor
sawyer
heroic
picking
selfish
sabah
namur
siena
kalam
hollyhock
soloist
suspects
mercen
hindenburg
1605
konrad
spectacular
cassini
striped
1675
dresses
echid
sopranos
laguna
decorative
mentally
riviere
fifteenth
instrumentalist
perpetr
ankara
fugitive
1700s
triangles
fahren
kagoshima
extensively
giselle
nilsson
curriculum
karakoram
magnesium
spessart
davenport
pinocchio
gide
hov
oul
rites
tug
wight
##ll
##log
##ев
##anya
##esque
##inate
##ischen
##isław
##omans
stru
##irds
##imid
##ulse
##arten
orson
spite
##ogene
trillion
##eya
flug
reluct
schaff
nationally
swat
1630
##grin
slater
skate
discrimin
farrell
merge
carolyn
##lux
meme
1810s
violation
vanu
passport
ramos
neglect
##199
defining
fernand
precurs
baptized
mazur
bosses
grossed
dustin
cortes
grenade
phyllis
chestnut
##proof
supernova
leaked
encrypt
apocalypse
accomplishments
ethanol
wartime
appreci
spectroscopy
bohemian
psychedelic
aichi
ging
kitz
koln
pals
ucla
##into
##orak
##lements
##irl
shag
shiny
##rax
bytes
##estro
##icans
lez
env
usc
canaan
compost
serena
admit
##quette
agra
##lesford
doha
outc
overland
1521
fees
moines
emu
implies
##annis
infancy
##oble
interst
glover
##boa
assume
discrete
##anished
superint
passive
marker
billed
freem
hostages
galv
wallis
bernardo
##atoire
microorgan
390
yellowstone
motorcycl
coupe
surveyor
migrate
##organic
puppete
refugee
##itarianism
consequence
aphrodite
syllables
enhanced
persuaded
##0e6
supermarket
barracks
##igraphy
guarantee
rattlesnake
cuckoo
prejudice
vengeance
ashikaga
mendoza
coke
ew
fencer
jensen
publ
pension
riga
wines
##eav
##litz
##rou
##jima
##vation
##ич
##ᅧᆼ
##inov
##lein
##opo
##owicz
##aggio
##berries
proclamation
worcestershire
cans
excommun
trier
megh
knees
wario
1712
schemes
northumberland
weis
##azawa
1550
gamespot
bravery
252
blackwell
finch
goldsmith
freak
cardi
trades
postage
zeit
preview
wilkinson
execute
libre
galician
##iffs
##office
mahal
dominique
marketed
bullfrog
marshes
hiragana
hartman
vacant
mortar
detection
baroness
kathy
marrying
thorne
forgiveness
disappearance
##esperson
confession
diagrams
aztecs
giacomo
coefficient
dauphin
whalers
vertebrae
darmstadt
bauer
gaw
gauss
lough
meng
nodes
pests
rite
zoro
zyg
##base
##eze
##zs
##tu
##gence
##rud
##vol
##vings
##enia
##enco
inert
##asaurus
##elier
dehyd
chaud
sele
shek
##acies
##acaf
musee
parap
butte
hadith
perd
monted
contested
greta
calabria
##azia
quote
imposed
strom
##obyl
childbirth
filipp
##undra
systematic
baton
wally
##ophiles
villagers
magu
248
223
263
radcliffe
vols
password
rhymes
cyril
soundgarden
similarity
cheval
woodrow
frankish
penet
shipw
faul
baud
##ievre
doctoral
celebrates
selma
removes
reasonable
spokesperson
lynne
miocene
definitely
##walt
yeh
hazara
flavors
fukui
exercises
bromine
cristina
trenton
multiply
lesbians
beaufort
feudal
phosphate
##querque
gimn
admired
premiership
lillian
yusuf
nomencl
montpellier
polytechnic
hussain
##stitutional
##otechnology
hottest
chihuahua
benfica
ieee
gubernatorial
b0e
cue
ea
hary
hana
jang
m2
wiley
##bah
##oft
##zie
##tl
##ик
##anilla
##leaf
##imental
asper
unfor
ench
abkh
grizz
##sports
##ppo
musa
parrot
resin
gertr
1719
wills
depressed
moreover
guj
gupta
##inta
##upe
surah
##letta
redes
animations
anno
decid
fargo
donat
jewels
motown
snails
executions
jimenez
38th
messiah
leonese
blocking
##ridges
1753
1735
1666
1661
approaching
mongols
pavilion
reinforced
mackay
dwarfs
lombard
exposition
heathrow
sikkim
reprinted
prohibited
pompey
recruited
quotation
dharma
amnesty
cullen
genevieve
frieza
ceylon
aguilera
vanuatu
b0e0e6
etern
gue
nid
rude
subl
soto
uae
wey
zeta
##tus
thel
##stat
##urian
##opath
hee
chuk
##imited
ors
spare
##ograd
##endar
serra
##enskan
##econom
co2
schult
chargers
guth
emit
thresh
starter
submission
loads
glendale
archived
bios
273
railroads
karma
watford
robber
photons
institutional
santander
drav
##flight
inscription
##iyan
caes
concacaf
arthropods
odin
odor
440
winslow
##walker
jordanian
toyama
sahib
hydroelectric
pelop
sulph
cereal
sergey
aubrey
miyazaki
anarchism
blowing
altogether
blessing
delegate
fascism
melodies
keeper
leverkus
shabbat
crystalline
convenience
doraemon
shrewsbury
enslaved
corridor
trolley
maneuver
transactions
fahrenheit
montedio
dfb
dangers
kali
node
nanny
sia
##buster
##yne
##gam
##path
##jit
##400
##qing
##icio
toast
frustr
prome
trudeau
herring
phou
##ensch
flush
monoxide
genu
belts
terre
emmer
australopithec
glove
staten
midwestern
vargas
palo
palms
morley
morrow
cathy
suns
sunrise
cantor
melvin
macqu
ballard
36th
routine
42nd
aquino
scroll
mythological
generating
sweep
koji
documentation
luciano
analys
embra
sails
apartments
sherwood
1742
hangul
1709
1643
dressing
imaging
allegh
bernardino
mckenzie
prophets
tendency
ernesto
examined
stretching
tasmanian
reptile
bedfordshire
hajj
hesper
plaque
herbivores
assyrian
blossom
desperate
decisive
elliptical
djibouti
panthoibi
naughty
leverkusen
cfa
dane
gory
lg
nf
piers
tis
tard
ural
uri
##hat
##eous
##note
##fest
##farl
rebo
heck
##otan
##owell
shipped
##raz
##isham
##ishops
atoll
pluck
spans
##ipak
##gev
caring
thereby
blows
blanche
televised
defenses
##rij
pao
powerpuff
louvre
##hammer
louisa
handles
naturalised
##ajara
rounding
garda
fortified
inscriptions
straits
##azzi
##rels
messaging
investments
theropod
springer
lydia
freedoms
wolfe
clearing
##ews
1752
gangs
##iabad
karls
1703
bartlett
tyrone
thicker
rhythms
mozilla
joanne
parasite
wicked
initiated
marquess
tightly
prostitutes
meadow
hymns
##svenskan
oyster
avoiding
wavelengths
farewell
unconstitutional
incarnation
enjoys
thessalon
appalachian
styria
roanoke
albuquerque
lenz
nino
##finger
thesp
##lek
##thi
##elman
##unton
shay
seah
atal
##ipes
displ
paran
##week
##tened
pooja
bij
summon
petra
##iscard
gardiner
ulm
branded
mandy
embarr
observers
bedroom
dispers
1747
liquor
1701
licenses
repeating
1670
archbishops
baptism
pronouns
storing
checked
emirate
hammerhead
meteorology
coordinator
abandon
circumc
gersh
casualty
erected
terrace
precedent
overthrown
ljubl
extensions
kilogram
cheek
receptors
matthias
hathaway
perceived
mixtape
pepsi
forensic
umberto
faisal
nakhchivan
##farlane
80s
bays
gaius
lola
nause
taw
vogue
zig
##iards
##sum
toon
##enti
rector
##opal
##otus
shack
seag
ats
##abel
spanning
##ubo
marquez
manners
clut
comprising
##aching
carole
butcher
monophy
amman
statehood
outlets
outfielder
airfield
laut
marches
impl
elgar
##ietta
augusto
wouldn
obes
voicing
runaway
228
duk
kei
pune
postp
replied
poetic
balloons
citations
35th
barbar
aqua
emerald
470
napoli
717
responsibilities
hinter
unlimited
ansbach
coolidge
1606
pinto
encyclopaedia
horseshoe
tolkien
viceroy
coffin
narrowly
eisen
sponges
inductees
francoise
orebro
britannia
supervill
reconstruct
alsace
intervals
permian
avoided
myeloma
paddington
predominantly
rhyme
complaints
merchandise
vuelta
mahabharata
marjorie
70s
a5
aeth
jap
joss
kast
oise
oven
oleg
tull
vign
##yamba
##kovic
##fight
##cers
##jm
##leased
##ilus
##amt
##step
##chach
##etri
chag
chub
##emus
lef
leib
ariana
spells
##ichy
##ellin
trous
##endicular
knicks
alloys
twitch
disse
resolved
drill
geophys
##ysema
##ancourt
subord
valer
annot
addicted
seeks
catarina
pressing
detention
chefs
zeph
damn
cantonese
kilm
rogue
wikis
kongyamba
lyons
promoter
expressway
##prints
hornets
lynx
laden
mesa
cocoa
sensor
niagara
pipeline
subtract
hobart
##ilingual
mysterio
taxonomic
quintanilla
slipper
##ungsbez
struggles
saarland
gentlemen
##horse
disguise
nuevo
bukit
interrupted
punctuation
mcpherson
guernsey
inequality
absolutely
zodiac
cud
dang
fife
hays
hanks
hagen
mard
sash
wb
##kr
##rone
##omal
##elids
##stani
##ayas
heel
chab
##iez
pritz
##ogg
mania
manchu
clav
newbery
##ighton
boch
##acs
##acional
cara
##onduct
adver
briggs
contests
charities
chariot
##azquez
overwh
europ
socrates
steg
2500
##burne
234
salman
holby
faroe
malware
297
##mination
bala
youngstown
restless
stationed
karam
wallach
papyrus
derives
sarat
mirage
miriam
cabbage
practition
practicing
antonia
eyre
lori
bonding
fredrik
nikita
1728
scarlett
cypriot
honoured
kaye
schwyz
confessions
emphysema
mummy
antibiotic
monterey
chernobyl
evolve
merseyside
mimicry
conjug
etruscan
monopoly
regierungsbez
nomenclature
overwhel
a6
caj
fence
nz
sime
soria
##bil
##zko
##pcion
##waffe
##juk
##vere
reinc
##etano
##oting
becker
##arty
proxy
ender
arjun
spann
##athe
sheen
grimes
boar
##iburg
##accio
meuse
parano
afterward
conti
contamin
basins
amher
1612
teamed
crank
##cessors
starvation
expo
surve
looney
maturity
##enga
219
305
anybody
afrika
italiana
paulista
hygi
francais
judd
324
lesotho
sarc
##gencies
ghar
foxes
psycho
textbook
395
bowen
mcclel
590
mandel
05°
##hoek
contributing
ayers
fixing
crowley
##anteed
jumped
calculator
hydrochlor
ovarian
katharine
1536
faculties
guerra
tortoise
jinja
withdrawn
summerslam
gyor
guaranteed
werder
seventeenth
triggered
ustase
inclination
luftwaffe
pritzker
hygiene
010
bary
dx
daly
vt
##bill
##tors
##sdorf
##wu
##alone
##ouz
stacy
wasp
##illan
##illand
##oglu
trif
roz
##ibor
##perms
##ideae
brum
ministr
guilt
1519
mund
##upo
correl
croy
262
courthouse
malmo
confront
billiards
argus
ruhr
satire
collects
inserted
rosie
miracles
akk
740
570
gilmore
weakening
suspicious
kanye
illegitimate
indicating
brunn
srin
nitro
gibbons
rushed
reconcil
reservation
sikhs
rhea
andersson
perpendicular
salamanders
razor
heterosexual
multiplied
bharatiya
enhance
gondwana
staple
seizure
mcgill
polymers
supermarkets
eureka
uncommon
dignity
fyodor
shankar
plastics
ffffff
kangleipak
tottori
sæson
superintendent
ljubljana
agh
bung
e5
gps
ith
jays
mapping
nel
narnia
rb
vance
wigan
zan
zwe
##bug
##yas
##tan
##moke
##inz
##isers
##ascript
##olor
stork
##irr
onion
deacon
chie
seating
bypass
encom
pegas
prc
sph
##ogues
playback
playhouse
##elland
clover
##phen
collo
phob
blame
minamoto
buys
amen
1650
##oller
##ysh
quir
divis
philologist
romani
portfol
luk
236
salty
midi
confron
##oises
grape
murad
hoax
sidekick
privat
predictions
automated
##richt
dolores
##iatus
laval
1648
zoological
acquitted
ozone
tempore
porcel
terminator
ardennes
fibrosis
javascript
fujita
peasant
unicode
guadalajara
tentacles
concepcion
gogh
scorpion
##stroke
hawthorne
caretaker
beleza
foothills
embarrass
reincarn
amherst
beryl
dull
jens
jima
mies
nave
silt
wakes
yester
zer
##yre
##fact
##comb
##with
##jord
##mins
thong
##anum
##onite
##oub
##adas
##roth
chased
##unas
##iale
tramp
trough
##lander
mezzo
hermit
##acea
##balls
bresc
##tee
minaj
ames
1610
1540
helper
##tley
harrow
stew
waterford
valery
##ontas
##inkel
##elsen
comedies
keaton
holm
##written
burden
grac
##apple
khat
erm
authored
robust
tener
collectively
322
oppose
prefectural
climbers
trois
panthe
walloon
gunnar
355
potentially
rosso
cabaret
caption
escort
cutter
pickup
forestry
596
unitary
##knot
715
horned
conquist
hangs
1727
nutt
1649
ferrer
limitations
##clusive
ribe
correspondence
duchesses
ocasio
paraguayan
reprise
innovative
abolitionist
shivaji
thoroughbred
micropro
nebulae
abnormal
searches
masculine
fairbanks
gideon
gertrude
aachen
cate
dich
taz
tnt
uday
yol
##riv
##wash
##aney
toed
stained
frig
##idas
alta
asb
##illance
##ipation
##ichael
marrow
mani
manny
##orean
##ictive
bloch
##tech
##ahr
regiments
##azon
emissions
elle
wherever
octavian
instagram
socio
interrog
brawl
##atsuki
assim
decent
addams
239
265
solv
louder
richer
advised
lineup
burgl
morse
anticip
talents
termed
judas
mcne
peterborough
distract
garlic
##geny
timing
stanisl
laying
routledge
##market
acceptable
hirsch
embolism
saddle
strengthening
ferns
1738
favorable
dirk
1632
sensors
attachment
paleolithic
heavenly
ichinomiya
igles
1572
dusty
decreases
paradig
sociologists
magnetism
lichten
satisfied
knoxville
trenches
tastes
astrophysics
vauxhall
leavenworth
asexual
buccane
surveillance
dina
fum
fielder
fonda
gaku
v8
yew
##aq
##city
##jad
##map
##anid
##enb
##ouac
tog
##amir
##iese
sein
enforced
arous
##essy
afi
##acz
##acca
cooke
schism
noodles
quiz
impr
##linary
interfer
invades
welles
voor
magna
classroom
264
solitary
membranes
conform
realms
donn
fremont
rhod
##usha
wentworth
entre
equipped
samana
melted
321
middleton
33rd
osage
jerzy
grocery
identifies
platyp
fairfax
piero
kimura
packs
packaging
crews
1739
concentrate
bourne
environmentalist
environmentalists
1598
toxins
dodd
gustave
rouen
1533
fisheries
vulgar
rejects
photojourn
grenad
sibling
possessed
yankovic
##olyte
##espan
swansea
pixel
pompe
slipknot
polynomial
recruit
squirrels
bartholome
remnant
vipers
pygmy
privileges
pueblo
hallucinations
heisenberg
ransom
chittagong
cheyenne
boomerang
ministries
tenerife
durr
epp
eton
fission
lop
pess
sana
v6
zork
##eck
##four
##72
##ᅮᆫ
toss
##cey
alber
chasing
shov
##arton
plc
##odact
##iek
ari
mango
webber
##angen
##izi
##izable
disob
flair
schn
regained
##osei
guidel
calhoun
saito
maas
##oodoo
stargate
internacional
slo
champs
interl
remakes
242
patel
intact
281
extr
ordering
donations
economies
catcher
coloring
monta
benign
jude
factions
almond
##woods
voter
globally
##mitt
hoping
ratchet
51°
reasoning
suggestion
bahadur
##ships
axes
hanson
##aroos
trusted
vertebrate
1642
mattel
ridges
determines
hurting
thrower
interpol
aborigines
carpath
cambodian
cosmology
##uhle
ninety
sulfuric
repaired
tensions
slovakian
carnivores
incorrectly
wolverhampton
mhz
##opteryx
retreated
forsyth
drosophila
unveiled
domenico
taekw
hyperbolic
haryana
cim
dann
eocene
faint
fuchs
hald
jai
lure
nach
ode
uy
vold
wages
##hus
##fle
##fels
##erk
thun
thinner
##inis
##lew
##reb
##thra
##uram
##irth
ita
unse
oranges
levin
spiny
suited
haskell
firth
adige
afterlife
##tea
soils
swelling
poisons
moj
larsen
maast
capcom
endoc
milestone
jeong
invinc
##etsk
humour
237
raion
testimony
middleweight
multilingual
335
gunshot
candles
choi
separating
flightless
384
tuned
870
stocks
odisha
emergencies
787
ottomans
pediat
560
fashioned
##points
1722
1721
sediments
cassidy
spyro
advancement
chatter
diablo
sapiens
##ebook
adolfo
cheney
navigator
antibodies
reprint
solely
erupted
##straße
tropics
mahmoud
manifesto
tucson
yvonne
narciss
caledonia
hibern
rhinoceros
subscribers
schwartz
hydrochloric
croydon
guidelines
011
aeg
aaa
bf
bop
bival
cine
ether
fenn
gins
goku
m6
upt
vc
vive
voodoo
xian
zell
zanz
##eche
##yat
##oya
##kis
##fors
##pack
##vig
##xia
##ин
##itos
##otto
chico
##aguan
shal
withers
##ckets
##illard
enlisted
arenas
spal
##sef
clones
hass
sciss
##izia
joze
aging
bliss
1716
relates
depths
noth
guantan
poz
##ollen
governance
emission
landau
glaz
##inky
224
salle
sumner
farr
berk
bering
berwick
vein
horatio
cantal
cirrh
informed
informally
nonpro
melts
##ajar
501
azores
lowlands
hua
costello
##adores
fortuna
uluru
eaters
hawke
pacif
##comput
rolled
captains
lifts
illustration
fulham
dispos
##holders
kerouac
hershey
phoebe
orbitals
##enhausen
ignor
zoolog
milkweed
maze
hurd
punishments
subscription
expeditions
chandr
gymnas
skulls
pereira
margot
pillars
udp
moldovan
cavaliers
bloomberg
nemo
turbines
phonetic
instantly
calderon
accelerator
##anguard
disagreement
gladys
struggled
disliked
herzog
seamount
##oglob
##thorpe
eccentricity
jewellery
disturbed
harassment
motorsports
prasad
kimberly
##obacteria
landforms
indochina
microorganisms
unforg
nausea
dwell
ee
fancy
gems
gills
hens
kling
mtr
oun
ocl
oder
pid
pats
ragn
vell
yin
zub
##zio
##vara
##qq
##eren
##anova
##enet
##arre
inorganic
##isely
##omers
##lefeld
##entes
reind
##ayi
##opro
beams
##imos
##allah
spelt
##ritt
suits
##oute
knob
indigo
##quim
parrots
##ahontas
schalke
regener
geologists
teammate
yorker
barred
##airn
stripped
steak
christi
incub
raises
takashi
soluble
delg
295
311
academia
rhon
streak
astrid
freeway
rufus
333
mixes
bangor
islamist
opio
conservatism
##icultural
participant
##zyk
bullock
frederik
tagore
sherlock
misunder
friedman
sickle
remembering
normans
1634
barrymore
battleship
colonialism
bogota
sicilian
##govern
##jarvi
prominence
piquet
cosmos
vampires
nominees
gp2
##missions
polynesia
guangzhou
verdict
encountered
brackets
residences
intestine
pocahontas
vittorio
parachute
micronesia
aortic
nauru
traumatic
lauderdale
asymmet
porcelain
guantanamo
boles
gaud
jian
pies
rall
sween
tz
tint
vet
yvel
##num
##cini
##was
##vist
##mies
##anze
##atical
##elos
##chichte
##irol
##etism
##agra
unanim
lease
arama
##ebol
clank
caric
##0000
perug
moncheng
goethe
estelle
guaya
steering
bracket
cori
irr
midd
261
282
283
##ippa
299
morality
florent
snork
putnam
prevail
israelites
panzer
gunman
##fla
##ladbach
distribute
cannibal
705
insert
tsub
praet
lasker
slowed
functioning
bede
douglass
gregor
piccad
ladakh
1726
##breaker
##iphers
1638
##friends
sauces
yugoslavian
absorbs
kiwi
fibre
anchorage
methyl
nicaraguan
hermione
leakey
soyuz
congolese
##atomic
catalyst
aaliyah
invasive
ammonium
##gotland
resonance
enlarged
parenth
criterion
impaired
conjunction
macquarie
taekwondo
gymnasium
monchengladbach
950
bland
bals
caz
ciphers
dose
eject
fiance
faye
hates
hae
jiri
jafar
jasmine
kiel
monde
rpm
suez
tf
verne
wai
x86
##nin
##sworth
##ра
##edi
##itr
##ouf
##thys
onions
##cea
decca
##agle
whl
##terozoic
unle
sewing
spoon
tep
##rito
marley
manu
reply
##ignano
resumed
moors
artic
##wayne
jehov
steals
humorous
valves
##ophytes
villar
229
headache
moran
astor
hardin
deton
promising
sargent
nicky
sirius
##evsky
opel
rodent
originates
drying
settling
observing
illustrators
slavs
weaken
##egna
jamal
venezia
1667
gravey
1672
scarborough
chromat
smartphone
integrity
masked
cleric
substitution
attributes
dormant
bharat
zombies
aristocrat
rochelle
yogi
surgeons
pentecostal
remembers
elegant
akih
deciduous
bartholomew
piccadilly
baek
cured
fits
mime
mace
padu
rok
sanger
vanguard
##kie
##vil
##ır
thi
##omas
##ionage
ales
##imura
sears
conm
pea
newt
roque
meur
allsvenskan
##awks
goof
swind
weir
##neur
highlights
##ographies
quark
##amax
##ismith
underlying
slade
##kei
filters
simba
backward
philips
righteous
corr
superf
delight
extras
passau
##ombat
economically
##plan
continuation
snail
screaming
hooks
samoan
bored
gallo
haber
drains
curling
jeremiah
37th
cartridges
propriet
730
casablanca
closes
tsuk
stephan
dunes
pyth
snowy
naismith
pleased
christophe
##escence
ryder
discusses
hurts
1692
toxin
##rophe
kickbox
protestantism
stefano
absorption
gnome
smokey
kelley
roofs
caucasian
eritre
centimetres
cremated
fiorentina
fulfill
awakening
cactus
laptop
iroqu
spokesman
interpreter
encompass
jehovah
cumb
fender
fibr
gough
jtw
mesh
nant
uma
zd
##bok
##nom
##olev
##zadeh
##kor
##74
thapa
##onics
##arum
##eln
reper
cheryl
##ainen
##esson
##udy
abrams
rohan
commut
##ectives
ads
phar
upload
noailles
electorate
overc
capuch
elves
barcl
armand
womb
##ophilia
operetta
##anek
269
wrath
sanford
thiruv
downloads
sonatas
needles
debussy
devonian
fewest
sexes
woodpe
stronghold
penelope
illumin
commitment
fortun
cartil
assembled
facade
moonlight
raman
corporal
crucial
carboniferous
rugrats
alternatively
lockdown
nikola
coward
viacom
sardar
luxembour
##ogenesis
crisp
revolutions
comparable
blogger
demonstrate
puppets
##amanian
rebuilding
pillar
vivian
komodo
abdominal
##stedt
rubinstein
indirectly
brennan
sausage
tetrapods
##oglyph
peacock
elaborate
maastricht
zanzibar
guayaquil
jtwc
90s
bingham
cj
cotes
dq
fencing
gaps
huck
hiatus
ipa
jad
oax
pasha
qi
sill
samm
tid
##yards
##oese
##wiki
##mount
##alur
##ingual
##chief
##adze
aldo
##igon
##imm
orr
cones
aromatic
##abella
mariano
sule
cared
##tois
##ahed
monoc
##ffen
amd
depicts
##neg
overnight
##intra
strangers
##obile
islander
##ropy
glue
##elsdorf
##elssohn
luf
luzon
addison
rais
286
##ukas
##ipps
loser
cyst
storyt
judo
334
espionage
bully
esch
704
insurg
faq
rosenberg
adventurer
lining
destroyers
logos
escal
drey
barbadian
gabor
numeral
transitional
precisely
wedge
tripura
attorneys
soder
ignacio
pronounce
coronary
sophistic
mansell
jarvis
kathryn
eliminate
cypress
challenging
escaping
rearrang
amplif
mendes
mendelssohn
cska
stylized
bhutto
dysfun
melodic
microscopic
satisfaction
mushrooms
flamengo
euclid
bodybuilder
sewage
supervisor
colossus
innocence
obesity
brescia
reindeer
dass
e4
gow
jat
kach
kup
kami
lsd
mural
pyeong
ritz
tipp
vesp
##82
##hari
##bos
##bru
##lau
##uis
##pas
##95
##onists
##arab
inex
andaman
##lez
##entz
reapp
##adar
##ivores
alve
deeds
##emort
##raw
secession
##api
##ifolia
##ameen
afonso
scent
##aterina
##enshire
##ecrow
amel
craters
quay
impulse
eliot
endeav
underwear
armando
##shut
angolan
listings
redisc
romanesque
epith
luiz
irons
natur
suppress
campo
campos
markus
##inoff
greenville
rails
karan
cleans
raptors
accordance
##olester
curves
distributor
timur
bernad
cartographer
recognise
beatty
facil
synaps
rods
scranton
sugars
##trak
sundance
kermit
sedg
grassland
1682
symptom
scarecrow
pretend
1553
havel
blooms
apparatus
kelvin
stretches
anarchists
accompaniment
##odonts
nursery
sparks
alkaline
bjork
ankle
tacoma
vigil
squidward
nudum
##runner
cigarette
fujiwara
bieber
waterfalls
eukaryotes
pomerania
highlighted
neanderthal
flickr
enabled
acknowledged
eucalyptus
cellulose
vintage
schultz
displaced
cirrhosis
yvelines
katsu
riy
rsa
sbs
xd
yous
##81
##83
##kon
##kah
##mose
##erty
##edience
##icesters
anwar
##lehem
isid
##elih
recess
stav
hebe
##ulations
##oski
lei
leicesters
pele
marlon
abus
abby
##ryl
knots
lively
tweed
displace
monot
mined
drone
appet
1618
##news
smells
1520
##asek
attitudes
rowland
modena
watergate
millimet
306
##ontroll
annette
walden
285
publicity
##omba
cathode
##mei
ruf
sounding
broadly
hamburger
fishes
prima
matching
##iscus
breakup
##steen
separatist
burnside
qualifier
textbooks
orchard
safari
##iasis
escobar
akadem
programmers
830
commandments
mccoy
##bitt
kyo
680
580
pedestrian
##151
alek
1687
theorists
1734
##warts
nyct
perfection
1697
terminals
conversations
choirs
cockpit
bethlehem
pharmacy
gemini
wakefield
patented
symmetric
determining
bikini
optimization
excluding
overlap
dislike
sympath
bielefeld
positively
assumption
archduch
stamford
ortiz
accusations
subdistr
subcommit
portfolio
leicestershire
bakh
caine
eber
ewing
kors
rn
tundra
wemb
##yuan
##fre
##pok
##willer
##96
##73
##amis
##amatsu
reel
stakes
##oten
alar
##unaga
##utter
proxim
spor
##orna
shea
serene
blend
coen
##ireann
relics
genn
britons
guzman
outlook
electors
1530
geologic
airstr
provisions
elmer
landings
brace
valued
walther
archimed
currencies
contrary
272
attackers
merida
capitalist
##hev
##queen
talbot
computational
copeland
judged
postcode
wilma
climax
##olfo
##genland
bridgeport
385
45th
brandt
synod
motorways
teller
accepting
alternatives
##iotto
gaol
katz
fillmore
elders
preparations
crows
violinists
margarita
paramil
experiencing
kisses
sakai
narrated
soundtracks
grenoble
sudanese
guatemalan
alvaro
nasser
collapses
corpse
tramway
1600s
obviously
mysore
herrera
kusatsu
unreleased
##mandu
rpg
weightlifter
consecrated
asiatic
daphne
yesterday
luxembourgian
auss
banc
mika
npr
pico
pahl
zir
##eers
##oos
##zeb
##gru
##kha
##xes
##ла
thebes
##arana
##atia
##icourt
##lewood
toto
##ilov
stowe
##chison
chish
##ovia
##ulative
shams
##aval
neub
spani
##igham
mansl
adhes
##quest
flock
montal
##weg
drome
chartered
1629
apulia
##aleh
waldo
trey
villers
decry
keane
268
##istano
volga
presently
civile
##working
fallacy
denotes
convoy
326
accordion
garth
administratively
ballarat
penic
curios
chartres
sarg
insight
treehouse
savanna
platoon
logs
naver
backgrounds
scrub
favre
scholastic
spokane
cosworth
excit
bradshaw
1708
crowds
oberliga
ppv
ravenna
1694
pioneering
rahul
mckay
spirituality
heirs
choreography
miyagi
nuns
dumont
tutorial
crusaders
nikolay
delegation
hieroglyph
brasil
1500s
prosecution
spartan
higgs
kendrick
struggling
##cutta
potsdam
remembrance
energetic
welding
telenovela
graffiti
ornamental
backlash
##elihood
manslaughter
ait
aura
bd
cgi
ebers
nv
nis
pann
rau
wta
xeon
zebra
zhao
##zar
##zier
##tag
##gene
##rip
##pres
##wid
##oru
##itel
##itim
ander
##lei
##etamine
hebr
shuk
plasm
##ckers
mara
manx
##ostak
dijon
##ght
boley
##toire
relies
gret
bucks
weed
calcutta
broker
##nev
grouping
##ussen
shower
barg
barley
underwood
conscience
defences
##ophon
legions
severn
##veda
2600
merging
erasmus
hardest
ruin
spaceflight
etudes
dani
401
citadel
drained
planting
pianos
objectives
##ihiro
dinamo
coldest
767
515
alfa
goddard
ibar
pleaded
530
suffrage
dalai
arnhem
weddings
virtues
cleaner
ventric
scholarly
echl
priority
havilland
kazakhstani
tirol
forgive
##locked
trigon
wendell
seaside
mouths
rancho
perpet
rehabil
daisuke
boulogne
piazza
tupolev
tesla
accommodation
exchanges
adulthood
nairobi
hodgkin
carcass
hammersmith
correze
draymond
priscilla
reboot
mcclellan
nonprofit
aramaic
pyeongchang
dop
fidd
jib
kog
kano
ketch
m3
mub
sama
silla
wic
zuko
##henge
##lab
##sville
##pel
##atma
##itating
##aski
##elton
##elines
rechar
##rost
##opsy
chik
##odi
conwy
proms
spins
spagh
exagger
scuba
##orde
##econds
##ahara
basalt
pops
buchen
##ologie
1616
pointe
johanna
yorktown
emo
endos
substr
deficit
##riere
corona
majors
raoul
##anao
godfrey
271
##ukawa
markt
specialised
##ushin
marta
martian
tracked
borat
osbourne
haar
bulbs
##efin
medicinal
hereford
insom
liberated
60th
identities
cabot
linus
massey
dominance
antonov
programmed
gianni
concurr
availability
##ropolis
culturally
fatima
dvorak
specifications
1704
whitman
buckley
symphonic
mazda
mitter
vasily
infanta
huron
1658
1659
kathmandu
sakura
hendrik
dwarves
sindhi
phyla
nadia
moulin
obstacles
threads
pterosaurs
iberia
vickers
vaughn
marsupial
vibration
unwanted
deutschland
phylogeny
nautical
prospect
hellenistic
athenian
seismic
diarrhea
karlsru
oclc
oaxaca
bt
bs
dimin
fies
giscard
lyle
laryn
mith
nike
o2
rund
rani
wim
woven
##hag
##nae
##tland
##tical
##like
##rama
thigh
##oron
##orius
reass
staling
algar
##aglia
comoros
##aller
orang
##ifix
##ellation
grange
scors
twe
parlement
acanth
recapt
soo
smythe
apr
apache
crouch
##intest
elise
barrie
schooling
jeju
reddy
avent
keio
##zewski
pala
##tales
khar
trader
deviation
beni
mcgra
melville
zeeland
wilkins
pasteur
insign
eaton
dario
completes
conservatoire
baal
dining
tamar
bowman
mccull
46th
suicidal
670
polyg
contributor
brightly
spectr
siegel
1731
meso
trieste
baths
contacts
lacked
scenario
echin
vaish
anarchy
mimi
proposals
montene
turbochar
rabbis
vibrations
annexation
brutus
cyanide
cicero
antenna
disguised
crucifix
goblin
dimitri
honekawa
emanc
dromaeosaur
estaing
porsche
thelma
guthrie
sweeney
hebrides
012
cite
dared
dosto
feral
jia
kuch
loll
wished
xiang
zucker
##bling
##kur
##wol
##mis
inuit
##isal
##iska
##itans
##icos
##asp
##adium
##idze
heidi
##owed
demp
whistle
oron
neel
enn
##udge
##astrian
suites
noting
##assi
##assen
fools
germs
swims
smiley
larson
##inney
edd
##ancies
quer
consumed
listened
brachi
invitation
rockies
valera
brewers
keating
summar
sanctions
versa
empir
billions
cerro
verac
erika
connell
convey
ledger
procession
effectiveness
considerably
ivoire
violins
fortifications
maharaja
originating
525
photographed
mechanic
altman
581
lifelong
sadness
##hui
alphabets
maximus
discussing
baptists
pretending
1596
nasir
1547
hobbit
delivering
sigma
witnessed
surfing
cedric
eclipt
perspectives
preceded
kubrick
##ierrez
apocalypt
aeronautics
chowdh
softer
hewitt
fraternity
swabia
underside
poitiers
palmeiras
scanner
lviv
krasn
rsssf
gastrointest
rhetoric
wainwright
evaporation
flammable
echidna
galveston
thessaloniki
regierungsbezirk
grenadines
voldemort
jozef
graveyard
stalingrad
gastrointestinal
damm
fn
fisch
liang
niv
tinker
vain
vind
##84
##hac
##bag
##good
##rino
##cane
##mak
##xit
##oras
##itre
##itte
##itives
toho
isla
##illet
##iran
onward
deemed
chas
orte
##ieure
arson
spun
spence
##iffer
compressed
##iken
##acp
##idean
parc
parole
centennial
##ultures
charism
noaa
calcio
overture
traun
##anken
albans
moy
capra
sloan
jeans
interd
##sheet
lander
humber
hummel
302
cores
perfume
mala
malibu
274
popularized
confusing
specialty
freiburg
cym
townsend
##arski
astra
copern
announcing
posters
mustang
macintosh
torque
402
panamanian
galle
parliaments
raccoon
groves
##cao
##vira
murdering
insol
39th
bait
savings
stonewall
960
felton
affection
napier
shrink
searched
dalarna
miura
quarterly
labeled
##enzell
oscill
1665
calculating
ventures
ghostbusters
wikipedias
##blue
worshipful
anatoly
seemingly
hypert
checking
fisherman
hannover
interpretations
sigmund
ugandan
szcz
reunification
jorg
quartets
digestion
middlesbrough
##enovac
adrienne
conceived
stranded
aeronautical
blazers
chrysler
falkland
touchdowns
ecclesiast
warehouse
transistor
mukherjee
prodigy
nurnberg
arjuna
prometheus
allegheny
monophyletic
scorsese
aard
bane
db
dorf
fand
heng
jhel
lice
miley
pell
rast
tammy
vidal
wow
ying
##tell
##kova
##rium
##fran
##wati
##erting
anesth
##ouin
##ilagus
##unov
orwell
prent
prun
##ublish
##ogi
##aston
marius
manchur
succ
norbert
hertz
brno
flinders
warlord
2024
schuster
1627
janis
overtime
##inschaft
moff
##inna
creuse
establishes
showcase
himachal
speculation
##ashvili
##resh
modification
harley
mato
deficiency
retina
gluck
##ccini
mucus
304
courty
##loff
merlin
palais
##meer
activision
freel
halves
hymen
visually
techno
sexy
mcbride
hamad
danes
huber
343
pasta
cracks
##agonists
translit
microphone
##iyo
tuning
432
heroine
pathogens
protesting
dissident
investigating
ryo
bathing
fabian
necklace
disappears
contempor
francesca
thorpe
chatel
regulatory
isabelle
complaint
toulon
a300
listeners
consortium
gutierrez
palaeont
poured
lichen
nihil
cruelty
tropic
grosso
dartmouth
toilets
sylvilagus
excessive
vortis
bulldogs
compulsory
##texts
peshawar
vh1
trousers
extrater
iroquois
sophisticated
paramilitary
810
811
b1
dary
eid
fue
gaj
jut
jena
jahan
lbs
pai
##lus
##rists
##ит
##inder
##arist
anac
tokaido
##throp
##stairs
##irt
##rott
##ounced
seh
pli
lek
ary
abru
abba
dire
bohr
##enden
##ptonshire
phyt
blaine
charging
charitable
swans
wehr
1619
1628
##azy
geese
crewe
junta
matric
glorious
muc
addis
salah
suppose
266
284
294
donation
refusing
lightly
verge
quezon
debts
latina
vegan
entom
##beau
mcgr
karol
macfarlane
primate
garment
363
##genstein
namesake
columbian
chaired
carlson
kenji
425
43rd
grammatical
blockbuster
545
wikitable
44th
sudbury
occupying
632
swept
conducts
bushes
marcia
sleepy
siddi
investigative
cavern
extraction
spectators
##conn
vertically
bryn
imagery
detector
saturdays
compiler
wolff
vallee
lobe
smoked
pseudos
lionsgate
tumors
eclips
bloomington
intersect
jasenovac
quarterbacks
sauropod
allegro
senegalese
judgement
martyrs
sassari
nsw
affordable
zachary
pasht
snowboarding
xinjiang
cagli
exhaust
cephalopods
##gorod
invasions
cursed
gossip
appendix
microbiology
kindergarten
dynamite
supremacy
interstellar
colloqu
aich
aida
giotto
hila
iata
jenna
lakh
m4
mers
taf
zhe
łodz
##hya
##fen
##cm
##wijk
##mc
##maine
##51
thu
##lech
##ivir
ons
frans
alo
##igley
asphal
##aguchi
sei
##alls
congl
leit
arne
##abs
spree
mancha
newborn
aba
partisan
carriages
herds
indefin
phan
parental
cents
##icka
charley
betsy
##ierz
1526
subgroup
consume
loading
##letal
##atorium
romanov
breach
additions
supercontinent
signatures
vij
campania
realised
burd
morb
posse
debated
hooper
mcint
dutchess
failures
postc
limiting
galatas
oskar
osiris
okay
modeled
thinker
jimi
happily
##iyang
393
facel
achilles
bowls
theropods
launching
840
mccon
essence
guarded
##imento
harvested
gaia
flattened
tyre
1607
neurone
questioning
nitric
impacts
ridley
heaviest
blindness
bogdan
portraying
meteorite
kiw
krem
proposition
piston
intellectuals
dalmatians
stampede
exported
ostergotland
inverted
hijacked
examinations
spurgeon
redevelop
indycar
ijssel
epilepsy
gimnasia
pantheon
boleyn
mcgraw
asphalt
galatasaray
ather
aper
bons
cress
fg
kank
koy
oden
piv
pga
rour
tuck
ume
xix
yarn
yakov
##oidea
##lal
##ucher
##paw
##erz
##erte
##enham
##educt
inactive
ansel
##stall
##irts
##irable
hepha
shale
##estation
atkins
plumb
orne
##iegel
leimar
suf
newsc
##acchar
##izio
adren
somehow
monograph
warp
evapor
northward
willi
novo
##duced
maul
##ielle
barriers
surfer
treats
villiers
decatur
comedic
##enegger
solic
bien
superfamily
liar
##eshow
refin
balc
##arnock
madrig
karna
##arios
curly
ivorian
qualifications
warship
642
electrol
890
masterpiece
stephane
shootout
optional
1706
kangaroos
habib
dictionaries
compilations
cnid
lazarus
eisenstein
jailed
forums
entrepreneurs
ripley
anglicans
##cracker
pursued
vaginal
expectations
injected
vedic
plummer
mammalian
preceding
counselor
persuade
guangdong
vogel
stuntman
jaguars
caterpillars
gillespie
chimpanze
linebacker
grayson
overturned
northamptonshire
microwave
reruns
schaffhausen
precursor
maguire
phouoibi
chieft
buccaneers
spaghetti
ecliptic
jhelum
chimpanzees
aung
bile
couch
fas
gears
hilly
kgb
loun
nemat
nune
sond
vulture
wul
##tur
##pw
##wings
##wark
##waters
##anan
##enues
incheon
##icello
##adir
##adine
shig
atten
polka
##perm
parodies
##acek
offense
1625
calib
airborne
edg
capric
rommel
endless
oldham
harlan
jeann
259
muir
annoy
voic
malle
merkel
dona
burgenland
antelope
activated
khanna
verified
franca
punta
premise
##apeake
huns
toole
mayoral
394
645
aqueduct
tamara
favored
nordiques
naacp
lindbergh
slovene
abdur
mutants
hearst
pigments
1733
guinean
sorrow
svet
1653
lanar
ivanov
saturated
taboo
1542
puppy
randomly
mannheim
botanists
gustavo
furnace
pieter
shawnee
battalions
prestige
kohler
brutal
herzl
esteem
squeez
herbivorous
remarks
chesapeake
peyton
euclidean
repertoire
bk
ddr
ere
eel
hk
hiro
jt
nga
vere
vett
vaj
wired
waver
##zlo
##tit
##tze
##laut
##vii
##он
##eru
thut
rewards
##ayn
asa
asimov
arezzo
conject
##illi
pept
useless
##ogie
newell
abi
##spe
allgau
coated
coimb
2023
##issy
##ffe
docks
scholl
televisa
famer
outline
janice
calig
crumb
maury
artworks
edema
##epolis
##shahi
angios
landown
philatel
258
257
assumes
irma
ecumen
archiv
paige
233
incomp
transsexual
291
markers
rhys
khrush
catfish
receivers
montag
friar
chinch
secretariat
connector
bankers
citing
haas
curator
earls
bulg
lowercase
reacted
darth
451
##ochem
caen
bono
##agnac
416
768
quarantine
516
splend
fluores
polyhed
kilometre
cuyah
spector
spectral
kamal
1662
1664
sorcer
1673
necked
scenery
pelvis
vicar
fleetwood
ensign
surveys
hendrick
hubbard
decreasing
kreuz
podium
priesthood
gonzalo
reeve
rhodesia
yemeni
kochi
toothed
tactical
salamander
mehta
supervision
lokomot
griffiths
outlaws
mauve
kaisers
##alpindi
tanner
luminous
renovated
stainless
telenovelas
panchayat
disappoint
gdansk
palatine
concentrations
abkhazia
archduchess
ibaraki
buchenwald
hilaire
khrushchev
cuyahoga
bani
darn
domes
dopp
fs
git
kral
menn
pains
sore
##bam
##nuts
##zep
##lak
##last
##jiro
##moon
##macht
##ᅡᆷ
##omori
heap
wholly
##emire
##iav
##osure
uno
##estus
plots
##avas
##aines
peuge
abort
birken
sermon
disin
##tsky
##icker
doi
amc
noor
1615
1613
belo
##ographed
quang
quake
armist
defens
landshut
void
epit
irre
arrests
natalia
##linger
biom
delays
296
empower
specialists
needing
erick
autistic
judoka
saty
robbed
banknotes
ferre
403
336
persepolis
consideration
boyz
violated
committing
frontiers
1790s
hawking
masah
rollins
hopper
welker
standardized
kidman
cookies
442
465
cruze
sabrina
puls
algiers
duran
financially
rawalpindi
bengals
revealing
kamen
chloropl
nyon
banning
bucket
1590
1592
biographer
blew
kaplan
dependency
gifted
bromwich
kaspar
gottingen
wicket
trioxide
brasile
marcelo
erupts
chakwal
battista
taoism
nicolae
jurisdictions
recalled
zionist
reelected
fermentation
bushranger
bushrangers
shetland
byzantium
zedong
palsy
motorcycles
chevalier
genuine
kilmarnock
##oglobin
conglomer
peugeot
cach
cuth
daf
gout
jans
kombat
nau
pum
penda
tumb
yek
zara
##63
##kner
##kka
##wave
##wali
##mos
##°f
thayer
##inan
##edal
##atars
##alid
isere
reis
reese
recession
##champ
##oter
alman
shines
primes
prism
spikes
##ource
grat
herault
musik
parry
coil
cocker
minerv
uploaded
##olde
sway
smol
##ollern
##urred
junctions
endurance
sliding
accents
illy
308
asset
arrange
massa
##bergen
successors
modernist
funer
sportsman
denial
cev
macrop
ohl
screening
405
342
matched
##osauria
ghent
lowering
stanisław
reviewers
librarian
homicide
mahatma
campaigned
odo
saba
waited
laszlo
pedest
bosch
donaldson
goran
investigators
conception
conceptual
appliances
fills
ellie
1686
handsome
bryce
geographically
travellers
wetland
reflecting
kicking
ferrara
lenny
psv
bicameral
dystop
pups
possessions
pineapple
ricci
javelin
analytical
truce
brahman
geraldine
tutor
alkali
gadd
superson
vinegar
sustainability
licensing
niels
kellogg
schwarzenegger
wittgenstein
exchanged
bombardier
swabian
pollination
altenburg
smurf
smurfs
lakshmi
ceasefire
persistent
transfers
kaufman
stardust
postponed
asbest
invincible
unleash
displacement
chowdhury
lanarkshire
bors
dwayne
hench
kool
kraft
kota
lana
nons
nank
nfc
pouch
sith
sushi
tama
wac
##nab
##nica
##vie
##´s
##erun
##atto
##atron
inline
##alas
##isburg
##ingian
##ilin
sturt
##adz
##usch
heid
alden
shiger
atkinson
##theria
plo
##avut
leach
enfor
prad
##geois
##ourne
##orns
abuses
##okie
serf
twa
agenda
warns
upwards
amis
noz
guo
1622
##azir
##azov
api
crested
instances
ifk
skies
obi
rockwell
##ontaine
magellan
##burton
auge
267
##ukh
##rette
berth
318
advancing
grandpa
morg
erg
firefly
stationary
eventual
##eki
franken
bulge
learnt
revolutionaries
##ensee
arthritis
##forth
##akhand
780
policemen
suggesting
##iotic
packet
klan
shaan
bartolome
fitting
cleaned
worthy
fabulous
detectors
continuum
1637
demanding
appealed
allegian
ovid
1565
bilingual
manned
petrov
truj
dwelling
deposited
a320
guarani
khalid
hossein
prostitute
firefox
grimm
unicameral
kakadu
sikhism
spartak
recovering
accomplished
adjectives
compassion
##felden
kruger
resolve
huntsville
enthusi
oratorio
magdalena
consolidated
regeneration
diagonal
sapphire
poppins
timbaland
thierry
mccormick
##machine
shipwreck
threshold
parentheses
sedgwick
baut
cil
dread
eels
fade
goli
glyn
lili
p2
pits
sere
sog
ws
##hame
##bish
##bock
##bilt
##yx
##yun
##oia
##ioms
##tree
##rens
##enka
inputs
##alai
##lema
##elion
reag
forge
heine
beb
ores
arles
arias
##aban
actin
canis
##oreau
sui
notion
notices
##okawa
boon
carre
pheas
brides
##tees
buffer
novgorod
capped
thrones
metis
##sham
locust
##ccan
##iseach
raft
faraday
279
castor
delivers
298
billings
frei
equino
satoshi
sharps
garib
##affenburg
frontal
susanna
managerial
strains
caball
ashland
giann
scrolls
stephenson
kingsley
03°
analogy
peaking
lifespan
tuval
daley
1602
kerber
dedu
1678
lacking
parameters
1656
1690
1691
1588
1580
reflections
tatiana
shellfish
ribs
##uffle
dsm
tetra
##families
kristin
nunavut
folding
trentino
uttarakhand
nemesis
cracked
pearce
shifts
taoiseach
rwandan
babylonian
jalal
greensboro
motivated
memorable
adultery
tlc
sacrifices
coeffic
rejoined
##mantle
aschaffenburg
seleuc
wembley
montenegrin
##ublished
hephaestus
eireann
fences
fuse
giza
jure
koc
kott
mx
mure
mitz
ogle
olof
pn
rink
tutt
wie
woz
yos
zem
##hound
##buck
##eering
##tis
##kiewicz
##pc
##52
##arks
inge
##alin
##amble
##olle
stony
##iru
chum
shaman
pled
##icant
##ainville
enable
acton
canopy
dik
commits
norwood
adhd
foil
foam
livorno
presiding
offenbach
##tsch
popper
calc
calories
brok
medall
capabilities
quakers
##upi
elvira
differentiation
landis
##riya
remy
##cco
eastenders
##coin
litt
runoff
avian
289
malaya
signalling
passages
vienn
316
autor
argonaut
badger
hitachi
macl
multic
candice
productive
362
deadline
thinkers
sommer
##evich
forehead
antoni
lawsuits
ratification
falun
alphonse
mandalay
fatigue
haired
hayward
wingspan
globalization
catalunya
archaea
##enzollern
warden
sardegna
immigrated
1647
yoko
advisors
petersen
achieving
1585
1560
benedictine
wickets
cougars
shakur
##assee
cobain
concorde
commodity
abolitionists
odysse
pendleton
convenient
gaulle
confirmation
hohenzollern
interfere
kylie
demigod
hydrocarbons
boniface
platypus
apocalyptic
wehrmacht
thutmose
shigeru
coefficients
812
bongo
eater
gens
hager
kata
kappa
mors
namb
nievre
ots
pizz
sist
sade
sasha
wett
yacht
##02
##eons
##dad
##fiction
##muhle
##qa
##orhyn
##reys
##ilan
##elen
stoud
##chal
##oteric
beasts
cholester
##oske
unhe
seo
plesi
enig
pears
##abon
playground
trag
trance
granger
##ibati
meiosis
paratro
agost
whoever
goya
coo
gert
contender
amit
swap
weeds
1614
thromb
meta
loh
jeep
redwall
romanization
archaic
276
277
sangh
##ukov
representations
rhiz
queer
##ushka
montes
robins
ferenc
nobita
##haan
derry
somal
psychic
##royd
##lessness
##glass
drummond
##holz
domination
##ageddon
00pm
orgasm
sweets
##anzee
elevators
dealers
baham
fundra
lifting
bundesrat
gorillas
kilometer
storey
hindust
peninsular
##zhen
ignat
vincenzo
shelton
lacks
##ropsophus
bleed
##organized
encourages
stalk
kidnap
beverages
deposition
villefran
blessings
shakti
denton
mogadish
relegation
inferno
intentions
workshops
motivation
beaked
mocking
scorpions
shorth
obsessed
schwein
dendropsophus
vassal
bulldog
tyrannosaurus
depicting
confucianism
kansai
transcend
surpassed
endowment
zephyr
meurthe
ortega
60s
610
bending
bouch
dax
ghe
gma
iwa
ked
kamm
oe
oates
sow
tams
vf
vines
yal
zal
zug
##bey
##tok
##pole
##wit
##qvist
##enthe
stump
forks
beers
chao
shink
sherb
shostak
unne
##rai
##illus
arise
##ebb
marlow
abbe
##angan
collin
boana
##oughts
disg
soups
drank
ami
howell
musicologist
likewise
elong
barlow
langston
expon
expend
slap
intercommun
divisible
landlocked
steppe
bandit
easton
severus
castes
supercomput
superieure
##retion
palin
donetsk
bursts
##cheid
squads
purity
mcqueen
petals
##osho
hitt
sharpe
furry
359
354
sandler
projected
##waite
insisted
##evil
377
faber
krust
bello
acha
closet
##former
husbands
slept
sabot
490
kiribati
otters
loiret
innings
imperfect
polygon
signifies
durga
marsden
1608
##feldt
##enhof
buyers
geneticists
##aphyl
anatol
misty
alleles
purchasing
iwo
toxicity
yangtze
choreographers
circumference
laughing
ramsay
fateh
snoop
tattoos
transmitter
sacrificed
entrances
chimpanzee
frightened
betrayed
h2o
daimyo
fokker
trunks
miscarriage
pegasus
perugia
suleiman
veracruz
cagliari
trujillo
mogadishu
shostakovich
bower
bisch
ehr
epping
goph
hover
jind
jihad
kia
kanto
lute
pd
tamm
tars
ux
wn
wiel
xer
yarm
zi
##bun
##yam
##zell
##lang
##kom
##rically
##ет
##inac
##iguous
chard
whig
shiga
##rail
[...]
